{
  "version": "1.0",
  "truncation": null,
  "padding": null,
  "added_tokens": [
    {
      "id": 0,
      "content": "<PAD>",
      "single_word": false,
      "lstrip": false,
      "rstrip": false,
      "normalized": false,
      "special": true
    },
    {
      "id": 1,
      "content": "<UNK>",
      "single_word": false,
      "lstrip": false,
      "rstrip": false,
      "normalized": false,
      "special": true
    },
    {
      "id": 2,
      "content": "<BOS>",
      "single_word": false,
      "lstrip": false,
      "rstrip": false,
      "normalized": false,
      "special": true
    },
    {
      "id": 3,
      "content": "<EOS>",
      "single_word": false,
      "lstrip": false,
      "rstrip": false,
      "normalized": false,
      "special": true
    },
    {
      "id": 4,
      "content": "<|system|>",
      "single_word": false,
      "lstrip": false,
      "rstrip": false,
      "normalized": false,
      "special": true
    },
    {
      "id": 5,
      "content": "<|user|>",
      "single_word": false,
      "lstrip": false,
      "rstrip": false,
      "normalized": false,
      "special": true
    },
    {
      "id": 6,
      "content": "<|assistant|>",
      "single_word": false,
      "lstrip": false,
      "rstrip": false,
      "normalized": false,
      "special": true
    },
    {
      "id": 7,
      "content": "<|math|>",
      "single_word": false,
      "lstrip": false,
      "rstrip": false,
      "normalized": false,
      "special": true
    }
  ],
  "normalizer": null,
  "pre_tokenizer": {
    "type": "ByteLevel",
    "add_prefix_space": false,
    "trim_offsets": true,
    "use_regex": true
  },
  "post_processor": null,
  "decoder": {
    "type": "ByteLevel",
    "add_prefix_space": true,
    "trim_offsets": true,
    "use_regex": true
  },
  "model": {
    "type": "BPE",
    "dropout": null,
    "unk_token": "<UNK>",
    "continuing_subword_prefix": null,
    "end_of_word_suffix": null,
    "fuse_unk": false,
    "byte_fallback": false,
    "ignore_merges": false,
    "vocab": {
      "<PAD>": 0,
      "<UNK>": 1,
      "<BOS>": 2,
      "<EOS>": 3,
      "<|system|>": 4,
      "<|user|>": 5,
      "<|assistant|>": 6,
      "<|math|>": 7,
      "!": 8,
      "\"": 9,
      "#": 10,
      "$": 11,
      "%": 12,
      "&": 13,
      "'": 14,
      "(": 15,
      ")": 16,
      "*": 17,
      "+": 18,
      ",": 19,
      "-": 20,
      ".": 21,
      "/": 22,
      "0": 23,
      "1": 24,
      "2": 25,
      "3": 26,
      "4": 27,
      "5": 28,
      "6": 29,
      "7": 30,
      "8": 31,
      "9": 32,
      ":": 33,
      ";": 34,
      "<": 35,
      "=": 36,
      ">": 37,
      "?": 38,
      "@": 39,
      "A": 40,
      "B": 41,
      "C": 42,
      "D": 43,
      "E": 44,
      "F": 45,
      "G": 46,
      "H": 47,
      "I": 48,
      "J": 49,
      "K": 50,
      "L": 51,
      "M": 52,
      "N": 53,
      "O": 54,
      "P": 55,
      "Q": 56,
      "R": 57,
      "S": 58,
      "T": 59,
      "U": 60,
      "V": 61,
      "W": 62,
      "X": 63,
      "Y": 64,
      "Z": 65,
      "[": 66,
      "\\": 67,
      "]": 68,
      "^": 69,
      "_": 70,
      "`": 71,
      "a": 72,
      "b": 73,
      "c": 74,
      "d": 75,
      "e": 76,
      "f": 77,
      "g": 78,
      "h": 79,
      "i": 80,
      "j": 81,
      "k": 82,
      "l": 83,
      "m": 84,
      "n": 85,
      "o": 86,
      "p": 87,
      "q": 88,
      "r": 89,
      "s": 90,
      "t": 91,
      "u": 92,
      "v": 93,
      "w": 94,
      "x": 95,
      "y": 96,
      "z": 97,
      "{": 98,
      "|": 99,
      "}": 100,
      "~": 101,
      "¡": 102,
      "¢": 103,
      "£": 104,
      "¤": 105,
      "¥": 106,
      "¦": 107,
      "§": 108,
      "¨": 109,
      "©": 110,
      "ª": 111,
      "«": 112,
      "¬": 113,
      "®": 114,
      "¯": 115,
      "°": 116,
      "±": 117,
      "²": 118,
      "³": 119,
      "´": 120,
      "µ": 121,
      "¶": 122,
      "·": 123,
      "¸": 124,
      "¹": 125,
      "º": 126,
      "»": 127,
      "¼": 128,
      "½": 129,
      "¾": 130,
      "¿": 131,
      "Â": 132,
      "Ã": 133,
      "Ì": 134,
      "Î": 135,
      "Ï": 136,
      "à": 137,
      "á": 138,
      "â": 139,
      "ð": 140,
      "Ċ": 141,
      "č": 142,
      "Ġ": 143,
      "Ģ": 144,
      "ģ": 145,
      "Ĥ": 146,
      "ĥ": 147,
      "Ħ": 148,
      "ħ": 149,
      "Ĩ": 150,
      "ĩ": 151,
      "Ī": 152,
      "ī": 153,
      "Ĭ": 154,
      "ĭ": 155,
      "Į": 156,
      "į": 157,
      "İ": 158,
      "ı": 159,
      "Ĳ": 160,
      "ĳ": 161,
      "Ĵ": 162,
      "ĵ": 163,
      "Ķ": 164,
      "ķ": 165,
      "ĸ": 166,
      "Ĺ": 167,
      "ĺ": 168,
      "Ļ": 169,
      "ļ": 170,
      "Ľ": 171,
      "ľ": 172,
      "Ŀ": 173,
      "ŀ": 174,
      "Ł": 175,
      "ł": 176,
      "Ń": 177,
      "à¦": 178,
      "à§": 179,
      "Ġà¦": 180,
      "à¦¾": 181,
      "à¦°": 182,
      "à§į": 183,
      "à§ĩ": 184,
      "à¦¿": 185,
      "à¦¨": 186,
      "à¦¤": 187,
      "à¦¯": 188,
      "à¦ķ": 189,
      "čĊ": 190,
      "à¦¬": 191,
      "à¦²": 192,
      "Ġà¦ķ": 193,
      "à¦®": 194,
      "Ġà¦¸": 195,
      "à¥": 196,
      "à¥¤": 197,
      "à¦Ł": 198,
      "à§ģ": 199,
      "à¦¼": 200,
      "à¦ª": 201,
      "Ġà¦¬": 202,
      "à¦¶": 203,
      "Ġà¦ı": 204,
      "Ġà¦ª": 205,
      "à§ĭ": 206,
      "à¦¦": 207,
      "à¦¸": 208,
      "à¦Ĥ": 209,
      "Ġà¦ķà¦°": 210,
      "à§Ģ": 211,
      "à¦Ĺ": 212,
      "à¦£": 213,
      "à¦·": 214,
      "Ġà¦ħ": 215,
      "Ġà¦®": 216,
      "à¦§": 217,
      "Ġà¦¤": 218,
      "Ġà¦Ĩ": 219,
      "Ġà¦¹": 220,
      "Ġà¦¦": 221,
      "Ġà¦¨": 222,
      "à¦ľ": 223,
      "à¦¤à¦°": 224,
      "à¦ī": 225,
      "à¦ĩ": 226,
      "Ġà¦ıà¦¬": 227,
      "à¦°à¦¶": 228,
      "à¦ĸ": 229,
      "à¦Ń": 230,
      "à¦īà¦¤": 231,
      "==": 232,
      "à§Ł": 233,
      "Ġà¦ıà¦ķ": 234,
      "Ġà¦¯": 235,
      "Ġà¦ī": 236,
      "à¦¹": 237,
      "à¦¥": 238,
      "à§Ĥ": 239,
      "Ġà§": 240,
      "Ġà¦ľ": 241,
      "Ġx": 242,
      "à¦ļ": 243,
      "Ġà¦¸à¦®": 244,
      "à¦Ľ": 245,
      "à¦¼à¦¾": 246,
      "Ġà¦ıà¦ķà¦Ł": 247,
      "à§ĩà¥¤": 248,
      "Ġà¦¶": 249,
      "Ġà¦Ń": 250,
      "Ġà¦°": 251,
      "à¦¼à§ĩ": 252,
      "à¦ı": 253,
      "à¦¡": 254,
      "âĪ": 255,
      "Ġà¦Ĺ": 256,
      "Â²": 257,
      "à¦ĵ": 258,
      "Ġà¦ªà¦°": 259,
      "Ġà¦Ĩà¦®": 260,
      "Ġ(": 261,
      "::": 262,
      "Ġà¦²": 263,
      "====": 264,
      "Ġ=": 265,
      "à§ĥ": 266,
      "à¦°à¦£": 267,
      "Ġà¦ĵ": 268,
      "Ġà¦ļ": 269,
      "in": 270,
      "Ġa": 271,
      "Ġà¦ħà¦§": 272,
      "Ġà¦ľà¦¨": 273,
      "er": 274,
      "on": 275,
      "Ġ-": 276,
      "Ġà¦ķà¦°à¦¤": 277,
      "à¦¾à¦Ĥ": 278,
      "Ġà¦ħà¦¨": 279,
      "à§Ī": 280,
      "ti": 281,
      "Ġ1": 282,
      "à§ĩ,": 283,
      "à¦¾,": 284,
      "Ġà¦«": 285,
      "lo": 286,
      "Ġc": 287,
      "Ġà§§": 288,
      "Ġà¦¹à¦¯": 289,
      "Ġs": 290,
      "à¦°à¦ķ": 291,
      "âĪļ": 292,
      "âĤ": 293,
      "en": 294,
      "Ġà¦¹à¦²": 295,
      "Ġ2": 296,
      "à¦ªà¦¨": 297,
      "à¦°à¦¤": 298,
      "Ġà¦Ľ": 299,
      "Ġà¦¥": 300,
      "à¦ªà¦°": 301,
      "re": 302,
      "Ġt": 303,
      "00": 304,
      "log": 305,
      "à¦ĵà¦¯": 306,
      "âĪĴ": 307,
      "à¦¯à¦¬": 308,
      "à¦°à¦¯": 309,
      "à¦¿à¥¤": 310,
      "Ġp": 311,
      "::::": 312,
      "à¦«": 313,
      "========": 314,
      "à¦ľà¦¨": 315,
      "Ġà¦¬à¦²": 316,
      "Ġà¦ıà¦Ł": 317,
      "Ġà¦ĺ": 318,
      "Ġâ": 319,
      "à¦ŀ": 320,
      "à¦¬à¦¨": 321,
      "Ġà¦ĩ": 322,
      "ĢĶ": 323,
      "or": 324,
      "an": 325,
      "al": 326,
      "à¦¼à¥¤": 327,
      "à¦ıà¦®": 328,
      "Ġà¦¸à¦°": 329,
      "à§Į": 330,
      "ĠâĪļ": 331,
      "es": 332,
      "à¦ł": 333,
      "à¦¬à¦°": 334,
      "à¦ģ": 335,
      "à¦ıà¦®à¦ıà¦®": 336,
      "à¦ĥ": 337,
      "Ġf": 338,
      "Ġà¦ĸ": 339,
      "is": 340,
      "Ġà¦§": 341,
      "à¦¾à¥¤": 342,
      "à¦ĩà¦¨": 343,
      "Ġà¦Ĩà¦ªà¦¨": 344,
      "tion": 345,
      "à¦ıà¦°": 346,
      "Ġà¦¡": 347,
      "Ġ3": 348,
      "Ġà¦īà¦ª": 349,
      "Ġe": 350,
      "à¦®à¦¨": 351,
      "à¦¯à¦¬à¦¹": 352,
      "à¦¼,": 353,
      "à§İ": 354,
      "Ġà¦¸à¦¹": 355,
      "ĠâĢĶ": 356,
      "à¦Ļ": 357,
      "Ġb": 358,
      "Ġd": 359,
      "Ġlog": 360,
      "Ġà§¨": 361,
      "Ġà¦®à¦§": 362,
      "ÃĹ": 363,
      "à¦¤à¦¨": 364,
      "Ġà¦ħà¦¬": 365,
      "ed": 366,
      "à¦£à§Ł": 367,
      "ĠA": 368,
      "ar": 369,
      "Ġà¦ıà¦°": 370,
      "ing": 371,
      "at": 372,
      "Ġm": 373,
      "Ġà¦Ł": 374,
      "à§Ģ?": 375,
      "à¦²à¦ķ": 376,
      "Ġà¦ıà¦ĩ": 377,
      "à¦ķà¦°à¦£": 378,
      "Ġ0": 379,
      "à§¦": 380,
      "à¦·à¦£": 381,
      "Ġà¦¬à¦°": 382,
      "à¦¨à¦¤": 383,
      "ro": 384,
      ")=": 385,
      "Ġ5": 386,
      "le": 387,
      "Ġà¦¦à¦ķ": 388,
      "à¦°à¦Ń": 389,
      "à¦¿à¦Ĥ": 390,
      "Ġà¦īà¦¤": 391,
      "Ġà§©": 392,
      "à¦¾à¦ģ": 393,
      "it": 394,
      "à¦¼à¦¿": 395,
      "ĠĠ": 396,
      "Ġ4": 397,
      "Ġà¦īà¦ļ": 398,
      "ic": 399,
      "::::::::": 400,
      "à¦ļà¦ķ": 401,
      "à¦Ĩ": 402,
      "à¦¦à¦ķ": 403,
      "Ġà¦ķà¦®": 404,
      "ou": 405,
      "à¦ĺ": 406,
      "he": 407,
      "âģ": 408,
      "à¦ıà¦ı": 409,
      "================": 410,
      "Ġ+": 411,
      "Ġà¦īà¦¨": 412,
      "Â³": 413,
      "à¦¼à§ĭ": 414,
      "à¦¯à¦ķ": 415,
      "Ġà¦ĩà¦¨": 416,
      "ent": 417,
      "Ġà¦Ĩà¦ķ": 418,
      "Ġà¦Ĩà¦°": 419,
      "à¦ıà¦®à¦ıà¦®à¦ıà¦®à¦ıà¦®": 420,
      "Ġà§®": 421,
      "Ġw": 422,
      "à¦°à¦®": 423,
      "à¦¦à¦®": 424,
      "à¦¥à¦®": 425,
      "Ġà¦²à¦Ĺ": 426,
      "Ġà¦ħà¦°": 427,
      "__": 428,
      "à¦¤à¦¬": 429,
      "Ġn": 430,
      "à¦¿,": 431,
      "à¦ķà¦²": 432,
      "Ġ\"": 433,
      "à¦°à¦¦": 434,
      "à¦ĩà¦¨à¦ª": 435,
      "à¦°à¦¨": 436,
      "à¦«à¦²": 437,
      "10": 438,
      "à¦¬à¦²": 439,
      "ation": 440,
      "Ġà¦¶à¦ķ": 441,
      "ab": 442,
      "ac": 443,
      "as": 444,
      "Ġre": 445,
      "à¦¸à¦¬": 446,
      "Ġà¦ħà¦¤": 447,
      "Ġà¦¸à¦®à¦¯": 448,
      "à¦īà¦Ł": 449,
      "Ġà§«": 450,
      "100": 451,
      "Ġà¦¹à¦¬": 452,
      "Ġà¦¹à§Ł": 453,
      "Ġà¦¸à¦®à¦¸": 454,
      "Ġ*": 455,
      "Ġà¦ķà¦¤": 456,
      "à¦¶à¦¨": 457,
      "=(": 458,
      "à§ĩ?": 459,
      "Ġin": 460,
      "Ġl": 461,
      "25": 462,
      "et": 463,
      "om": 464,
      "Ġ/": 465,
      "à¦²à¦¨": 466,
      "Ġà¦®à¦¨": 467,
      "âĤģ": 468,
      "Â°": 469,
      "à¦Ĺà¦¤": 470,
      "Ġà¦īà¦¦": 471,
      ")à¥¤": 472,
      "el": 473,
      "Ġà¦¦à¦¶": 474,
      "Ġà¦¬à¦¨": 475,
      "Ġà¦īà§İ": 476,
      "Ġà§§à§": 477,
      "à¦ĸà¦¨": 478,
      "Ġà¦°à¦¯": 479,
      "Ġh": 480,
      "âĤģâĤ": 481,
      "):": 482,
      "..": 483,
      "âĤģâĤĢ": 484,
      "à¦²à¦¦": 485,
      "Ġà¦¸à¦¬": 486,
      "Ġà¦¸à¦°à¦²": 487,
      "à¦°à¦¸": 488,
      "un": 489,
      "à¦°à¦Ł": 490,
      "à¦ĩà¦Ł": 491,
      ")(": 492,
      "Ġà¦Ĩà¦®à¦°": 493,
      "Ġà¦ħà¦¬à¦¸": 494,
      "Ġo": 495,
      "us": 496,
      "Ìĩ": 497,
      "ĠÌĩ": 498,
      "à¦ľà¦Ĺ": 499,
      "Ġà¦¦à¦¶à¦®": 500,
      "Ġà¦ªà¦¦": 501,
      "à¦¤à¦®": 502,
      "Ġ:": 503,
      "Ġà¦ķà¦°à¦²": 504,
      "ers": 505,
      "ĠB": 506,
      "Ġg": 507,
      "Ġà¦ıà¦¸à¦¬": 508,
      "Ġan": 509,
      "Ġy": 510,
      "Ġà¦¸à¦¹à¦ľ": 511,
      "à¦ĸà¦¤": 512,
      "à¦¾:": 513,
      "à¦£à¦¨": 514,
      "12": 515,
      "ĠP": 516,
      "Ġà¦ķà¦¥": 517,
      "à¦¥à¦¨": 518,
      "im": 519,
      "Ġr": 520,
      "il": 521,
      "à¦¦à¦°": 522,
      "Ġthe": 523,
      "ce": 524,
      "Ġ9": 525,
      "Ġà¦īà§İà¦ª": 526,
      "Ġà¦Ĺà¦Ń": 527,
      "ur": 528,
      "am": 529,
      "à¦¨à¦°": 530,
      "={": 531,
      "à¦ķà¦Ń": 532,
      "Ġà¦¸à¦¤": 533,
      "Ġà¦¹à¦¤": 534,
      "ec": 535,
      "Ġ7": 536,
      "à¦ĩà¦²": 537,
      "Ġà¦¶à¦¬": 538,
      "::::::::::::::::": 539,
      "à¦¨à¦Ł": 540,
      "ĩĴ": 541,
      "à¦°à¦¹": 542,
      "à¦Ĺà¦°": 543,
      "à¦®à¦¤": 544,
      "à¦·à¦¤": 545,
      "Ġà¦¹à¦ĵà¦¯": 546,
      "à¦Ńà¦¬": 547,
      "ot": 548,
      "à¦¶à¦ķ": 549,
      "Ġà¦¶à¦°": 550,
      "Ġ6": 551,
      "Ġv": 552,
      "ol": 553,
      "ĠC": 554,
      "Ġà¦¨à¦¯": 555,
      "Ġà¦°à¦ķ": 556,
      "16": 557,
      "à¦ķà¦°": 558,
      "à¦ıà¦ıà¦ıà¦ı": 559,
      "),": 560,
      "à¦Ŀ": 561,
      "à¦°à¦ľ": 562,
      "Ġà¦Ĩà¦°à¦ĵ": 563,
      "Ġà¦ĵà¦¯": 564,
      "à¦¯à¦¤": 565,
      "à¦ķà¦Ł": 566,
      "qu": 567,
      "Ġà¦Ĩà¦²": 568,
      "Ġcon": 569,
      "ig": 570,
      "ul": 571,
      "à§§": 572,
      "Ġà¦ļà¦²à¦ķ": 573,
      "à¦Ĩà¦®": 574,
      "à¦¯à¦®": 575,
      "Ġà¦¤à¦¥": 576,
      "os": 577,
      "Ġ`": 578,
      "Ġà¦ħà¦Ń": 579,
      "Ġà¦īà¦Ń": 580,
      "Ġà¦«à¦²": 581,
      "Ġis": 582,
      "à¦°à¦¥à¦®": 583,
      "Ġà¦īà¦ªà¦°": 584,
      "id": 585,
      "à¦¨à¦¨": 586,
      "Ġà¦¸à¦°à¦¬à¦°": 587,
      ".,": 588,
      "à¦¦à¦¨": 589,
      "Ġà¦¤à¦¬": 590,
      "Ġ10": 591,
      "à¦ıà¦®à¦ıà¦®à¦ıà¦®à¦ıà¦®à¦ıà¦®à¦ıà¦®à¦ıà¦®à¦ıà¦®": 592,
      "à¦°à¦¬": 593,
      "um": 594,
      "================================": 595,
      "tr": 596,
      "Ġà¦Ĩà¦¬": 597,
      "à§«": 598,
      "Ġà¦ıà¦®à¦¨": 599,
      "à¦Ĺà¦²": 600,
      "Ġà¦®à¦¤": 601,
      "à§ĭà¥¤": 602,
      "à¦¦à¦¸": 603,
      "Ġà¦ħà¦¸": 604,
      "à§¦à§¦": 605,
      "à¦ªà¦¸": 606,
      "Ġto": 607,
      "ĠS": 608,
      "out": 609,
      "____": 610,
      "à¦®à¦Ĺ": 611,
      "âĢĶ": 612,
      "à¦²à¦¬": 613,
      "Ġ8": 614,
      "à¦ıà¦¬": 615,
      "à¦¼à§ģ": 616,
      "Ġth": 617,
      "20": 618,
      "à§¨": 619,
      "Ġà¦Ĩà¦§": 620,
      "âĤĤ": 621,
      "ad": 622,
      "Ġà¦§à¦°": 623,
      "iv": 624,
      "à§ĭ,": 625,
      "à¦īà¦°": 626,
      "ge": 627,
      "ut": 628,
      "Ġà¦¸à¦¦à¦¸": 629,
      "Ġà¦ľà¦¨à¦ª": 630,
      "ĠD": 631,
      "à¦°à¦Ĺ": 632,
      "Ġà¦īà¦ł": 633,
      "Ġà¦ľà¦Ł": 634,
      "Ġà¦Ńà¦°": 635,
      "Ġà¦ļà¦²à¦ķà¦¬": 636,
      "à§ģà¦ģ": 637,
      "Ġà¦®à¦°": 638,
      "Ġà¦ħà¦¤à¦ıà¦¬": 639,
      "à¦¬à¦¸": 640,
      "Ġà¦ªà¦¦à¦ķ": 641,
      "à¦¬à¦ª": 642,
      "à¦®à¦ķ": 643,
      "Ġpro": 644,
      "ist": 645,
      "Ġà¦Ĩà¦Ľ": 646,
      "Ġà¦Ńà¦Ĺ": 647,
      "ĠâĪ": 648,
      "Ġà¦ķà¦°à¦¬": 649,
      "Ġà¦¸à¦°à¦ķ": 650,
      "ĠÃĹ": 651,
      "Ġex": 652,
      "^(": 653,
      "à¦¯à¦¨": 654,
      "Ġà¦¸à¦ķà¦²": 655,
      "à¦¬à¦¨à¦ķ": 656,
      "à¦¤à¦¤": 657,
      "Ġà§ª": 658,
      "à¦ļà¦¨": 659,
      "Ġà¦ĺà¦Ł": 660,
      "à¦¥à¦ķ": 661,
      "Ġand": 662,
      "18": 663,
      "od": 664,
      "Ġà¦¨à¦¤": 665,
      "à¦ĵà§Ł": 666,
      "ĠT": 667,
      "Ġà¦ªà¦¶": 668,
      "à¦ħ": 669,
      "Ġà¦Ĺà¦£": 670,
      "âģ»": 671,
      "à¦Łà¦¬à¦²": 672,
      "ir": 673,
      "à¦¸à¦®": 674,
      "Ġà¦ıà¦ķà¦ĩ": 675,
      "ain": 676,
      "à¦¨à¦¬": 677,
      "Ġà¦Ĩà¦¸": 678,
      "...": 679,
      "ĠI": 680,
      "à¦¨à¦®": 681,
      "à¦¯à¦Ł": 682,
      "Ġà¦¯à¦¦": 683,
      "Ġà¦ĩà¦¤": 684,
      "ts": 685,
      "à¦°à¦ļ": 686,
      "ĠR": 687,
      "Ġor": 688,
      "à§ĩâĢĶ": 689,
      "Ġà¦¬à¦Ļ": 690,
      "à¦Ĺà¦£": 691,
      "Ġà¦¸à¦¬à¦ļ": 692,
      "ction": 693,
      "ĠF": 694,
      "Ġà¦ıà¦¶": 695,
      "à¦¯à¦¬à¦¸": 696,
      "à¦·à¦¯": 697,
      "Ġà¦ıà¦ķà¦ľà¦¨": 698,
      "à¦ªà¦ķ": 699,
      "Ġà¦¬à¦¸": 700,
      "à¦Ĩà¦ĩ": 701,
      "Ġà¦¸à§İ": 702,
      "Ġà¦ħà¦ªà¦°": 703,
      "à¦ıà¦ķ": 704,
      "à§ĭ-": 705,
      "ate": 706,
      "Ġof": 707,
      "pp": 708,
      "Ġ[": 709,
      "à¦¨à¦Ĺ": 710,
      "à¦¬à¦Ń": 711,
      "à¦²à¦¤": 712,
      "à¦²à¦®à¦¨": 713,
      "âĩĴ": 714,
      "à¦¿?": 715,
      "à§Ĥ-": 716,
      "Ġà¦Ĺà¦£à¦ª": 717,
      "ly": 718,
      "te": 719,
      "à¦¸à¦¤à¦¤": 720,
      "Ġà¦ħà¦ĺ": 721,
      "Ġà¦¹à¦ķ": 722,
      "à¦ĩà¦īà¦°": 723,
      "Ġà¦īà¦ªà¦¸": 724,
      "à¦¨à¦²": 725,
      "Ġà¦ħà¦®": 726,
      "Ġà¦¯à¦ĸà¦¨": 727,
      "Ġà¦²à¦ķ": 728,
      "ve": 729,
      "Ġà¦®à¦¹": 730,
      "27": 731,
      "ter": 732,
      "Ġà¦ķà¦¯": 733,
      "à¦Łà¦ĵà¦¯": 734,
      "ĠĠĠĠ": 735,
      "à¦¤à¦ķ": 736,
      "ay": 737,
      "ment": 738,
      "à¦²à¦Ĺ": 739,
      "à¦¹à¦ķ": 740,
      "à§ľ": 741,
      "Ġà¦¬à¦¡": 742,
      "Ġà¦ªà¦¡": 743,
      "âģ´": 744,
      "Ġ12": 745,
      "th": 746,
      "tic": 747,
      "45": 748,
      "dx": 749,
      "Ġà¦ħà¦ķ": 750,
      "Ġcom": 751,
      "::::::::::::::::::::::::::::::::": 752,
      "Ġà¦¬à¦Ľ": 753,
      "Ġtr": 754,
      "à¦°à§Ł": 755,
      "à¦¬à¦¦": 756,
      "à¦ªà¦¦": 757,
      "Ġà¦ªà¦£": 758,
      "à¦§à¦¤": 759,
      "ion": 760,
      "ĠE": 761,
      "à¦¸à¦ıà¦ķ": 762,
      "Ġà¦¸à¦ķ": 763,
      "à¦ıà¦ıà¦ıà¦ıà¦ıà¦ıà¦ıà¦ı": 764,
      "ub": 765,
      "ĠL": 766,
      "Ġch": 767,
      "âĤĥ": 768,
      "000": 769,
      "ess": 770,
      "ch": 771,
      "Ġj": 772,
      "à¦ķà¦¤": 773,
      "Ġà¦¸à¦¨": 774,
      "à¦°à¦¹à¦£": 775,
      "Ġk": 776,
      "Ġà¦ıà¦ĸ": 777,
      "à¦Ĺà¦«à¦²": 778,
      "Ġà¦¬à¦Ľà¦°": 779,
      "à¦¬à¦ķ": 780,
      "Ġà§¬": 781,
      "unction": 782,
      "Ġà¦īà¦Ńà¦¯": 783,
      "14": 784,
      "15": 785,
      "à§®": 786,
      "à¦¹à¦°à¦£": 787,
      "ap": 788,
      "ĠN": 789,
      "à¦£à¦ķ": 790,
      "ant": 791,
      "Ġ**": 792,
      "Ġ'": 793,
      "Ġà¦¸à¦ł": 794,
      "Ġà¦ľà¦²à¦¬": 795,
      "Ġà¦§à¦¨": 796,
      ")/": 797,
      "à§ĩà¦ĥ": 798,
      "à¦¨à¦ĵ": 799,
      "à¦¯à¦¦": 800,
      "à¦ĩà¦¡": 801,
      "ple": 802,
      "à§©": 803,
      "Ġà¦Ŀ": 804,
      "à¦°à¦ª": 805,
      "à¦¼?": 806,
      "Ġà¦®à¦¡": 807,
      "Ġà¦īà¦²": 808,
      "ĠâĩĴ": 809,
      "Ġà¦īà¦Ńà§Ł": 810,
      "if": 811,
      "Ġà¦ıà¦Ĩà¦ĩ": 812,
      "Ġà¦ħà¦ª": 813,
      "Ġà¦ļà¦²": 814,
      "Ġst": 815,
      "33": 816,
      "age": 817,
      "Ġro": 818,
      "à¦¼à§Ģ": 819,
      "à¦ıà¦®à¦ıà¦®à¦ıà¦®à¦ıà¦®à¦ıà¦®à¦ıà¦®à¦ıà¦®à¦ıà¦®à¦ıà¦®à¦ıà¦®à¦ıà¦®à¦ıà¦®à¦ıà¦®à¦ıà¦®à¦ıà¦®à¦ıà¦®": 820,
      "à¦°à¦§": 821,
      "à¦·à¦ķ": 822,
      "Ġà¦Ĩà¦¨": 823,
      "Ġà§Ń": 824,
      "à¦°à¦£à¦¤": 825,
      "ence": 826,
      "Ġâī": 827,
      "and": 828,
      "ct": 829,
      "Ġu": 830,
      "à¦·à¦®": 831,
      "à¦Ľà¦¨": 832,
      "Ġà¦§à¦°à¦¨": 833,
      "oun": 834,
      "à¦¯à¦¯": 835,
      "24": 836,
      "ĠW": 837,
      "Ġà¦ł": 838,
      "à¦¨à¦¸": 839,
      "à¦·à¦®à¦¤": 840,
      "igh": 841,
      "âī": 842,
      "Ġà¦Ĺà¦¤": 843,
      "Ġal": 844,
      "ens": 845,
      "Ġà¦ĺà¦°": 846,
      "Ġà¦ħà¦¬à¦¶": 847,
      "ĠĠĠ": 848,
      "her": 849,
      "xy": 850,
      "à§¬": 851,
      "à§¯": 852,
      "Ġà¦ıà¦ķà¦ķ": 853,
      "Ġde": 854,
      "ss": 855,
      "à§Ģ,": 856,
      "à¦īà¦¨": 857,
      "________": 858,
      "put": 859,
      "ure": 860,
      "Ġab": 861,
      "Ġfor": 862,
      "99": 863,
      "der": 864,
      "ver": 865,
      "ĠM": 866,
      "à§ª": 867,
      "à¦¨à¦ķ": 868,
      "à¦¶à¦²": 869,
      "Ġsp": 870,
      "...à¥¤": 871,
      "à¦®à¦°": 872,
      "Ġà¦ķà¦°à¦Ľ": 873,
      "à¦£à¦¸": 874,
      "à¦ĩà¦°": 875,
      "à¦ĩà¦ķ": 876,
      "Ġ15": 877,
      "st": 878,
      "}à¥¤": 879,
      "Ġà¦Ĩà¦Ĺ": 880,
      "Ġequ": 881,
      "act": 882,
      "ase": 883,
      "ow": 884,
      "à¦ķà¦Ĺ": 885,
      "Â°à¥¤": 886,
      "35": 887,
      "à¦ļà¦²": 888,
      "Ġ100": 889,
      "Ġdis": 890,
      "23": 891,
      "81": 892,
      "per": 893,
      "ord": 894,
      "30": 895,
      "50": 896,
      "60": 897,
      "ip": 898,
      "à¦ªà¦¤": 899,
      "Ġà§§à§¦": 900,
      "Ġ20": 901,
      "ĠâĪļ[": 902,
      "ell": 903,
      "=-": 904,
      "ial": 905,
      "ÏĢ": 906,
      "Ġà¦ıà¦¸": 907,
      "Ġà¦Ĩà¦¯": 908,
      "Ġà¦Ńà¦¬": 909,
      "Ġà¦Ĺà¦ł": 910,
      "Ġ25": 911,
      "ity": 912,
      "Ġà¦Ĩà¦ĩà¦¨": 913,
      "Ġà§§à§¦à§¦": 914,
      "Ġsh": 915,
      "),(": 916,
      "36": 917,
      "ag": 918,
      "Ã·": 919,
      "Ġus": 920,
      "à¦¬à¦¬": 921,
      "à¦§à¦¨": 922,
      "Ġar": 923,
      "à¦ŀà¦¤": 924,
      "âģµ": 925,
      ")+": 926,
      "40": 927,
      "du": 928,
      "Ġ$": 929,
      "ĠO": 930,
      "à¦¸à¦¨": 931,
      "Ġad": 932,
      "end": 933,
      "ance": 934,
      "à¦¯à¦ķà¦°": 935,
      "75": 936,
      "AT": 937,
      "ore": 938,
      "à¦¯à¦Ĺ": 939,
      "à¦¦à¦Ł": 940,
      "à¦ĩà¦¸": 941,
      "Ġà¦°à¦Ļ": 942,
      "Ġpr": 943,
      "ith": 944,
      "Ġà¦ĺà¦Łà¦¨": 945,
      "11": 946,
      "Ġlo": 947,
      "Ġle": 948,
      "Ġac": 949,
      "1000": 950,
      "ect": 951,
      "))": 952,
      "ib": 953,
      "à¦°à¦«à¦²": 954,
      "à¦¿)": 955,
      "Ġà¦ķà¦¬": 956,
      "ine": 957,
      "ard": 958,
      "ĠIn": 959,
      "iz": 960,
      "Ġun": 961,
      "Ġà¦ĭ": 962,
      "à¦¾à¦ĥ": 963,
      "à¦¼à§į": 964,
      "Ġà¦ľà¦¡": 965,
      "Ġà¦¸à¦®à¦¤": 966,
      "Ġse": 967,
      "Ġpar": 968,
      "all": 969,
      ")=(": 970,
      "our": 971,
      "Ġà§§à§¯": 972,
      "80": 973,
      "``": 974,
      "ok": 975,
      "Ġà¦ħà¦Ļ": 976,
      "à¦ļà¦Ł": 977,
      "âĤħ": 978,
      "Ġpl": 979,
      "ort": 980,
      "est": 981,
      "ill": 982,
      "49": 983,
      "fit": 984,
      "à¦¤à¦Ń": 985,
      "Ġà¦ķà¦²": 986,
      "à¦Łà¦«": 987,
      "Ġà¦ľà¦²": 988,
      "Ġà¦¸à¦®à§Ł": 989,
      "Ġà¦Ĺà¦²": 990,
      "Ġà¦ħà¦¨à¦²": 991,
      "ice": 992,
      "32": 993,
      "ati": 994,
      "à¦Łà¦Ĺ": 995,
      "à¦¶à¦ĩ": 996,
      "à¦¥à¦¬": 997,
      "Ġà¦Ĺà¦£à¦¨": 998,
      "erc": 999,
      "Ġpre": 1000,
      "Ġà¦īà¦ªà¦¯": 1001,
      "Ġà¦Ĩà¦ķà¦°": 1002,
      "à¦°à¦®à¦£": 1003,
      "ĠÏĢ": 1004,
      "Ġà¦ªà¦ķ": 1005,
      "à¦Ĺà¦¶": 1006,
      "Ġà§¯": 1007,
      "ition": 1008,
      "Ġ#": 1009,
      "ĠÃ·": 1010,
      "à¦Łà¦°": 1011,
      "Ġà¦ıà¦ĸà¦¨": 1012,
      "Ġà¦ªà¦Ľà¦¨": 1013,
      "Ġà¦¤à¦ĸà¦¨": 1014,
      "Ġà¦¨à§Ł": 1015,
      "à¦ĸà¦¯": 1016,
      "Ġà¦īà¦ľ": 1017,
      "âĤĲ": 1018,
      "ĠFunction": 1019,
      "ight": 1020,
      "cr": 1021,
      "gr": 1022,
      "Ġq": 1023,
      "à¦¿à¦ĥ": 1024,
      "Ġà¦¸à¦«à¦²": 1025,
      "Ġà¦Ĩà¦¶": 1026,
      "Ġà¦¹à¦ļ": 1027,
      "à¦ľà¦ķ": 1028,
      "Ġsu": 1029,
      "Ġne": 1030,
      "Ġres": 1031,
      "urn": 1032,
      "::::::::::::::::::::::::::::::::::::::::::::::::::::::::::::::::": 1033,
      "are": 1034,
      "ian": 1035,
      "ies": 1036,
      "ks": 1037,
      "Ġà¦¸à¦Ļ": 1038,
      "Ġà¦¬à¦ķ": 1039,
      "Ġà¦¬à¦ĩ": 1040,
      "à¦£à¦¤": 1041,
      "Ġme": 1042,
      "ass": 1043,
      "64": 1044,
      "hat": 1045,
      "pl": 1046,
      "ĠG": 1047,
      "à¦°à¦ªà¦°": 1048,
      "Ġà¦ķà¦ł": 1049,
      "Ġà¦ħà¦Ĺ": 1050,
      "à¦Ńà¦°": 1051,
      "Ġà¦ıà¦ķà¦¸": 1052,
      "ations": 1053,
      "à¦ıà¦ıà¦ıà¦ıà¦ıà¦ıà¦ıà¦ıà¦ıà¦ıà¦ıà¦ıà¦ıà¦ıà¦ıà¦ı": 1054,
      "here": 1055,
      ")-": 1056,
      "ak": 1057,
      "ia": 1058,
      "à¦¨à¦¦": 1059,
      "Ġà¦ıà¦¨": 1060,
      "Ġà¦ıà¦²": 1061,
      "Ġà¦¦à¦²": 1062,
      "à¦¹à¦¤": 1063,
      "à¦ļà¦¯": 1064,
      "ans": 1065,
      "Ġà¦¸à¦°à¦ŀ": 1066,
      "ĠâĪļ(": 1067,
      "ary": 1068,
      "à¦¹à¦ķà¦¦": 1069,
      "Ġà¦ĭà¦£": 1070,
      "13": 1071,
      "op": 1072,
      "Ġqu": 1073,
      "à¦²à¦Ĺà¦°": 1074,
      "Ġà¦¬à¦¹": 1075,
      "Ġà¦®à¦¸": 1076,
      "à¦¹à¦²": 1077,
      "à¦¹à¦¸": 1078,
      "Ġà¦¶à¦¹": 1079,
      "Ġare": 1080,
      "Ġstr": 1081,
      "Ġà¦Ľà¦¡": 1082,
      "ish": 1083,
      "Ġà§¨à§«": 1084,
      "Ġequal": 1085,
      "à¦Łà¦«à¦°": 1086,
      "eed": 1087,
      "Î¸": 1088,
      "Ġhe": 1089,
      "à§Ń": 1090,
      "Ġà¦¸à¦«": 1091,
      "à¦Łà¦ķ": 1092,
      "Ġà¦ıà¦¤": 1093,
      "Ġà¦Ĩà¦¤": 1094,
      "Ġ16": 1095,
      "Ġsub": 1096,
      "reat": 1097,
      "Ġà¦ĺà¦¨": 1098,
      "Ġà§§à§¨": 1099,
      "à¦°à§Łà¦®": 1100,
      "28": 1101,
      "AL": 1102,
      "ire": 1103,
      "Ġim": 1104,
      "à¦¨à¦¯": 1105,
      "à¦¯à¦¸": 1106,
      "à¦®à¦Ł": 1107,
      "Ġà¦ıà¦®": 1108,
      "à¦¦à¦Ĺ": 1109,
      "Ġà¦ħà¦¥à¦¬": 1110,
      "orm": 1111,
      "à§Įà¦ģ": 1112,
      "à¦ķà¦°à¦£à¦¯": 1113,
      "ical": 1114,
      "ous": 1115,
      "ide": 1116,
      "(-": 1117,
      "Pro": 1118,
      "air": 1119,
      "Ġen": 1120,
      "Ġà¦¢": 1121,
      "à¦¾?": 1122,
      "à¦£à¦¬à¦°": 1123,
      "Ġà¦¤à¦°": 1124,
      "à¦ľà¦¸": 1125,
      "à¦ĩà¦ľ": 1126,
      "Ġà¦¶à¦¤": 1127,
      "à¦¡à¦²": 1128,
      "ors": 1129,
      "Ġà¦¸à¦¹à¦Ĺ": 1130,
      "Ġà¦¸à¦°à¦²à¦°": 1131,
      "================================================": 1132,
      "================================================================================": 1133,
      "fic": 1134,
      "ie": 1135,
      "oc": 1136,
      "à¦ķà¦¸": 1137,
      "à¦¬à¦¹": 1138,
      "à¦®à¦¯": 1139,
      "à¦ªà¦Ĺ": 1140,
      "à¦¸à¦ķ": 1141,
      "à¦¼à¦¾,": 1142,
      "Ġà¦ĩà¦²": 1143,
      "Ġà¦ıà¦°à¦ªà¦°": 1144,
      "ated": 1145,
      "ite": 1146,
      "Ġwe": 1147,
      "à¦°à¦¦à¦¤": 1148,
      "Ġthan": 1149,
      "ĠThe": 1150,
      "Ġroot": 1151,
      "à¦ıà¦®à¦ıà¦®à¦ıà¦®à¦ıà¦®à¦ıà¦®à¦ıà¦®à¦ıà¦®à¦ıà¦®à¦ıà¦®à¦ıà¦®à¦ıà¦®à¦ıà¦®à¦ıà¦®à¦ıà¦®à¦ıà¦®à¦ıà¦®à¦ıà¦®à¦ıà¦®à¦ıà¦®à¦ıà¦®à¦ıà¦®à¦ıà¦®à¦ıà¦®à¦ıà¦®à¦ıà¦®à¦ıà¦®à¦ıà¦®à¦ıà¦®à¦ıà¦®à¦ıà¦®à¦ıà¦®à¦ıà¦®": 1152,
      "ĠâīĪ": 1153,
      "125": 1154,
      "bc": 1155,
      "fer": 1156,
      "ue": 1157,
      "Ġà¦ķà¦ĸà¦¨": 1158,
      "à¦Łà¦¨": 1159,
      "à¦¸à¦°à¦£": 1160,
      "à§Ģà¥¤": 1161,
      "à¦Ĺà¦ķ": 1162,
      "à¦ıà¦¸": 1163,
      "Ġ11": 1164,
      "ange": 1165,
      "Ġbe": 1166,
      "Ġdx": 1167,
      "ely": 1168,
      "ĠĠĠĠčĊ": 1169,
      "ĠWhat": 1170,
      "66": 1171,
      "ND": 1172,
      "ĠH": 1173,
      "Ġ{": 1174,
      "à¦¯à¦ĩ": 1175,
      "Ġà¦¸à¦¸": 1176,
      "à¦¸à¦°": 1177,
      "Ġà¦Ĩà¦¨à¦¨": 1178,
      "Ġà¦¯à¦¤": 1179,
      "à¦ļà¦¤": 1180,
      "Ġat": 1181,
      "Ġcl": 1182,
      "Ġbo": 1183,
      "ings": 1184,
      "Ġmin": 1185,
      "able": 1186,
      "ack": 1187,
      "ast": 1188,
      "Ġret": 1189,
      "à¦¶à¦¨à¦Ĺ": 1190,
      "Â°=": 1191,
      "av": 1192,
      "ĠU": 1193,
      "à¦¢": 1194,
      "à¦¾-": 1195,
      "à§ģà¦ĥ": 1196,
      "à¦ªà¦®": 1197,
      "à¦ªà¦Ł": 1198,
      "âĪ«": 1199,
      "Ġsc": 1200,
      "Ġ27": 1201,
      "Ġem": 1202,
      "ace": 1203,
      "ach": 1204,
      "ample": 1205,
      "Ġreturn": 1206,
      "+(": 1207,
      "/âĪļ": 1208,
      "21": 1209,
      "gh": 1210,
      "ys": 1211,
      "Â±": 1212,
      "à¦¤à¦²": 1213,
      "à¦§à¦ķ": 1214,
      "Ġà¦Ĩà¦ª": 1215,
      "Ġapp": 1216,
      "Ġco": 1217,
      "art": 1218,
      "Ġ50": 1219,
      "its": 1220,
      "omain": 1221,
      "Ġà§§à§«": 1222,
      "âīł": 1223,
      "________________": 1224,
      "Ġ2020": 1225,
      "ution": 1226,
      "Â¹": 1227,
      "ĠV": 1228,
      "Ġà¦Ĳ": 1229,
      "à¦¬à¦¯": 1230,
      "à¦²à¦Ł": 1231,
      "à¦ªà¦·": 1232,
      "Ġà¦¹à¦°": 1233,
      "à¦īà¦ķ": 1234,
      "Ġà¦¸à¦®à¦ķ": 1235,
      "Ġà¦²à¦¬": 1236,
      "Ġà¦«à¦Ł": 1237,
      "enti": 1238,
      "333": 1239,
      "iti": 1240,
      "ke": 1241,
      "ra": 1242,
      "à¦Łà¦Ł": 1243,
      "à¦¶à¦Ł": 1244,
      "à¦Ĺà¦®": 1245,
      "à¦Ĺà¦ľ": 1246,
      "Ġà¦īà¦·": 1247,
      "Ġà§¦": 1248,
      "Ġxy": 1249,
      "Ġà¦ļà¦°": 1250,
      "int": 1251,
      "tim": 1252,
      "à¦°à¦ķà¦²": 1253,
      "rea": 1254,
      "ang": 1255,
      "Ġà¦¸à¦¹à¦¯": 1256,
      "Ġword": 1257,
      "Ġà§§à§®": 1258,
      "Ġcons": 1259,
      "ĠSet": 1260,
      "Ġthat": 1261,
      "actor": 1262,
      ").": 1263,
      ")^": 1264,
      "90": 1265,
      "98": 1266,
      "AN": 1267,
      "ON": 1268,
      "ax": 1269,
      "ud": 1270,
      "},": 1271,
      "à¦¬à¦¶": 1272,
      "Ġà¦¤à¦¤": 1273,
      "Ġà¦¹à¦ĵà§Ł": 1274,
      "Ġà¦¦à¦°": 1275,
      "Ġ180": 1276,
      "Ġph": 1277,
      "Ġà¦ĩà¦®": 1278,
      "Ġfunction": 1279,
      "ĠAND": 1280,
      "à¦¾à¦ģà¥¤": 1281,
      "âĤģâĤĢ2": 1282,
      "à¦Ŀà¦¤": 1283,
      "Ġà¦Ĩà¦¸à¦²": 1284,
      "**": 1285,
      "2Â³": 1286,
      "sin": 1287,
      "ule": 1288,
      "Ġout": 1289,
      "à¦®à¦¦": 1290,
      "à¦®à¦£": 1291,
      "à¦®à¦ļ": 1292,
      "à¦¸à¦Ł": 1293,
      "Ġà¦ħà¦£": 1294,
      "Ġà¦ħà¦ŀ": 1295,
      "à§Łà¦®": 1296,
      "Ġà¦ªà¦°à¦¸": 1297,
      "Ġcos": 1298,
      "logâĤĲ": 1299,
      "als": 1300,
      "Ġà¦§à¦°à¦£": 1301,
      "Ġà¦īà¦ªà¦ª": 1302,
      "Ġwith": 1303,
      "Â°âĪĴ": 1304,
      "ural": 1305,
      "Ġcont": 1306,
      "Ġà¦Ĺà¦łà¦¨": 1307,
      "ATI": 1308,
      "em": 1309,
      "ves": 1310,
      "à§ĩà¦ģ": 1311,
      "à¦ķà¦¨": 1312,
      "à¦²à¦¸": 1313,
      "Ġà¦¬à¦ľ": 1314,
      "Ġà¦¬à§ľ": 1315,
      "à¦Ĺà¦Ĺ": 1316,
      "Ġà¦ħà¦«": 1317,
      "à¦ľà¦¯": 1318,
      "erm": 1319,
      "Ġà¦¬à¦²à¦¤": 1320,
      "iss": 1321,
      "Ġà¦īà¦ªà¦ķ": 1322,
      "Ġbr": 1323,
      "ĠArea": 1324,
      "Ġint": 1325,
      "etw": 1326,
      "Ġchar": 1327,
      "Ġâīł": 1328,
      ")]": 1329,
      "ER": 1330,
      "ear": 1331,
      "à¦¿:": 1332,
      "à¦ķà¦ķ": 1333,
      "à¦ķà¦¬": 1334,
      "Ġà¦ıà¦Ĺ": 1335,
      "à¦£à¦«à¦²": 1336,
      "à¦ĩà¦¬": 1337,
      "à§Łà¦ķ": 1338,
      "à¦¥à¦²": 1339,
      "ons": 1340,
      "Ġby": 1341,
      "Ġdes": 1342,
      "Ġà§¨à§¦": 1343,
      "und": 1344,
      "Ġtok": 1345,
      "70": 1346,
      "=âĪĴ": 1347,
      "ail": 1348,
      "lish": 1349,
      "Ġ<": 1350,
      "à¦ªà¦£": 1351,
      "Ġà¦Ĩà¦ļ": 1352,
      "à¦īà¦¸": 1353,
      "à¦ļà¦¤à¦°": 1354,
      "à¦ıà¦ĩ": 1355,
      "Ġà¦Ĺà¦¡": 1356,
      "Ġass": 1357,
      "low": 1358,
      "à¦¿à¦Ĥ,": 1359,
      "âģ°": 1360,
      "âģ¶": 1361,
      "à¦°à¦¦à¦°": 1362,
      "ust": 1363,
      "ime": 1364,
      "imin": 1365,
      "ĠCom": 1366,
      "ign": 1367,
      "ost": 1368,
      "ĠDomain": 1369,
      "tical": 1370,
      "Ġcomm": 1371,
      "Ġà¦ļà¦²à¦ļ": 1372,
      "ount": 1373,
      "\",": 1374,
      "--": 1375,
      "3Â²": 1376,
      "cess": 1377,
      "ning": 1378,
      "ual": 1379,
      "Ġ|": 1380,
      "à¦¾):": 1381,
      "à¦°à¦«": 1382,
      "à¦¿-": 1383,
      "Ġà¦¸à¦ŀ": 1384,
      "Ġà¦ıà¦¡": 1385,
      "Ġà¦ªà¦¥": 1386,
      "à¦¦à¦¯": 1387,
      "à¦¸à¦Ĺ": 1388,
      "à¦¸à¦«": 1389,
      "Ġà¦īà¦ªà¦¨": 1390,
      "Ġà¦ľà¦°": 1391,
      "one": 1392,
      "Ġsec": 1393,
      "ĠâĪļ]": 1394,
      "Ġrec": 1395,
      "Ġind": 1396,
      "els": 1397,
      "ivers": 1398,
      "Ġprofit": 1399,
      "istance": 1400,
      "ode": 1401,
      "tegr": 1402,
      "ercent": 1403,
      "reater": 1404,
      "à¦¬à¦¹à¦¨": 1405,
      "/(": 1406,
      "17": 1407,
      "5Â²": 1408,
      "77": 1409,
      "NG": 1410,
      "ble": 1411,
      "ient": 1412,
      "og": 1413,
      "à¦¾)": 1414,
      "à¦°à¦ĵ": 1415,
      "à§ĩ:": 1416,
      "à¦¨à¦¹": 1417,
      "à§ģ,": 1418,
      "à¦¶à¦Ĺ": 1419,
      "à¦¸à¦²": 1420,
      "à¦£à¦¯": 1421,
      "Ġà¦ħà¦ľ": 1422,
      "Ġà¦¨à¦¦": 1423,
      "à¦ĸà¦²": 1424,
      "Ġà¦ıà¦ķà¦¬": 1425,
      "Ġà¦ªà¦°à¦®": 1426,
      "ong": 1427,
      "Ġsin": 1428,
      "ree": 1429,
      "Ġà¦¡à¦ķ": 1430,
      "Ġà§¨à§¦à§¦": 1431,
      "Ġmar": 1432,
      "rop": 1433,
      "Ġà¦ĩà¦¨à¦ª": 1434,
      "à¦ķà¦²à¦¨": 1435,
      "Ġins": 1436,
      "Ġexp": 1437,
      "Ġexist": 1438,
      "à¦¹à¦°à¦£à¦¸": 1439,
      "237": 1440,
      "ĠOr": 1441,
      "Ġà¦Ĩà¦ļà¦°à¦£": 1442,
      "ercentage": 1443,
      "ber": 1444,
      "ca": 1445,
      "cul": 1446,
      "ef": 1447,
      "me": 1448,
      "ms": 1449,
      "ph": 1450,
      "ry": 1451,
      "ty": 1452,
      "Ġif": 1453,
      "à¦Łà¦¬": 1454,
      "à¦¼à§ĩà¥¤": 1455,
      "à§ĭà¦ģ": 1456,
      "à¦§à¦®": 1457,
      "Ġà¦Ĩà¦ľ": 1458,
      "à¦Ńà¦ķ": 1459,
      "Ġà¦ıà¦ķà¦¤": 1460,
      "Ġà¦¸à¦®à¦°": 1461,
      "à¦ıà¦²": 1462,
      "à¦ıà¦ķà¦Ł": 1463,
      "ind": 1464,
      "Ġà¦ľà¦¨à¦¸": 1465,
      "Ġsent": 1466,
      "Ġbu": 1467,
      "ĠAB": 1468,
      "Ġ42": 1469,
      "Ġrep": 1470,
      "Ġgu": 1471,
      "Ġ90": 1472,
      "Ġval": 1473,
      "ulti": 1474,
      "à¦ħà¦¨": 1475,
      "à¦ªà¦ķà¦¥à¦¨": 1476,
      "Ġcomp": 1477,
      "ions": 1478,
      "crimin": 1479,
      "Ġà¦¶à¦¹à¦°": 1480,
      "Ġà§¦à§®": 1481,
      "ces": 1482,
      "form": 1483,
      "ma": 1484,
      "qr": 1485,
      "up": 1486,
      "Ġ>": 1487,
      "à§ĩ\"": 1488,
      "à¦¯à¦Ń": 1489,
      "à¦¬à¦¤": 1490,
      "Ġà¦ķà¦£": 1491,
      "à¦Łà¦²": 1492,
      "à¦£à¦®": 1493,
      "à¦ĩà¦ª": 1494,
      "à¦ĩà¦Ń": 1495,
      "Ġà¦¯à¦¨": 1496,
      "Ġà¦°à¦¶": 1497,
      "Ġà¦Ĺà¦¬": 1498,
      "Ġà¦²à¦¡": 1499,
      "Ġà¦ħà¦¨à¦¨": 1500,
      "Ġcar": 1501,
      "Ġcap": 1502,
      "à¦ľà¦¨à¦ķ": 1503,
      "ork": 1504,
      "ory": 1505,
      "alcul": 1506,
      "ise": 1507,
      "Ġ35": 1508,
      "Ġmod": 1509,
      "Ġwh": 1510,
      "Ġnot": 1511,
      "abil": 1512,
      "Ġlist": 1513,
      "Ġà§§à§§": 1514,
      "âĤģâĤĢ5": 1515,
      "Ġà¦¸à¦¬à¦¸à¦®": 1516,
      "ech": 1517,
      "olution": 1518,
      "à¦¦à¦¨à¦¶": 1519,
      "ĠĠĠĠĠĠĠ": 1520,
      "ments": 1521,
      "dered": 1522,
      "Ġdiscrimin": 1523,
      "ative": 1524,
      "::::::::::::::::::::::::::::::::::::::::::::::::::::::::::::::::::::::::::::::::::::::::::::::::::::::::::::::::::::::::::::::::": 1525,
      "Ġà¦Ĳà¦¤": 1526,
      "actorial": 1527,
      "qrt": 1528,
      "-(": 1529,
      "22": 1530,
      "2Â²": 1531,
      "65": 1532,
      "EN": 1533,
      "ff": 1534,
      "peed": 1535,
      "sw": 1536,
      "ten": 1537,
      "vers": 1538,
      "Ġit": 1539,
      "à¦¯à¦°": 1540,
      "à¦²à¦®": 1541,
      "à¦Łà¦¤": 1542,
      "à¦Łà¦¸": 1543,
      "à¦¼)": 1544,
      "à¦Ĺà¦ł": 1545,
      "à¦£à¦¦": 1546,
      "à¦·à¦°": 1547,
      "Ġà¦Ĩà¦īà¦Ł": 1548,
      "Ġà¦¹à¦¨": 1549,
      "à¦ļà¦®": 1550,
      "Ġà¦Ńà¦¯": 1551,
      "âĪĪ": 1552,
      "tiv": 1553,
      "Ġ18": 1554,
      "Ġà¦«à¦°": 1555,
      "Ġte": 1556,
      "à¦ľà¦¨à¦¶": 1557,
      "Ġfr": 1558,
      "Ġmax": 1559,
      "à¦ĺà¦°": 1560,
      "Ġà§®à§¦à§¦": 1561,
      "action": 1562,
      "Ġinter": 1563,
      "={(": 1564,
      "old": 1565,
      "oss": 1566,
      "ĠâĪĽ": 1567,
      "à¦ħà¦§": 1568,
      "ĠEx": 1569,
      "```": 1570,
      "à¦ıà¦ıà¦ıà¦ıà¦ıà¦ıà¦ıà¦ıà¦ıà¦ıà¦ıà¦ıà¦ıà¦ıà¦ıà¦ıà¦ıà¦ıà¦ıà¦ıà¦ıà¦ıà¦ıà¦ıà¦ıà¦ıà¦ıà¦ıà¦ıà¦ıà¦ıà¦ı": 1571,
      "Ġà¦¶à¦¤à¦ķà¦°": 1572,
      "Ġroots": 1573,
      "Ġtokens": 1574,
      "Ġdiscriminant": 1575,
      "19": 1576,
      "37": 1577,
      "67": 1578,
      "aM": 1579,
      "les": 1580,
      "pr": 1581,
      "ps": 1582,
      "ward": 1583,
      "yth": 1584,
      "|=": 1585,
      "âĬ": 1586,
      "à¦¾\"": 1587,
      "à¦°à¦ľà¦¨": 1588,
      "à¦¬à¦Ĺ": 1589,
      "à¦²à¦¯": 1590,
      "Ġà¦ķà¦¨": 1591,
      "à¦®à¦¸": 1592,
      "Ġà¦ªà¦¯": 1593,
      "à¦£à¦¬à¦¨": 1594,
      "à¦¤à¦°à¦£": 1595,
      "à¦ĩà¦¯": 1596,
      "à¦ĸà¦¬": 1597,
      "Ġà¦¸à¦®à¦·": 1598,
      "âĪ©": 1599,
      "Ġà¦²à¦®": 1600,
      "Ġ=>": 1601,
      "Ġche": 1602,
      "Ġà¦ĺà¦£": 1603,
      "Ġà¦ĩà¦ŀ": 1604,
      "à¦¾à¦ģ,": 1605,
      "ics": 1606,
      "Ġln": 1607,
      "Ġà¦īà§İà¦¸": 1608,
      "Ġà§§à§¬": 1609,
      "à¦ĩà¦Łà¦Ł": 1610,
      "Ġop": 1611,
      "ĠPr": 1612,
      "ĠPair": 1613,
      "oth": 1614,
      "Ġconst": 1615,
      "ive": 1616,
      "ĠTr": 1617,
      "ĠIf": 1618,
      "Ġà§§à§¦à§¦à§¦": 1619,
      "duc": 1620,
      "Ġà¦¸à¦«à¦Łà¦ĵà¦¯": 1621,
      "ĠOrdered": 1622,
      "31": 1623,
      "44": 1624,
      "72": 1625,
      "io": 1626,
      "à¦ķà¦¦": 1627,
      "à¦¬à¦¡": 1628,
      "à¦¼à¦Ĥ": 1629,
      "à¦ªà¦£à¦¨": 1630,
      "à¦¸à¦¸": 1631,
      "à¦¸à¦ĵà¦¯": 1632,
      "Ġà¦¨à¦²": 1633,
      "à¦¤à¦°à¦Ł": 1634,
      "à¦ĩà¦®": 1635,
      "Ġà¦Ĺà¦°à¦®": 1636,
      "Ġà¦ĵà¦ľà¦¨": 1637,
      "Ġà¦ļà¦ķ": 1638,
      "Ġas": 1639,
      "tive": 1640,
      "Ġ13": 1641,
      "Ġsa": 1642,
      "ress": 1643,
      "0000": 1644,
      "Ġper": 1645,
      "Ġà¦ĩà¦īà¦¨": 1646,
      "Ġà¦ĸà¦°à¦ļ": 1647,
      "Ġdr": 1648,
      "Ġman": 1649,
      "à¦°à¦®à¦¬à¦°": 1650,
      "ational": 1651,
      "Ġli": 1652,
      "ome": 1653,
      "Â°-": 1654,
      "à¦Ĺà¦¤à¦Ń": 1655,
      "Ġà¦¦à¦¶à¦ķ": 1656,
      "Ġhum": 1657,
      "âĤģâĤĢ0": 1658,
      "à¦°à¦¸à¦Ļ": 1659,
      "cep": 1660,
      "Ġ64": 1661,
      "Ġà¦ıà¦®à¦¨à¦ķ": 1662,
      "à¦ħà¦ķ": 1663,
      "ĠFor": 1664,
      "Ġtrans": 1665,
      "aph": 1666,
      "Ġform": 1667,
      "Ġequation": 1668,
      "ellig": 1669,
      "ercase": 1670,
      "ĠUn": 1671,
      "ities": 1672,
      "An": 1673,
      "EM": 1674,
      "En": 1675,
      "ING": 1676,
      "OR": 1677,
      "ck": 1678,
      "cl": 1679,
      "cos": 1680,
      "se": 1681,
      "ved": 1682,
      "wo": 1683,
      "xt": 1684,
      "Ġ&": 1685,
      "ĠÂ±": 1686,
      "à¦°à¦Ĺà¦¤": 1687,
      "à¦¨à¦Ń": 1688,
      "à¦¯à¦ª": 1689,
      "à¦¯à§İ": 1690,
      "à¦¯à¦¤à¦®": 1691,
      "Ġà¦¬à¦¯": 1692,
      "à§ĭ:": 1693,
      "Ġà¦ħà¦ªà¦¸": 1694,
      "à¦§à¦¬": 1695,
      "Ġà¦¤à¦¡": 1696,
      "Ġà¦Ĩà¦¨à¦¤": 1697,
      "Ġà¦ıà¦ķà¦¦": 1698,
      "Ġà¦¸à¦®à¦¨": 1699,
      "à¦¼à§ĩ,": 1700,
      "Ġ(-": 1701,
      "Ġà¦ĵà¦ł": 1702,
      "Ġam": 1703,
      "ond": 1704,
      "à¦¾à¦Ĥ,": 1705,
      "Ġcan": 1706,
      "Ġsqrt": 1707,
      "Ġà¦ĺà¦¨à¦¤": 1708,
      "Ġà¦ĩà¦Ń": 1709,
      "Ġfe": 1710,
      "Ġà¦īà¦ªà¦²à¦¬": 1711,
      "Ġà¦¸à¦¹à¦ķ": 1712,
      "Ġbro": 1713,
      "ĠlogâĤĲ": 1714,
      "ars": 1715,
      "rom": 1716,
      "ication": 1717,
      "Ġreg": 1718,
      "Ġreal": 1719,
      "Ġà¦īà§İà¦ªà¦¨": 1720,
      "use": 1721,
      "Ġgr": 1722,
      "ult": 1723,
      "ĠSub": 1724,
      "Ġusing": 1725,
      "duct": 1726,
      "à¦ıà¦®à¦ıà¦®à¦ıà¦®à¦ıà¦®à¦ıà¦®à¦ıà¦®à¦ıà¦®à¦ıà¦®à¦ıà¦®à¦ıà¦®à¦ıà¦®à¦ıà¦®à¦ıà¦®à¦ıà¦®à¦ıà¦®à¦ıà¦®à¦ıà¦®à¦ıà¦®à¦ıà¦®à¦ıà¦®à¦ıà¦®à¦ıà¦®à¦ıà¦®à¦ıà¦®à¦ıà¦®à¦ıà¦®à¦ıà¦®à¦ıà¦®à¦ıà¦®à¦ıà¦®à¦ıà¦®à¦ıà¦®à¦ıà¦®à¦ıà¦®à¦ıà¦®à¦ıà¦®à¦ıà¦®à¦ıà¦®à¦ıà¦®à¦ıà¦®à¦ıà¦®à¦ıà¦®à¦ıà¦®à¦ıà¦®à¦ıà¦®à¦ıà¦®à¦ıà¦®à¦ıà¦®à¦ıà¦®à¦ıà¦®à¦ıà¦®à¦ıà¦®à¦ıà¦®à¦ıà¦®à¦ıà¦®à¦ıà¦®à¦ıà¦®à¦ıà¦®à¦ıà¦®à¦ıà¦®à¦ıà¦®à¦ıà¦®à¦ıà¦®à¦ıà¦®": 1727,
      "Ġconstant": 1728,
      "97": 1729,
      "AS": 1730,
      "If": 1731,
      "Qu": 1732,
      "ger": 1733,
      "glish": 1734,
      "ied": 1735,
      "oint": 1736,
      "ven": 1737,
      "yp": 1738,
      "Ġà¥¤": 1739,
      "ĠâĪĴ": 1740,
      "à¦¾.": 1741,
      "à¦¤à¦Ł": 1742,
      "à¦¬à¦°à¦£": 1743,
      "à¦®à¦°à¦£": 1744,
      "à¦ªà¦ļ": 1745,
      "à¦¶à¦²à¦Ĺ": 1746,
      "Ġà¦®à¦ľ": 1747,
      "Ġà¦Ĩà¦ĺ": 1748,
      "Ġà¦Ĩà¦¦à¦°": 1749,
      "Ġà¦¨à¦®à¦¨": 1750,
      "à¦ľà¦°": 1751,
      "à¦ľà¦®": 1752,
      "à¦Ńà¦Ļ": 1753,
      "à¦¥à¦¤": 1754,
      "âĪħ": 1755,
      "âĪĽ": 1756,
      "Ġà¦ªà¦°à¦¬à¦°": 1757,
      "Ġag": 1758,
      "ere": 1759,
      "tit": 1760,
      "Ġ19": 1761,
      "Ġcol": 1762,
      "red": 1763,
      "res": 1764,
      "à¦ĥ**": 1765,
      "Ġfrom": 1766,
      "Ġdo": 1767,
      "Ġmo": 1768,
      "ick": 1769,
      "à¦ĺà¦¨": 1770,
      "à¦ĺà¦¸": 1771,
      "Ġà¦ĩà¦¨à¦¸": 1772,
      "ents": 1773,
      "eter": 1774,
      "Ġoper": 1775,
      "urr": 1776,
      "ides": 1777,
      "Ġà¦ħà¦ªà¦°à¦Ł": 1778,
      "Ġtrad": 1779,
      "à¦°à¦¹à¦£à¦¯": 1780,
      "Ġup": 1781,
      "ights": 1782,
      "ization": 1783,
      "Ġà¦¤à¦°à¦Ļ": 1784,
      "ference": 1785,
      "Ġoutput": 1786,
      "iversal": 1787,
      "blem": 1788,
      "Ġà¦Ĩà¦īà¦Łà¦ª": 1789,
      "Ġhuman": 1790,
      "48": 1791,
      "55": 1792,
      "dition": 1793,
      "ey": 1794,
      "fin": 1795,
      "ful": 1796,
      "get": 1797,
      "ject": 1798,
      "ted": 1799,
      "ug": 1800,
      "Ġà¦·": 1801,
      "à¦ķà¦¡": 1802,
      "à¦²à¦Ń": 1803,
      "Ġà¦ķà¦·": 1804,
      "à¦®à¦ľ": 1805,
      "à§ģà¥¤": 1806,
      "à¦¼à¦ĥ": 1807,
      "Ġà¦ıà¦ķà¦®": 1808,
      "Ġà¦ľà¦®": 1809,
      "à¦Ľà¦Ĺ": 1810,
      "à¦¡à¦Ĺ": 1811,
      "Ġ((": 1812,
      "Ġcall": 1813,
      "Ġ24": 1814,
      "Ġpass": 1815,
      "Ġfactorial": 1816,
      "ision": 1817,
      "tions": 1818,
      "Ġà¦¡à¦²": 1819,
      "à¦¤à¦¨à¦¶": 1820,
      "ĠAd": 1821,
      "ath": 1822,
      "ates": 1823,
      "Ġ40": 1824,
      "à¦Ĩà¦ª": 1825,
      "ough": 1826,
      "à¦¯à¦ķà¦°à¦Ń": 1827,
      "à¦¬à¦²à¦®": 1828,
      "Ġrel": 1829,
      "Ġà§«à§¦": 1830,
      "Ġinput": 1831,
      "eth": 1832,
      "Ġà§§à§©": 1833,
      "Ġha": 1834,
      "Ġgen": 1835,
      "Ġgro": 1836,
      "ular": 1837,
      "ume": 1838,
      "Ġà¦Ĩà¦¬à¦¹": 1839,
      "âĤĤ8": 1840,
      "ĠDistance": 1841,
      "Ġprov": 1842,
      "ĠâĪĪ": 1843,
      "180": 1844,
      "ĠTime": 1845,
      "ĠRange": 1846,
      "ĠRule": 1847,
      "ĠEqu": 1848,
      "ound": 1849,
      "âīĪ": 1850,
      "Ġspec": 1851,
      ")+(": 1852,
      "Ġà¦ķà¦²à¦®": 1853,
      "Ġsupp": 1854,
      "Profit": 1855,
      "Problem": 1856,
      "Ġbook": 1857,
      "Ġsci": 1858,
      "________________________________": 1859,
      "Ġsentence": 1860,
      "Ġà¦¸à¦¬à¦¸à¦®à§Ł": 1861,
      "%à¥¤": 1862,
      "'(": 1863,
      "01": 1864,
      "ST": 1865,
      "]{": 1866,
      "aN": 1867,
      "ep": 1868,
      "gle": 1869,
      "king": 1870,
      "ld": 1871,
      "lim": 1872,
      "mon": 1873,
      "ues": 1874,
      "wn": 1875,
      "Ġi": 1876,
      "Ġz": 1877,
      "à¦°à¦¬à¦°": 1878,
      "à¦¿):": 1879,
      "à¦®à¦ª": 1880,
      "à¦ªà¦²": 1881,
      "à¦¶à¦¦": 1882,
      "Ġà¦ªà¦ŀ": 1883,
      "à¦¸à¦Ļ": 1884,
      "Ġà¦ħà¦Ł": 1885,
      "Ġà¦Ĩà¦ĩ": 1886,
      "Ġà¦¯à¦¥": 1887,
      "Ġà¦¶à¦¤à¦ķ": 1888,
      "à¦¡à¦®": 1889,
      "Ġà¦Ĺà¦¨": 1890,
      "Ġà¦ĵà¦ªà¦°": 1891,
      "Ġax": 1892,
      "Ġ->": 1893,
      "Ġcr": 1894,
      "Ġcam": 1895,
      "Ġcurr": 1896,
      "Ġset": 1897,
      "ences": 1898,
      "Ġà¦ĩà¦īà¦°": 1899,
      "à¦ıà¦®à¦ıà¦²": 1900,
      "Ġdif": 1901,
      "à¦ķà¦°à¦£à¦Ł": 1902,
      ")=-": 1903,
      "Ġ45": 1904,
      "à¦Ĩà¦¯": 1905,
      "à¦ĺà¦®": 1906,
      "Ġnum": 1907,
      "103": 1908,
      "à¦¬à¦²à¦¤": 1909,
      "Ġà¦ķà¦¤à¦Ł": 1910,
      "Ġlay": 1911,
      "elf": 1912,
      "Ġà§§à§ª": 1913,
      "Ġob": 1914,
      "Ġany": 1915,
      "1212": 1916,
      "ĠPer": 1917,
      "ĠPro": 1918,
      "imum": 1919,
      "Ġà¦¸à¦¤à¦¤": 1920,
      "olve": 1921,
      "à§§à§¦": 1922,
      "Ġà¦ħà¦¸à¦®": 1923,
      "Ġ81": 1924,
      "Ġexample": 1925,
      "irc": 1926,
      "à¦¸à¦®à¦¯": 1927,
      "Ġcomput": 1928,
      "ĠEn": 1929,
      "ĠLess": 1930,
      "1415": 1931,
      "999": 1932,
      "very": 1933,
      "own": 1934,
      "Ġdisc": 1935,
      "ĠIntegr": 1936,
      "Ġà¦¸à¦®à¦¤à¦²": 1937,
      "Ġresp": 1938,
      "ĠGreater": 1939,
      "},{": 1940,
      "ĠCommon": 1941,
      "14159": 1942,
      "'s": 1943,
      "1Â²": 1944,
      "56": 1945,
      "718": 1946,
      "MN": 1947,
      "The": 1948,
      "ders": 1949,
      "ft": 1950,
      "for": 1951,
      "ile": 1952,
      "led": 1953,
      "land": 1954,
      "mo": 1955,
      "ood": 1956,
      "pro": 1957,
      "ugh": 1958,
      "xample": 1959,
      "¶ľ": 1960,
      "á¶ľ": 1961,
      "à¦¿\"": 1962,
      "à¦ķà¦®": 1963,
      "Ġà¦ķà¦Ń": 1964,
      "à¦ªà¦ķà¦Ń": 1965,
      "à¦¶à¦¤": 1966,
      "Ġà¦ªà¦²": 1967,
      "Ġà¦ªà§ľ": 1968,
      "à§ĭ?": 1969,
      "à¦Ĺà¦¦": 1970,
      "Ġà¦¤à¦¦": 1971,
      "Ġà¦Ĩà¦¸à¦¬": 1972,
      "Ġà¦Ĩà¦ĩà¦Ł": 1973,
      "Ġà¦¨à¦®": 1974,
      "à¦īà¦ľ": 1975,
      "à¦ıà¦Ł": 1976,
      "âĪª": 1977,
      "Ġà¦ĵà¦¹": 1978,
      "Ġaut": 1979,
      "ony": 1980,
      "Ġcle": 1981,
      "âĤĦ": 1982,
      "âĤĩ": 1983,
      "eng": 1984,
      "âĪĴ(": 1985,
      "à¦¬à¦¨à¦¯": 1986,
      "à¦¬à¦°à¦¬à¦°": 1987,
      "Ġà¦ĸà¦¨": 1988,
      "Ġele": 1989,
      "Ġdec": 1990,
      "Ġà§¨à§Ń": 1991,
      "Ġà¦ħà¦¬à¦¦": 1992,
      "ari": 1993,
      "Ġmat": 1994,
      "à¦²à¦ķà¦ļ": 1995,
      "ital": 1996,
      "Ġà¦ķà¦®à¦²": 1997,
      "âģ·": 1998,
      "ental": 1999,
      "Ġwr": 2000,
      "Ġno": 2001,
      "Ġnetw": 2002,
      "Ġnode": 2003,
      "ash": 2004,
      "Ġinv": 2005,
      "Ġlim": 2006,
      "elation": 2007,
      "âĤģâĤĢ3": 2008,
      "ame": 2009,
      "Ġ72": 2010,
      "à¦Ńà¦¬à¦¤": 2011,
      "163": 2012,
      "ula": 2013,
      "à§§à§¬": 2014,
      "Ġ80": 2015,
      "ĠDiv": 2016,
      "ĠâĪ«": 2017,
      "ĠâĪħ": 2018,
      "ĠRelation": 2019,
      "Ġupp": 2020,
      "âī¤": 2021,
      "ures": 2022,
      "Ġprice": 2023,
      "ĠInt": 2024,
      "Ġnew": 2025,
      "Ġà¦ıà¦ķà¦¸à¦Ļ": 2026,
      "666": 2027,
      "Ġemp": 2028,
      "swer": 2029,
      "tention": 2030,
      "71828": 2031,
      ",-": 2032,
      "42": 2033,
      "78": 2034,
      "AR": 2035,
      "CAL": 2036,
      "_{": 2037,
      "com": 2038,
      "count": 2039,
      "dic": 2040,
      "day": 2041,
      "een": 2042,
      "face": 2043,
      "hip": 2044,
      "iam": 2045,
      "ket": 2046,
      "min": 2047,
      "uct": 2048,
      "ĠQ": 2049,
      "Ġon": 2050,
      "à¦¾=": 2051,
      "à¦¬à¦ļ": 2052,
      "Ġà¦ķà¦ª": 2053,
      "à¦®à¦²": 2054,
      "à¦®à¦ŀ": 2055,
      "à¦Łà¦®": 2056,
      "à¦Łà¦¦": 2057,
      "à¦¸à¦ª": 2058,
      "à¦¸à¦ªà¦¤": 2059,
      "Ġà¦¦à¦°à¦ķ": 2060,
      "Ġà¦¦à¦°à¦ľ": 2061,
      "Ġà¦¨à¦·": 2062,
      "à¦ľà¦§": 2063,
      "à¦ĩà¦¤": 2064,
      "à¦Ńà¦°à¦¯": 2065,
      "Ġà¦īà¦ĩà¦¨": 2066,
      "à¦¼à¦¾à¥¤": 2067,
      "Ġà¦¶à¦ª": 2068,
      "Ġà¦°à¦¬": 2069,
      "Ġ(à§į": 2070,
      "eriv": 2071,
      "Ġcor": 2072,
      "Ġcalcul": 2073,
      "Ġser": 2074,
      "Ġà¦Ľà¦¯": 2075,
      "ants": 2076,
      "isj": 2077,
      "Ġ30": 2078,
      "Ġ32": 2079,
      "Ġà¦īà¦ªà¦ķà¦°à¦£": 2080,
      "Ġed": 2081,
      "Ġel": 2082,
      "Ġbase": 2083,
      "Ġboth": 2084,
      "Ġà¦Łà¦®": 2085,
      "ich": 2086,
      "à¦¦à¦®à¦Ĺ": 2087,
      "10000": 2088,
      "ĠPercentage": 2089,
      "ection": 2090,
      "à¦°à¦ľà¦Ĺà¦¤": 2091,
      "Ġconc": 2092,
      "Ġcontr": 2093,
      "à§§à§¯": 2094,
      "à¦°à¦¬à¦£": 2095,
      "ĠDisj": 2096,
      "...-": 2097,
      "à¦°à¦ļà¦²": 2098,
      "tem": 2099,
      "2727": 2100,
      "ĠLear": 2101,
      "Ġjo": 2102,
      "30103": 2103,
      "Ġarr": 2104,
      "ible": 2105,
      "itional": 2106,
      "iew": 2107,
      "ĠVol": 2108,
      "Ġà¦²à¦¬à¦£": 2109,
      "Ġwords": 2110,
      "ATION": 2111,
      "à¦°à¦«à¦°à¦®": 2112,
      "tively": 2113,
      "âĬĨ": 2114,
      "Ġlike": 2115,
      "elligence": 2116,
      "ĠSubtr": 2117,
      "ethod": 2118,
      "Ġcurrent": 2119,
      "à¦¶à¦¤à¦ķà¦°": 2120,
      "Ġuppercase": 2121,
      "ĠLearning": 2122,
      ")}": 2123,
      "110": 2124,
      "2âģ´": 2125,
      "Example": 2126,
      "GE": 2127,
      "HEM": 2128,
      "IC": 2129,
      "UL": 2130,
      "bo": 2131,
      "def": 2132,
      "fore": 2133,
      "ier": 2134,
      "lin": 2135,
      "oot": 2136,
      "sc": 2137,
      "str": 2138,
      "tan": 2139,
      "yz": 2140,
      "ĠÎ": 2141,
      "Ġti": 2142,
      "à¦¿=(": 2143,
      "à¦¨à¦¶": 2144,
      "à¦¯à¦ŀ": 2145,
      "à¦ķà¦¯": 2146,
      "à¦¬à¦¤à¦¨": 2147,
      "Ġà¦ķà¦«": 2148,
      "à¦®à¦¬": 2149,
      "à¦®à¦§": 2150,
      "Ġà¦¸à¦ª": 2151,
      "à¦Łà¦Ń": 2152,
      "à¦¸à¦¤": 2153,
      "à§Ģ-": 2154,
      "à§Ģà¦ĥ": 2155,
      "Ġà¦ħà¦¦": 2156,
      "Ġà¦®à¦Ļ": 2157,
      "à¦§à¦Ł": 2158,
      "Ġà¦Ĩà¦¦": 2159,
      "Ġà¦¦à¦¯": 2160,
      "Ġà¦īà¦¡": 2161,
      "à¦ļà¦°": 2162,
      "Ġà¦¶à¦¨": 2163,
      "Ġà¦°à¦¸": 2164,
      "à¦¡à¦¨": 2165,
      "Ġà¦Ĺà¦¤à¦ķ": 2166,
      "Ġà¦Ĩà¦®à¦¦": 2167,
      "tific": 2168,
      "lor": 2169,
      "Ġsm": 2170,
      "Ġsim": 2171,
      "Ġsell": 2172,
      "Ġsides": 2173,
      "Ġ240": 2174,
      "Ġpol": 2175,
      "Ġpercentage": 2176,
      "à¦ľà¦¨à¦¬à¦°": 2177,
      "Ġà¦ĩà¦¯": 2178,
      "Ġà¦ĩà¦ļ": 2179,
      "Ġà¦ĩà¦īà¦ķ": 2180,
      "orks": 2181,
      "Ġfl": 2182,
      "Ġfin": 2183,
      "Ġfund": 2184,
      "Ġà¦īà¦ªà¦Ń": 2185,
      "à§İà¦ķ": 2186,
      "Ġbre": 2187,
      "Ġdiv": 2188,
      "ÃĹ(": 2189,
      "ĠAá¶ľ": 2190,
      "ator": 2191,
      "ately": 2192,
      "Ġà¦¬à¦°à¦«": 2193,
      "Ġ49": 2194,
      "ices": 2195,
      "Ġla": 2196,
      "Ġà§§à§Ń": 2197,
      "âĤģâĤĢ4": 2198,
      "âĤģâĤĢ8": 2199,
      "âĤģâĤĢ10": 2200,
      "âĤģâĤĢ100": 2201,
      "ĠBase": 2202,
      "Ġann": 2203,
      "ĠPl": 2204,
      "ild": 2205,
      "urface": 2206,
      "quare": 2207,
      "à¦¯à¦®à¦¯": 2208,
      "ose": 2209,
      "à¦°à¦¥à¦®à¦¤": 2210,
      "output": 2211,
      "adra": 2212,
      "ute": 2213,
      "Ġprocess": 2214,
      "Ġproduc": 2215,
      "ĠThere": 2216,
      "à¦ħà¦¸": 2217,
      "Ġà¦¬à¦¸à¦¨": 2218,
      "tep": 2219,
      "ays": 2220,
      "ther": 2221,
      "ĠLog": 2222,
      "ĠLoss": 2223,
      "plement": 2224,
      "ĠMulti": 2225,
      "2345": 2226,
      "Ġà¦Ĩà¦ĩà¦¨à¦¸": 2227,
      "Ġuse": 2228,
      "ATHEM": 2229,
      "ours": 2230,
      "âĤħ25": 2231,
      "Ġà¦ıà¦ĸà¦¨à¦ĵ": 2232,
      "iangle": 2233,
      "Ġmeas": 2234,
      "Ġstring": 2235,
      "irect": 2236,
      "ability": 2237,
      "ython": 2238,
      "Ġupd": 2239,
      "adratic": 2240,
      "ATHEMATI": 2241,
      "'.": 2242,
      ")âģ»": 2243,
      ")}à¥¤": 2244,
      "625": 2245,
      "ET": 2246,
      "EAS": 2247,
      "MATHEMATI": 2248,
      "MET": 2249,
      "Solution": 2250,
      "Speed": 2251,
      "Step": 2252,
      "cy": 2253,
      "dv": 2254,
      "ix": 2255,
      "iqu": 2256,
      "ious": 2257,
      "lic": 2258,
      "ner": 2259,
      "ness": 2260,
      "set": 2261,
      "ta": 2262,
      "tain": 2263,
      "where": 2264,
      "à¤": 2265,
      "Ġ}": 2266,
      "Ġes": 2267,
      "Ġent": 2268,
      "Ġà¦Ī": 2269,
      "à¦°à¦²": 2270,
      "à¦¿/": 2271,
      "à¦¿=": 2272,
      "à¦¯à¦¥": 2273,
      "à¦¯à¦ĵ": 2274,
      "Ġà¦ķà¦ķ": 2275,
      "à¦®à¦¡": 2276,
      "Ġà¦¸à¦ļ": 2277,
      "à¥¤\"": 2278,
      "à¦¶à¦¯": 2279,
      "à¦Ĺà¦¨": 2280,
      "à¦·à¦ª": 2281,
      "à¦·à¦Ĺ": 2282,
      "à¦§à¦ķà¦°à¦£": 2283,
      "Ġà¦¨à¦°à¦®": 2284,
      "à¦ľà¦Ł": 2285,
      "à¦ıà¦¨": 2286,
      "à¦ıà¦¡": 2287,
      "Ġà¦Ĺà¦°": 2288,
      "Ġà¦²à¦Ļ": 2289,
      "Ġ17": 2290,
      "Ġ1000": 2291,
      "Ġclo": 2292,
      "Ġcoun": 2293,
      "Ġsw": 2294,
      "âĪļ[": 2295,
      "Ġ2Â³": 2296,
      "Ġterm": 2297,
      "à¦¯à¦¬à¦°": 2298,
      "Ġpers": 2299,
      "Ġpub": 2300,
      "Ġà¦ĺà¦¨à¦ķ": 2301,
      "Ġà¦ĩà¦¸à¦²": 2302,
      "ane": 2303,
      "esian": 2304,
      "ism": 2305,
      "Ġev": 2306,
      "Ġà¦¸à¦¹à¦®": 2307,
      "Ġbl": 2308,
      "Ġbas": 2309,
      "Ġbetw": 2310,
      "Ġdet": 2311,
      "Ġà¦ħà¦¬à¦¹": 2312,
      "arr": 2313,
      "ators": 2314,
      "Ġmon": 2315,
      "Ġmain": 2316,
      "Ġmulti": 2317,
      "ross": 2318,
      "à¦ĺà¦¤à¦®": 2319,
      "Ġwhere": 2320,
      "=((": 2321,
      "Ġinc": 2322,
      "ety": 2323,
      "Ġhist": 2324,
      "Ġà¦¸à¦¬à¦ľ": 2325,
      "Ġgo": 2326,
      "Ġgreater": 2327,
      "ilder": 2328,
      "Ġ99": 2329,
      "uring": 2330,
      "à¦¶à¦ķà¦¦": 2331,
      "ĠCP": 2332,
      "ĠCart": 2333,
      "ĠCirc": 2334,
      "à§§à§«": 2335,
      "à¦¦à¦¨à¦ķ": 2336,
      "ĠSpeed": 2337,
      "ĠSolve": 2338,
      "ĠSurface": 2339,
      "Ġthro": 2340,
      "âĤĤ4": 2341,
      "iver": 2342,
      "ĠTwo": 2343,
      "ains": 2344,
      "ĠREAS": 2345,
      "ches": 2346,
      "ands": 2347,
      "ense": 2348,
      "ower": 2349,
      "ages": 2350,
      "Ġadver": 2351,
      "Ġlet": 2352,
      "ize": 2353,
      "atives": 2354,
      "Ġpredic": 2355,
      "Ġneural": 2356,
      "ĠGr": 2357,
      "ouse": 2358,
      "Ġweights": 2359,
      "Ġatt": 2360,
      "Ġclass": 2361,
      "ANs": 2362,
      "ONING": 2363,
      "Ġcontin": 2364,
      "----": 2365,
      "Ġà§¨à§¦à§¦à§¯": 2366,
      "metic": 2367,
      "phab": 2368,
      "Ġvalue": 2369,
      "::::::::::::::::::::::::::::::::::::::::::::::::::::::::::::::::::::::::::::::::::::::::::::::::::::::::::::::::::::::::::::::::::::::::::::::::::::::::::::::::::::::::::::::::::::::::::::::::::::::::::::::::::::::::::::::::::::::::::::::::::::::::::::::::": 2370,
      "ENT": 2371,
      "ĠPrice": 2372,
      "ĠUniversal": 2373,
      "Answer": 2374,
      "Ġcolle": 2375,
      "Ġtraditional": 2376,
      "ĠIntelligence": 2377,
      "ĠDisjoint": 2378,
      "ĠVolume": 2379,
      "Ġbetween": 2380,
      "ĠCartesian": 2381,
      "ĠREASONING": 2382,
      "34": 2383,
      "4Â²": 2384,
      "5Â³": 2385,
      "8Â²": 2386,
      "BST": 2387,
      "In": 2388,
      "OB": 2389,
      "Re": 2390,
      "UR": 2391,
      "bu": 2392,
      "cks": 2393,
      "ding": 2394,
      "ffic": 2395,
      "gor": 2396,
      "gan": 2397,
      "num": 2398,
      "pos": 2399,
      "tand": 2400,
      "word": 2401,
      "yn": 2402,
      "}=": 2403,
      "ĠÂ": 2404,
      "Ġits": 2405,
      "à¦¨à¦ľ": 2406,
      "à¦¤à¦ľ": 2407,
      "à¦ķà¦¶": 2408,
      "à¦ķà¦Ĩà¦ª": 2409,
      "Ġà¦¸à¦ľ": 2410,
      "à¦¼-": 2411,
      "à¦¼:": 2412,
      "à¦¶à¦¬": 2413,
      "Ġà¦ıà¦ª": 2414,
      "à¦¸à¦¯": 2415,
      "Ġà¦ħà¦²": 2416,
      "Ġà¦¤à¦²": 2417,
      "Ġà¦Ĩà¦ĩà¦¡": 2418,
      "à¦īà¦¡": 2419,
      "à¦ĩà¦ī": 2420,
      "Ġà¦ıà¦ķà¦¸à¦®à¦¯": 2421,
      "à¦¹à¦°": 2422,
      "à¦¥à¦¸": 2423,
      "à¦¡à¦Ł": 2424,
      "âĪŀ": 2425,
      "Ġà¦ªà¦°à¦ªà¦°": 2426,
      "Ġà¦²à¦¸": 2427,
      "à¦°à¦£à¦Ĺ": 2428,
      "à¦°à¦£à¦Ń": 2429,
      "Ġà¦ļà¦¤": 2430,
      "ink": 2431,
      "ines": 2432,
      "Ġap": 2433,
      "onom": 2434,
      "Ġ120": 2435,
      "Ġcat": 2436,
      "Ġso": 2437,
      "Ġsur": 2438,
      "Ġsome": 2439,
      "à¦°à¦¤à¦®": 2440,
      "Ġtan": 2441,
      "orts": 2442,
      "Ġfeed": 2443,
      "Ġ36": 2444,
      "Ġeth": 2445,
      "Ġbio": 2446,
      "Ġdel": 2447,
      "Ġà§¨à§§": 2448,
      "Ġà§¨à§®": 2449,
      "à¦¤à¦¨à¦¤": 2450,
      "Ġmed": 2451,
      "Ġà¦ıà¦ĩà¦ļà¦Ł": 2452,
      "Ġà§©à§¬": 2453,
      "ited": 2454,
      "à¦Ĩà¦°": 2455,
      "à¦Ĩà¦ªà¦¨": 2456,
      "hema": 2457,
      "10Â³": 2458,
      "Ġrev": 2459,
      "Ġrequ": 2460,
      "à¦¶à¦¨à¦Ł": 2461,
      "eters": 2462,
      "âĤģâĤĢ1000": 2463,
      "Ġright": 2464,
      "Ġrange": 2465,
      "Ġrule": 2466,
      "ility": 2467,
      "Ġ60": 2468,
      "Ġvis": 2469,
      "164": 2470,
      "Ġconf": 2471,
      "oster": 2472,
      "Ġ```": 2473,
      "ided": 2474,
      "ument": 2475,
      "Ġthough": 2476,
      "âĤĤ3": 2477,
      "ĠâĪł": 2478,
      "Ġext": 2479,
      "Ġexper": 2480,
      "Ġexpl": 2481,
      "185": 2482,
      "oding": 2483,
      "Ġà¦®à¦¹à§İ": 2484,
      "tern": 2485,
      "âĤĥ9": 2486,
      "Ġki": 2487,
      "plex": 2488,
      "à¦·à¦ķà¦¦": 2489,
      "Ġallow": 2490,
      "Ġspe": 2491,
      "Ġadv": 2492,
      "ithmetic": 2493,
      "Ġlow": 2494,
      "orted": 2495,
      "Ġpres": 2496,
      "Ġà¦¬à¦ĩà¦¯": 2497,
      "Ġmean": 2498,
      "Ġstruct": 2499,
      "ired": 2500,
      "Ġimage": 2501,
      "Ġeng": 2502,
      "Ġà¦¤à¦°à¦²": 2503,
      "Ġà¦¯à¦¤à¦Ł": 2504,
      "Ġreturns": 2505,
      "ĠVAT": 2506,
      "à¦ıà¦ĩà¦ļ": 2507,
      "777": 2508,
      "à¦Łà¦¬à¦Ł": 2509,
      "à¦ıà¦ıà¦ıà¦ıà¦ıà¦ıà¦ıà¦ıà¦ıà¦ıà¦ıà¦ıà¦ıà¦ıà¦ıà¦ıà¦ıà¦ıà¦ıà¦ıà¦ıà¦ıà¦ıà¦ıà¦ıà¦ıà¦ıà¦ıà¦ıà¦ıà¦ıà¦ıà¦ıà¦ıà¦ıà¦ıà¦ıà¦ıà¦ıà¦ıà¦ıà¦ıà¦ıà¦ıà¦ıà¦ıà¦ıà¦ıà¦ıà¦ıà¦ıà¦ıà¦ıà¦ıà¦ıà¦ıà¦ıà¦ıà¦ıà¦ıà¦ıà¦ıà¦ıà¦ı": 2510,
      "Ġà¦ķà¦¨à¦«": 2511,
      "English": 2512,
      "Ġhapp": 2513,
      "Ġclear": 2514,
      "Ġbreak": 2515,
      "23457": 2516,
      "ique": 2517,
      "Ġtraditionalà¦¤": 2518,
      "builder": 2519,
      "\":": 2520,
      "',": 2521,
      "'?": 2522,
      ")âĪĴ": 2523,
      "05": 2524,
      "3Â³": 2525,
      "345": 2526,
      "51": 2527,
      "63": 2528,
      "7Â²": 2529,
      "84": 2530,
      "=Â±": 2531,
      "?\"": 2532,
      "Bas": 2533,
      "LI": 2534,
      "TH": 2535,
      "UAL": 2536,
      "bers": 2537,
      "cc": 2538,
      "coding": 2539,
      "din": 2540,
      "ew": 2541,
      "ext": 2542,
      "ior": 2543,
      "ll": 2544,
      "line": 2545,
      "mn": 2546,
      "mp": 2547,
      "nr": 2548,
      "pon": 2549,
      "pend": 2550,
      "ton": 2551,
      "ting": 2552,
      "ters": 2553,
      "ware": 2554,
      "xim": 2555,
      "zx": 2556,
      "ĠY": 2557,
      "Ġ^": 2558,
      "Ġà¦Ķ": 2559,
      "à¦¾;": 2560,
      "à§ĩ!": 2561,
      "à¦¤à¦¸": 2562,
      "à¦¤à¦ķà¦°à¦£": 2563,
      "à¦¯à¦ªà¦¦": 2564,
      "à¦²à¦§à¦¨": 2565,
      "à¦²à¦ªà¦®": 2566,
      "à¦®à¦ĵà¦¯": 2567,
      "Ġà¦¬à¦¸à¦¬": 2568,
      "à¦¦à¦¦": 2569,
      "à¦Ĺà¦®à¦¨": 2570,
      "à¦£à¦¬": 2571,
      "Ġà¦¤à¦¦à¦¨": 2572,
      "Ġà¦Ĩà§Ł": 2573,
      "Ġà¦¹à¦¸": 2574,
      "Ġà¦¨à¦¬": 2575,
      "Ġà¦¨à¦ľà¦°": 2576,
      "à¦ĩà¦ĵ": 2577,
      "à¦ĸà¦ķ": 2578,
      "Ġà¦¯à¦¤à¦ķ": 2579,
      "à¦¼à¦¾-": 2580,
      "Ġà¦¶à¦ĸ": 2581,
      "Ġà¦°à¦¹à¦¸": 2582,
      "à¦¡à¦ĵà¦¯": 2583,
      "Ġà¦ļà¦°à¦®": 2584,
      "Ġaf": 2585,
      "Ġaff": 2586,
      "Ġ125": 2587,
      "lop": 2588,
      "Ġcent": 2589,
      "Ġcase": 2590,
      "Ġsk": 2591,
      "Ġshe": 2592,
      "Ġste": 2593,
      "Ġsign": 2594,
      "Ġ21": 2595,
      "Ġ2âģ´": 2596,
      "Ġà¦Ľà¦¬": 2597,
      "Ġtar": 2598,
      "Ġtak": 2599,
      "Ġpe": 2600,
      "Ġpo": 2601,
      "Ġpur": 2602,
      "orical": 2603,
      "anc": 2604,
      "ank": 2605,
      "ally": 2606,
      "estion": 2607,
      "à¦łà¦¤à¦²": 2608,
      "Ġfac": 2609,
      "istr": 2610,
      "à¦ĩà¦¨à¦Ł": 2611,
      "Ġear": 2612,
      "à§İà¦¸": 2613,
      "Ġà¦¸à¦¹à¦ķà¦°": 2614,
      "Ġbel": 2615,
      "Ġdu": 2616,
      "Ġdv": 2617,
      "Ġdirect": 2618,
      "à¦¤à¦¨à¦Ĺ": 2619,
      "arm": 2620,
      "ats": 2621,
      "ating": 2622,
      "Ġmech": 2623,
      "Ġà¦Łà¦°": 2624,
      "roxim": 2625,
      "Ġ500": 2626,
      "let": 2627,
      "Ġ41": 2628,
      "Ġwor": 2629,
      "Ġwork": 2630,
      "à¦°à¦®à¦£à¦ķ": 2631,
      "104": 2632,
      "Ġlang": 2633,
      "Â°,": 2634,
      "Ġhigh": 2635,
      "Ġà¦¸à¦¬à¦ķ": 2636,
      "uss": 2637,
      "Ġgiv": 2638,
      "à¦¦à¦°à¦¬à¦¨": 2639,
      "amental": 2640,
      "ective": 2641,
      "Ġvo": 2642,
      "Ġver": 2643,
      "Ġvari": 2644,
      "ĠCon": 2645,
      "169": 2646,
      "igin": 2647,
      "ulus": 2648,
      "à§§à§©": 2649,
      "identi": 2650,
      "adi": 2651,
      "adient": 2652,
      "ĠDe": 2653,
      "à¦¨à¦¬à¦¦": 2654,
      "Ġordin": 2655,
      "ctions": 2656,
      "Ġà¦īà¦ªà¦¸à¦°": 2657,
      "Ġkn": 2658,
      "144": 2659,
      "à¦°à¦ªà¦¤": 2660,
      "Ġà¦īà¦Ńà§Łà¦ĩ": 2661,
      "Ġalphab": 2662,
      "ured": 2663,
      "Ġshow": 2664,
      "orem": 2665,
      "Ġleg": 2666,
      "ĠInfin": 2667,
      "ized": 2668,
      "Ġunders": 2669,
      "Ġpart": 2670,
      "oken": 2671,
      "Ġplural": 2672,
      "crip": 2673,
      "crib": 2674,
      "Ġà¦¸à¦«à¦²à¦¤": 2675,
      "Ġmem": 2676,
      "Ġsubject": 2677,
      "à¦ķà¦¸à¦ĩ": 2678,
      "Ġà¦ķà¦ĸà¦¨à¦ĵ": 2679,
      "entiation": 2680,
      "issa": 2681,
      "Ġmaximum": 2682,
      "Ġsaf": 2683,
      "cept": 2684,
      "à¦ıà¦®à¦ıà¦®à¦ıà¦®à¦ıà¦®à¦ıà¦®à¦ıà¦®à¦ıà¦®à¦ıà¦®à¦ıà¦®à¦ıà¦®à¦ıà¦®à¦ıà¦®à¦ıà¦®à¦ıà¦®à¦ıà¦®à¦ıà¦®à¦ıà¦®à¦ıà¦®à¦ıà¦®à¦ıà¦®à¦ıà¦®à¦ıà¦®à¦ıà¦®à¦ıà¦®à¦ıà¦®à¦ıà¦®à¦ıà¦®à¦ıà¦®à¦ıà¦®à¦ıà¦®à¦ıà¦®à¦ıà¦®à¦ıà¦®à¦ıà¦®à¦ıà¦®à¦ıà¦®à¦ıà¦®à¦ıà¦®à¦ıà¦®à¦ıà¦®à¦ıà¦®à¦ıà¦®à¦ıà¦®à¦ıà¦®à¦ıà¦®à¦ıà¦®à¦ıà¦®à¦ıà¦®à¦ıà¦®à¦ıà¦®à¦ıà¦®à¦ıà¦®à¦ıà¦®à¦ıà¦®à¦ıà¦®à¦ıà¦®à¦ıà¦®à¦ıà¦®à¦ıà¦®à¦ıà¦®à¦ıà¦®à¦ıà¦®à¦ıà¦®à¦ıà¦®à¦ıà¦®à¦ıà¦®à¦ıà¦®à¦ıà¦®à¦ıà¦®à¦ıà¦®à¦ıà¦®à¦ıà¦®à¦ıà¦®à¦ıà¦®à¦ıà¦®à¦ıà¦®à¦ıà¦®à¦ıà¦®à¦ıà¦®à¦ıà¦®à¦ıà¦®à¦ıà¦®à¦ıà¦®à¦ıà¦®à¦ıà¦®à¦ıà¦®à¦ıà¦®à¦ıà¦®à¦ıà¦®à¦ıà¦®à¦ıà¦®à¦ıà¦®à¦ıà¦®à¦ıà¦®à¦ıà¦®à¦ıà¦®à¦ıà¦®à¦ıà¦®à¦ıà¦®à¦ıà¦®à¦ıà¦®à¦ıà¦®à¦ıà¦®à¦ıà¦®à¦ıà¦®à¦ıà¦®à¦ıà¦®à¦ıà¦®à¦ıà¦®à¦ıà¦®à¦ıà¦®à¦ıà¦®à¦ıà¦®à¦ıà¦®à¦ıà¦®à¦ıà¦®à¦ıà¦®à¦ıà¦®à¦ıà¦®à¦ıà¦®à¦ıà¦®à¦ıà¦®à¦ıà¦®à¦ıà¦®à¦ıà¦®à¦ıà¦®à¦ıà¦®à¦ıà¦®": 2685,
      "ĠIntegral": 2686,
      "ength": 2687,
      "Ġperson": 2688,
      "Ġthrough": 2689,
      "gorith": 2690,
      "hematical": 2691,
      "Basic": 2692,
      "Ġtarget": 2693,
      "Ġmechan": 2694,
      "roximately": 2695,
      "Ġlangu": 2696,
      "'à¥¤": 2697,
      "265": 2698,
      "400": 2699,
      "414": 2700,
      "54": 2701,
      "945": 2702,
      "AB": 2703,
      "AM": 2704,
      "Ch": 2705,
      "ES": 2706,
      "IL": 2707,
      "LAN": 2708,
      "OS": 2709,
      "PE": 2710,
      "Pr": 2711,
      "Root": 2712,
      "[(": 2713,
      "ah": 2714,
      "ause": 2715,
      "bs": 2716,
      "ctr": 2717,
      "hen": 2718,
      "his": 2719,
      "list": 2720,
      "mod": 2721,
      "ri": 2722,
      "way": 2723,
      "yte": 2724,
      "Ġ]": 2725,
      "Ġer": 2726,
      "ŀ)": 2727,
      "à¦ĭ": 2728,
      "à¦¾'": 2729,
      "à¦°à¦°": 2730,
      "à¦°à¦Ľ": 2731,
      "à¦¨à¦ĵà¦¯": 2732,
      "à¦¤à¦¦": 2733,
      "à¦¤à¦Ĺ": 2734,
      "à¦ķà¦¸à¦®": 2735,
      "à¦¬à¦Ł": 2736,
      "à¦²à¦«": 2737,
      "Ġà¦ķà¦¨à¦Ł": 2738,
      "Ġà¦¸à¦Ń": 2739,
      "à§ģ-": 2740,
      "à¦ªà¦°à¦ķ": 2741,
      "à¦¶à¦Ĺà¦¤": 2742,
      "Ġà¦ıà¦¨à¦ķ": 2743,
      "à¦¸à¦¦": 2744,
      "à§Ģ\"": 2745,
      "à¦Ĺà¦¸": 2746,
      "Ġà¦¤à¦¹": 2747,
      "Ġà¦Ĩà¦ľà¦ķ": 2748,
      "Ġà¦¹à¦°à¦Ĺ": 2749,
      "Ġà¦¦à¦²à¦ķ": 2750,
      "Ġà¦¨à¦¥": 2751,
      "Ġà¦¨à¦ķà¦¶": 2752,
      "à¦ľà¦¬": 2753,
      "à¦ĩà¦¥à¦¨": 2754,
      "à¦°à¦¶à¦ķ": 2755,
      "à¦ĸà¦£": 2756,
      "à¦Ńà¦°à¦¶": 2757,
      "à¦Ńà¦°à¦¤": 2758,
      "à§Łà¦Ł": 2759,
      "à§ĩà¥¤\"": 2760,
      "Ġà¦°à¦ļà¦¨": 2761,
      "à¦ıà¦Ĩà¦ĩ": 2762,
      "Ġà¦ļà¦¯": 2763,
      "inc": 2764,
      "ination": 2765,
      "inct": 2766,
      "inite": 2767,
      "Ġav": 2768,
      "ern": 2769,
      "til": 2770,
      "Ġ14": 2771,
      "Ġcust": 2772,
      "Ġcount": 2773,
      "Ġsys": 2774,
      "Ġsolution": 2775,
      "enuse": 2776,
      "Ġtech": 2777,
      "Ġtyp": 2778,
      "001": 2779,
      "logical": 2780,
      "Ġpat": 2781,
      "Ġpay": 2782,
      "Ġport": 2783,
      "Ġpill": 2784,
      "Ġpast": 2785,
      "Ġpost": 2786,
      "anti": 2787,
      "alth": 2788,
      "ests": 2789,
      "Ġfil": 2790,
      "Ġfol": 2791,
      "Ġfir": 2792,
      "Ġfact": 2793,
      "Ġ31": 2794,
      "Ġ360": 2795,
      "Ġà¦īà¦ªà¦Ĺ": 2796,
      "Ġeff": 2797,
      "Ġeffic": 2798,
      "Ġbc": 2799,
      "Ġbar": 2800,
      "Ġbec": 2801,
      "Ġdon": 2802,
      "Ġdic": 2803,
      "Ġdist": 2804,
      "Ġà§¨à§ª": 2805,
      "Ġà¦ħà¦¬à¦ķ": 2806,
      "edding": 2807,
      "ĠAI": 2808,
      "ĠApp": 2809,
      "aring": 2810,
      "athematical": 2811,
      "Ġmust": 2812,
      ")=âĪļ": 2813,
      "iting": 2814,
      "Ġ400": 2815,
      "à¦ĺà¦£": 2816,
      "âģ¿": 2817,
      "Ġnor": 2818,
      "Ġnoun": 2819,
      "Ġnorm": 2820,
      "acy": 2821,
      "ases": 2822,
      "Ġrem": 2823,
      "Ġrece": 2824,
      "Ġinst": 2825,
      "Ġlat": 2826,
      "Ġlab": 2827,
      "Ġlong": 2828,
      "Ġà¦īà§İà¦¸à¦¬": 2829,
      "Ġhol": 2830,
      "Ġhold": 2831,
      "âĤģâĤĢ25": 2832,
      "Ġopp": 2833,
      "ustr": 2834,
      "ĠByte": 2835,
      "Ġanal": 2836,
      "urs": 2837,
      "ampl": 2838,
      "Ġ75": 2839,
      "oto": 2840,
      "other": 2841,
      "otenuse": 2842,
      "Ġ65": 2843,
      "ĠCalcul": 2844,
      "Ġconj": 2845,
      "Ġconn": 2846,
      "Ġconvers": 2847,
      "ull": 2848,
      "ider": 2849,
      "idth": 2850,
      "à¦°à¦¬à¦£à¦¤": 2851,
      "à¦¦à¦¸à¦ĩ": 2852,
      "à§¦à§¦à§¦": 2853,
      "Ġtop": 2854,
      "ĠSquare": 2855,
      "ade": 2856,
      "ads": 2857,
      "ival": 2858,
      "ĠDeriv": 2859,
      "Ġprob": 2860,
      "istant": 2861,
      "ĠâĪŀ)": 2862,
      "ird": 2863,
      "à¦¸à¦®à¦¸": 2864,
      "ĠRoster": 2865,
      "Ġorgan": 2866,
      "tics": 2867,
      "Ġtrav": 2868,
      "à¦ªà¦¦à¦Ĺ": 2869,
      "ĠLim": 2870,
      "âĤĥ27": 2871,
      "ched": 2872,
      "ĠNot": 2873,
      "Ġà¦Ŀà¦²à¦ķ": 2874,
      "ific": 2875,
      "Ġstud": 2876,
      "âī¥": 2877,
      "Ġall": 2878,
      "Ġalgorith": 2879,
      "Ġdeve": 2880,
      "Ġabsc": 2881,
      "verage": 2882,
      "ĠMethod": 2883,
      "Ġspeed": 2884,
      "ials": 2885,
      "Ġà¦ıà¦¸à¦ĩà¦ĵ": 2886,
      "Ġshop": 2887,
      "Ġarg": 2888,
      "à¦ĩà¦¸à¦Ĺ": 2889,
      "Ġacc": 2890,
      "Ġsee": 2891,
      "Ġà§§à§¯à§«": 2892,
      "illions": 2893,
      "graph": 2894,
      "plication": 2895,
      "Ġquestion": 2896,
      "Ġstrings": 2897,
      "Ġhel": 2898,
      "Ġsubs": 2899,
      "Ġimplement": 2900,
      "ĠHyp": 2901,
      "à¦ªà¦Łà¦ª": 2902,
      "achine": 2903,
      "entific": 2904,
      "ission": 2905,
      "Ġà§¨à§¦à§¨": 2906,
      "à¦¸à¦«à¦°à¦®": 2907,
      "tegration": 2908,
      "Ġinsp": 2909,
      "Ġrepres": 2910,
      "à¦¬à¦¤à¦¶": 2911,
      "Ġcapital": 2912,
      "Ġnotation": 2913,
      "abilities": 2914,
      "Ġlisten": 2915,
      "ĠExpon": 2916,
      "Ġoptim": 2917,
      "Ġformula": 2918,
      "INGUAL": 2919,
      "à¦ķà¦¡à¦ĩà¦¨": 2920,
      "ĠAddition": 2921,
      "Ġgener": 2922,
      "Ġgroup": 2923,
      "ĠEqual": 2924,
      "________________________________________________________________": 2925,
      "Ġdifference": 2926,
      "Ġlayer": 2927,
      "121212": 2928,
      "ĠEncoding": 2929,
      "14159265": 2930,
      "profit": 2931,
      "onym": 2932,
      "Ġnetwork": 2933,
      "ĠDivision": 2934,
      "ĠSubtraction": 2935,
      "book": 2936,
      "string": 2937,
      "tificial": 2938,
      "Ġfundamental": 2939,
      "ĠPlus": 2940,
      "ĠMultiplication": 2941,
      "Ġupdated": 2942,
      "Ġhistorical": 2943,
      "Ġthought": 2944,
      "Ġordinate": 2945,
      "ĠInfinity": 2946,
      "Ġunderstand": 2947,
      "ILINGUAL": 2948,
      "à¦ķà¦¸à¦®à¦·": 2949,
      "Ġà¦¤à¦¹à¦¬": 2950,
      "Ġcustom": 2951,
      "Ġdistinct": 2952,
      "ĠApproximately": 2953,
      "Ġabscissa": 2954,
      "ĠHypotenuse": 2955,
      "ĠExponentiation": 2956,
      "1415926535": 2957,
      "\"à¥¤": 2958,
      ",{": 2959,
      "06": 2960,
      "200": 2961,
      "41": 2962,
      "46": 2963,
      "512": 2964,
      "62": 2965,
      "73": 2966,
      "836": 2967,
      "=âĪħ": 2968,
      "AI": 2969,
      "BPE": 2970,
      "CD": 2971,
      "Distance": 2972,
      "For": 2973,
      "Factor": 2974,
      "HER": 2975,
      "Pair": 2976,
      "SH": 2977,
      "XP": 2978,
      "af": 2979,
      "cm": 2980,
      "cle": 2981,
      "eat": 2982,
      "eight": 2983,
      "etical": 2984,
      "gg": 2985,
      "gin": 2986,
      "ik": 2987,
      "ln": 2988,
      "man": 2989,
      "med": 2990,
      "ne": 2991,
      "oti": 2992,
      "por": 2993,
      "port": 2994,
      "phere": 2995,
      "ror": 2996,
      "ric": 2997,
      "rtificial": 2998,
      "sh": 2999,
      "to": 3000,
      "tle": 3001,
      "the": 3002,
      "trop": 3003,
      "xx": 3004,
      "zz": 3005,
      "âĢ": 3006,
      "ĠÏ": 3007,
      "Ġir": 3008,
      "Ġest": 3009,
      "Ġone": 3010,
      "à¦Ĳ": 3011,
      "Ġà¦Ĭ": 3012,
      "à¦¾!": 3013,
      "à¦°à¦ĩ": 3014,
      "à¦°à¦ĸ": 3015,
      "à¦°à¦¬à¦¨": 3016,
      "à¦°à¦ħ": 3017,
      "à¦¿!": 3018,
      "à¦¿),": 3019,
      "à¦¨à¦ļ": 3020,
      "à¦¯à¦§": 3021,
      "à¦¬à¦ľ": 3022,
      "à¦¬à§Ł": 3023,
      "à¦¬à¦ľà¦¨": 3024,
      "Ġà¦ķà¦Ĺ": 3025,
      "à¦®à¦¹": 3026,
      "Ġà¦¸à¦¤à¦°": 3027,
      "à¦Łà¦¸à¦¬": 3028,
      "à¦¼âĢĶ": 3029,
      "Ġà¦¬à§Ł": 3030,
      "Ġà¦ıà¦¨à¦¬": 3031,
      "Ġà¦ªà¦Łà¦Ń": 3032,
      "à¦¸à¦¹": 3033,
      "à¦Ĺà¦¬": 3034,
      "à¦Ĺà¦Ľ": 3035,
      "à¦£à¦Ĺ": 3036,
      "à¦·à¦¬": 3037,
      "à¦·à¦§": 3038,
      "Ġà¦ħà¦¶": 3039,
      "Ġà¦®à§Ł": 3040,
      "Ġà¦Ĩà¦Ł": 3041,
      "Ġà¦Ĩà¦¬à¦°": 3042,
      "à¦ľà¦¤": 3043,
      "à¦¤à¦°à¦ķ": 3044,
      "à¦īà¦®": 3045,
      "à¦īà¦¦": 3046,
      "à¦īà¦ĩ": 3047,
      "à¦ĩà¦ħà¦ķ": 3048,
      "à¦Ńà¦¸": 3049,
      "Ġà¦īà¦ķ": 3050,
      "Ġà¦°à¦ļ": 3051,
      "à¦¡à¦¸": 3052,
      "âĪĤ": 3053,
      "âĪī": 3054,
      "à¦ĵà¦Ł": 3055,
      "Ġà¦Ĩà¦®à¦¨": 3056,
      "Ġ=(": 3057,
      "inter": 3058,
      "inary": 3059,
      "Ġact": 3060,
      "Ġaverage": 3061,
      "erg": 3062,
      "erv": 3063,
      "ery": 3064,
      "erves": 3065,
      "onic": 3066,
      "ties": 3067,
      "Ġ198": 3068,
      "lom": 3069,
      "loy": 3070,
      "Ġcer": 3071,
      "Ġsl": 3072,
      "Ġsing": 3073,
      "Ġsame": 3074,
      "âĤĪ": 3075,
      "âĤī": 3076,
      "Ġ200": 3077,
      "à¦ªà¦¨à¦Ĺ": 3078,
      "Ġter": 3079,
      "Ġtell": 3080,
      "Ġtem": 3081,
      "Ġtwo": 3082,
      "Ġtense": 3083,
      "00836": 3084,
      "Ġpack": 3085,
      "Ġperm": 3086,
      "Ġposs": 3087,
      "Ġà¦ĩà¦ķ": 3088,
      "alle": 3089,
      "à¦łà¦Ń": 3090,
      "isc": 3091,
      "Ġà¦§à¦°à¦¤": 3092,
      "tional": 3093,
      "Ġevery": 3094,
      "à§İà¦ľ": 3095,
      "Ġbx": 3096,
      "Ġdi": 3097,
      "Ġlogic": 3098,
      "ĠAl": 3099,
      "ĠAn": 3100,
      "ark": 3101,
      "atus": 3102,
      "ature": 3103,
      "Ġma": 3104,
      "Ġmet": 3105,
      "Ġmil": 3106,
      "Ġmak": 3107,
      "à¦ķà¦°à¦£à¦ķ": 3108,
      "à¦ķà¦°à¦£à¦Ĺà¦¤": 3109,
      "à¦·à¦£à¦ķ": 3110,
      "à¦¨à¦¤à¦®": 3111,
      ")=âĪĽ": 3112,
      "Ġà§©à§¦": 3113,
      "iter": 3114,
      "itor": 3115,
      "ites": 3116,
      "Ġ48": 3117,
      "à¦Ĩà¦īà¦Ł": 3118,
      "head": 3119,
      "âģ¸": 3120,
      "Ġwal": 3121,
      "Ġwat": 3122,
      "Ġwill": 3123,
      "Ġ\"$": 3124,
      "à¦«à¦²à¦¨": 3125,
      "10Â²": 3126,
      "ables": 3127,
      "ased": 3128,
      "à¦īà¦Łà¦¨": 3129,
      "1001": 3130,
      "100Â²": 3131,
      "à§ĩ?\"": 3132,
      "Ġincl": 3133,
      "Ġlis": 3134,
      "Ġlar": 3135,
      "Ġless": 3136,
      "ets": 3137,
      "à¦Ĺà¦¤à¦®": 3138,
      "Ġà¦īà¦¦à¦¯": 3139,
      "Ġà¦¦à¦¶à¦Ł": 3140,
      "Ġhas": 3141,
      "Ġhand": 3142,
      "Ġhours": 3143,
      "à¦ĩà¦Łà¦Ĺ": 3144,
      "Ġocc": 3145,
      "Ġansw": 3146,
      "Ġanother": 3147,
      "128": 3148,
      "ĠPR": 3149,
      "Ġrun": 3150,
      "Ġ98": 3151,
      "Ġ999": 3152,
      "amW": 3153,
      "ams": 3154,
      "ames": 3155,
      "ects": 3156,
      "Ġ62": 3157,
      "Ġvi": 3158,
      "Ġvol": 3159,
      "Ġvia": 3160,
      "ĠCy": 3161,
      "ĠCross": 3162,
      "à¦Ŀà¦ĸ": 3163,
      "Ġconte": 3164,
      "Ġconcep": 3165,
      "à§§à§®": 3166,
      "osite": 3167,
      "Ġ``": 3168,
      "à¦°à¦¬à¦Łà¦²": 3169,
      "umulus": 3170,
      "Ġà¦Ĩà¦¬à¦¦": 3171,
      "Ġà¦ħà¦¸à¦Ļ": 3172,
      "à§¨à§¦à§¦": 3173,
      "à§¨à§¯": 3174,
      "âĤĤ32": 3175,
      "Ġprot": 3176,
      "Ġproper": 3177,
      "ĠâĪĤ": 3178,
      "ĠâĪĩ": 3179,
      "Ġexc": 3180,
      "Ġà§ªà§¦": 3181,
      "Ġà¦ĺà¦Łà¦Ľ": 3182,
      "Ġorder": 3183,
      "ĠForm": 3184,
      "teger": 3185,
      "ĠĠĠĠĠĠĠĠĠĠĠ": 3186,
      "4545": 3187,
      "Ġtriangle": 3188,
      "ĠEXP": 3189,
      "Ġchr": 3190,
      "Ġchain": 3191,
      "Ġke": 3192,
      "Ġkm": 3193,
      "ape": 3194,
      ")/(": 3195,
      "Ġà¦Ŀà¦¡": 3196,
      "ife": 3197,
      "Ġà¦ħà¦ªà¦¬": 3198,
      "Ġstart": 3199,
      "Ġâī¡": 3200,
      "ĠWANs": 3201,
      "ension": 3202,
      "Ġdef": 3203,
      "Ġdefin": 3204,
      "agr": 3205,
      "Ġuser": 3206,
      "Ġartic": 3207,
      "Ġadd": 3208,
      "ended": 3209,
      "orean": 3210,
      "Ġprint": 3211,
      "Ġloc": 3212,
      "Ġlear": 3213,
      "Ġlead": 3214,
      "1000Â²": 3215,
      "))]": 3216,
      "Ġuniversal": 3217,
      "Ġparts": 3218,
      "Ġpartic": 3219,
      "Ġparalle": 3220,
      ")=(-": 3221,
      "Ġà§§à§¯à§®": 3222,
      "Ġà§§à§¯à§Ń": 3223,
      "Ġplay": 3224,
      "Ġà¦ľà¦²à¦ľ": 3225,
      "atis": 3226,
      "Ġprev": 3227,
      "Ġà¦¸à¦«à¦²à¦Ń": 3228,
      "ansform": 3229,
      "134": 3230,
      "Ġà¦¬à¦¹à¦¨": 3231,
      "Ġà¦®à¦¸à¦ľ": 3232,
      "Ġhead": 3233,
      "Ġheight": 3234,
      "Ġimpro": 3235,
      "Product": 3236,
      "oci": 3237,
      "ock": 3238,
      "ĠTheorem": 3239,
      "ĠHere": 3240,
      "ĠHeight": 3241,
      "Ġattention": 3242,
      "Ġminimum": 3243,
      "Ġemb": 3244,
      "Ġemo": 3245,
      "ached": 3246,
      "ysis": 3247,
      "kee": 3248,
      "angle": 3249,
      "angled": 3250,
      "Ġinto": 3251,
      "Ġintellig": 3252,
      "Ġdesign": 3253,
      "Ġassistant": 3254,
      "ignment": 3255,
      "NGLI": 3256,
      "Ġexpress": 3257,
      "Ġsentences": 3258,
      "Ġbuy": 3259,
      "Ġguide": 3260,
      "Ġcapt": 3261,
      "Ġmodels": 3262,
      "Ġwhich": 3263,
      "Ġà¦¸à¦¬à¦¸à¦®à¦¯": 3264,
      "ythag": 3265,
      "Ġcheck": 3266,
      "Ġchecks": 3267,
      "ĠPrn": 3268,
      "EMS": 3269,
      "Entrop": 3270,
      "ORD": 3271,
      "Quadratic": 3272,
      "Quoti": 3273,
      "Ġdoes": 3274,
      "Ġoperators": 3275,
      "Ġcalled": 3276,
      "ĠAdamW": 3277,
      "athy": 3278,
      "Ġprovide": 3279,
      "Ġscience": 3280,
      "Ġscientific": 3281,
      "Ġnumber": 3282,
      "ĠProduct": 3283,
      "ĠEnglish": 3284,
      "Ġrespect": 3285,
      "Ġautom": 3286,
      "Ġnetworks": 3287,
      "Ġemploy": 3288,
      "ARY": 3289,
      "iameter": 3290,
      "Ġcalculated": 3291,
      "Ġelse": 3292,
      "ATIONS": 3293,
      "ĠÎĶ": 3294,
      "Ġdivided": 3295,
      "ĠLogical": 3296,
      "Ġmeasures": 3297,
      "Ġestim": 3298,
      "Ġenter": 3299,
      "Ġadverb": 3300,
      "ĠGradient": 3301,
      "Integration": 3302,
      "Ġethics": 3303,
      "Ġbiological": 3304,
      "Ġexplan": 3305,
      "Ġallows": 3306,
      "Ġlowercase": 3307,
      "Ġà¦Ķà¦·à¦§": 3308,
      "adius": 3309,
      "Ġalphabetical": 3310,
      "okenization": 3311,
      "Ġsafety": 3312,
      "Ġmechanism": 3313,
      "Ġlanguage": 3314,
      "Chain": 3315,
      "Roots": 3316,
      "Ġsystem": 3317,
      "Ġtechn": 3318,
      "Ġefficient": 3319,
      "Ġdiction": 3320,
      "Ġnormal": 3321,
      "Ġanalysis": 3322,
      "amples": 3323,
      "ĠCalculate": 3324,
      "Ġconversation": 3325,
      "Ġdevelop": 3326,
      "Ġinspired": 3327,
      "Ġrepresent": 3328,
      "HERE": 3329,
      "Ġà¦¬à§Łà¦¸": 3330,
      "Ġanswers": 3331,
      "Ġcontext": 3332,
      "Ġconcepts": 3333,
      "ĠFormula": 3334,
      "Ġparallel": 3335,
      "Ġintelligent": 3336,
      "NGLISH": 3337,
      "Entropy": 3338,
      "Quotient": 3339,
      "%.": 3340,
      "(âĪĴ": 3341,
      ")ÃĹ(": 3342,
      "+âĪļ": 3343,
      "012": 3344,
      "115": 3345,
      "26": 3346,
      "210": 3347,
      "225": 3348,
      "260": 3349,
      "2âģ·": 3350,
      "3âģµ": 3351,
      "460": 3352,
      "58": 3353,
      "645": 3354,
      "6000": 3355,
      "82": 3356,
      "85": 3357,
      "9Â²": 3358,
      "944": 3359,
      "Artificial": 3360,
      "BR": 3361,
      "CI": 3362,
      "CM": 3363,
      "CP": 3364,
      "CS": 3365,
      "Con": 3366,
      "Cost": 3367,
      "CUL": 3368,
      "EG": 3369,
      "Every": 3370,
      "FIC": 3371,
      "GEN": 3372,
      "IV": 3373,
      "ITH": 3374,
      "IFIC": 3375,
      "Kind": 3376,
      "Key": 3377,
      "LGE": 3378,
      "LOS": 3379,
      "LEMS": 3380,
      "MUL": 3381,
      "Mathematical": 3382,
      "NT": 3383,
      "OMET": 3384,
      "PER": 3385,
      "Pnr": 3386,
      "RY": 3387,
      "RAL": 3388,
      "SP": 3389,
      "Sell": 3390,
      "SUR": 3391,
      "SARY": 3392,
      "There": 3393,
      "Time": 3394,
      "This": 3395,
      "UE": 3396,
      "US": 3397,
      "UND": 3398,
      "VES": 3399,
      "]=": 3400,
      "aq": 3401,
      "aus": 3402,
      "ave": 3403,
      "br": 3404,
      "by": 3405,
      "bol": 3406,
      "ci": 3407,
      "ced": 3408,
      "ccess": 3409,
      "down": 3410,
      "eo": 3411,
      "ga": 3412,
      "hn": 3413,
      "ipp": 3414,
      "ike": 3415,
      "ling": 3416,
      "less": 3417,
      "ned": 3418,
      "ney": 3419,
      "olog": 3420,
      "ole": 3421,
      "ply": 3422,
      "prop": 3423,
      "range": 3424,
      "uzz": 3425,
      "ving": 3426,
      "vel": 3427,
      "ww": 3428,
      "{âĪħ": 3429,
      "Ġ==": 3430,
      "Ġ____": 3431,
      "Ġide": 3432,
      "Ġidenti": 3433,
      "à¦¾âĢĶ": 3434,
      "à§ĩ)": 3435,
      "à¦¨à¦¶à¦¨": 3436,
      "à¦¨à¦Ĺà¦°": 3437,
      "à¦¤à¦ıà¦¬": 3438,
      "à¦ķà¦¥": 3439,
      "à¦ķà¦¶à¦¨": 3440,
      "à¦²à¦Ľ": 3441,
      "à¦Łà¦°à¦Ĺ": 3442,
      "à¦ªà¦¯": 3443,
      "à¦ªà¦¡": 3444,
      "à¦ªà¦¶à¦¨": 3445,
      "à¦¦à¦¬": 3446,
      "à¦¸à¦Ń": 3447,
      "à¦¸à¦ļ": 3448,
      "à¦¸à¦ŀ": 3449,
      "à¦Ĺà¦Ł": 3450,
      "à¦Ĺà¦ķà¦°": 3451,
      "à¦·à¦ľ": 3452,
      "à¦·à§Ł": 3453,
      "à¦·à¦ķà¦°": 3454,
      "Ġà¦ħà¦·": 3455,
      "Ġà¦®à¦¯": 3456,
      "à¦§à¦Ĺ": 3457,
      "Ġà¦Ĩà¦ĩà¦¸": 3458,
      "Ġà¦Ĩà¦Łà¦ķ": 3459,
      "Ġà¦¹à¦ł": 3460,
      "Ġà¦¹à¦°à¦®": 3461,
      "Ġà¦¦à¦²à¦¬": 3462,
      "Ġà¦¨à¦°": 3463,
      "à¦ľà¦²": 3464,
      "à¦ĩà¦Ĺ": 3465,
      "à¦ĸà¦Ľ": 3466,
      "Ġà¦īà¦°": 3467,
      "à¦¹à¦¨": 3468,
      "à¦¹à¦ķà¦°": 3469,
      "Ġà¦ľà¦¯": 3470,
      "Ġà¦¸à¦®à¦¹à¦°": 3471,
      "à¦Ľà¦ª": 3472,
      "Ġà¦Ńà¦ķ": 3473,
      "Ġà¦°à¦Ł": 3474,
      "à¦ĵà¦¨": 3475,
      "Ġ(âĪļ": 3476,
      "Ġà¦ļà¦Ł": 3477,
      "Ġà¦ļà¦²à¦¤": 3478,
      "ina": 3479,
      "ins": 3480,
      "Ġair": 3481,
      "Ġaction": 3482,
      "eral": 3483,
      "ones": 3484,
      "Ġ110": 3485,
      "Ġà¦«à¦¨": 3486,
      "Ġcre": 3487,
      "Ġcou": 3488,
      "Ġcare": 3489,
      "Ġcreat": 3490,
      "Ġsy": 3491,
      "Ġsun": 3492,
      "Ġsound": 3493,
      "à¦°à¦ķà¦°à¦£": 3494,
      "ene": 3495,
      "ening": 3496,
      "ency": 3497,
      "Ġ22": 3498,
      "Ġ23": 3499,
      "Ġ2âģµ": 3500,
      "Ġtw": 3501,
      "Ġtal": 3502,
      "Ġturn": 3503,
      "Ġtree": 3504,
      "âĪĴâĪļ": 3505,
      "à¦¯à¦¬à¦§": 3506,
      "Ġpot": 3507,
      "Ġpain": 3508,
      "Ġpop": 3509,
      "à¦«à¦²à¦ķ": 3510,
      "à¦ľà¦¨à¦¯": 3511,
      "Ġà¦ĩà¦¥": 3512,
      "ale": 3513,
      "Ġfav": 3514,
      "Ġfind": 3515,
      "à¦ĩà¦¨à¦Ĺ": 3516,
      "Ġ3Â²": 3517,
      "Ġ3Â³": 3518,
      "Ġeach": 3519,
      "à§İà¦ª": 3520,
      "à§İà¦¸à¦ķ": 3521,
      "Ġbus": 3522,
      "Ġbig": 3523,
      "Ġbut": 3524,
      "Ġbinary": 3525,
      "Ġden": 3526,
      "Ġdoc": 3527,
      "Ġdown": 3528,
      "Ġlogits": 3529,
      "Ġà§¨à§©": 3530,
      "Ġà§¨à§¬": 3531,
      "Ġà§¨à§¯": 3532,
      "à¦¤à¦¨à¦ķ": 3533,
      "ĠAr": 3534,
      "ĠALGE": 3535,
      "ata": 3536,
      "ather": 3537,
      "atural": 3538,
      "attention": 3539,
      "Ġmass": 3540,
      "Ġmiss": 3541,
      "Ġmethod": 3542,
      "Ġà¦ıà¦ĩà¦Ń": 3543,
      "à¦ķà¦°à¦£à¦Ĺà¦¤à¦Ń": 3544,
      "row": 3545,
      "room": 3546,
      "round": 3547,
      ")={âĪħ": 3548,
      "Ġ55": 3549,
      "Ġ5Â²": 3550,
      "Ġ56000": 3551,
      "lex": 3552,
      "lect": 3553,
      "à¦¿à¦Ĥà¦ĥ": 3554,
      "ict": 3555,
      "icular": 3556,
      "âģ¹": 3557,
      "Ġwhat": 3558,
      "10Â¹": 3559,
      "acks": 3560,
      "ask": 3561,
      "ason": 3562,
      "Ġref": 3563,
      "Ġread": 3564,
      "Ġrest": 3565,
      "Ġinf": 3566,
      "Ġiniti": 3567,
      "Ġlib": 3568,
      "250": 3569,
      "2500": 3570,
      "Â°)": 3571,
      "Ġà¦ħà¦¬à¦¸à¦°": 3572,
      "Ġown": 3573,
      "ĠBack": 3574,
      "ĠBILINGUAL": 3575,
      "Ġgl": 3576,
      "Ġglo": 3577,
      "Ġà¦¸à¦¹à¦ľà¦Ń": 3578,
      "ĠPi": 3579,
      "ĠPass": 3580,
      "ĠPython": 3581,
      "ĠPower": 3582,
      "ĠPythag": 3583,
      "imeter": 3584,
      "Ġra": 3585,
      "Ġrig": 3586,
      "ury": 3587,
      "urved": 3588,
      "amp": 3589,
      "à¦ĩà¦²à¦Ĺ": 3590,
      "Ġ623": 3591,
      "Ġ6237": 3592,
      "oll": 3593,
      "ĠCod": 3594,
      "ĠCurved": 3595,
      "166": 3596,
      "168": 3597,
      "Ġà¦Ĩà¦²à¦¬": 3598,
      "igma": 3599,
      "uler": 3600,
      "à§§à§§": 3601,
      "à§§à§¨": 3602,
      "ĠisBST": 3603,
      "Ġ1024": 3604,
      "umference": 3605,
      "trib": 3606,
      "Ġà¦ħà¦¸à¦®à¦¤": 3607,
      "ĠSP": 3608,
      "ĠStr": 3609,
      "ĠSelf": 3610,
      "ĠSphere": 3611,
      "ĠSCI": 3612,
      "Ġthis": 3613,
      "Ġthere": 3614,
      "ives": 3615,
      "ĠDER": 3616,
      "ĠDiameter": 3617,
      "Ġà¦īà¦łà¦Ľ": 3618,
      "à¦¬à¦¸à¦¨": 3619,
      "à¦¬à¦ªà¦¤": 3620,
      "Ġprof": 3621,
      "Ġprogr": 3622,
      "186": 3623,
      "ody": 3624,
      "ĠText": 3625,
      "ĠTokenization": 3626,
      "à¦ħà¦°": 3627,
      "à¦ħà¦Ń": 3628,
      "à¦ħà¦¤à¦ıà¦¬": 3629,
      "à¦¨à¦¬à¦¤": 3630,
      "Ġà¦Ĩà¦¸à¦¤": 3631,
      "Ġà¦Ĩà¦¸à¦ķ": 3632,
      "ĠINT": 3633,
      "ĠRect": 3634,
      "ĠRadius": 3635,
      "Ġorigin": 3636,
      "ĠFOR": 3637,
      "ĠFUND": 3638,
      "à¦Ĩà¦ĩà¦¡": 3639,
      "Ġoff": 3640,
      "Ġoffic": 3641,
      "Ġ[(": 3642,
      "Ġà¦¯à¦ĸà¦¨à¦ĩ": 3643,
      "Ġcomple": 3644,
      "Ġtrue": 3645,
      "Ġtrack": 3646,
      "ĠENGLISH": 3647,
      "ĠEuler": 3648,
      "ube": 3649,
      "ĠLength": 3650,
      "âĤĥ81": 3651,
      "0001": 3652,
      "000512": 3653,
      "ĠNum": 3654,
      "ification": 3655,
      "ified": 3656,
      "à¦¼à§Ģà¥¤": 3657,
      "Ġà§Ńà§¨": 3658,
      "240": 3659,
      "ĠWe": 3660,
      "ĠWhen": 3661,
      "ĠWidth": 3662,
      "ĠWORD": 3663,
      "Ġalignment": 3664,
      "à§¬à§¦": 3665,
      "à§¯à§¦": 3666,
      "Ġdeb": 3667,
      "Ġdep": 3668,
      "Ġdeal": 3669,
      "vern": 3670,
      "ĠMEN": 3671,
      "ĠMachine": 3672,
      "à¦ļà¦²à¦Ł": 3673,
      "ips": 3674,
      "Ġsho": 3675,
      "agation": 3676,
      "à¦§à¦¨à¦¶": 3677,
      "Ġarithmetic": 3678,
      "ĠOA": 3679,
      "ĠOB": 3680,
      "ĠOPER": 3681,
      "Ġadj": 3682,
      "Ġadmin": 3683,
      "ending": 3684,
      "ATOR": 3685,
      "Ġpron": 3686,
      "Ġlook": 3687,
      "Ġaccess": 3688,
      "Ġactively": 3689,
      "ected": 3690,
      "ectors": 3691,
      ")).": 3692,
      "ibility": 3693,
      "ards": 3694,
      "ĠInput": 3695,
      "izers": 3696,
      "Ġunder": 3697,
      "Ġunique": 3698,
      "Ġuntil": 3699,
      "Ġà¦ĭà¦¤": 3700,
      "Ġsep": 3701,
      "Ġparagr": 3702,
      "Ġà§§à§¯à§¦": 3703,
      "Ġplan": 3704,
      "ills": 3705,
      "ared": 3706,
      "Ġà¦¬à¦ĩà§Ł": 3707,
      "ĠGLOS": 3708,
      "à¦¨à¦¦à¦£": 3709,
      "Ġquadratic": 3710,
      "Ġquanti": 3711,
      "Ġà¦¶à¦¹à¦°à¦Ł": 3712,
      "Ġsubword": 3713,
      "à¦ķà¦¸à¦Ĺ": 3714,
      "Ġà¦ķà¦ĸà¦¨à¦ĩ": 3715,
      "à¦ıà¦¸à¦ıà¦¸": 3716,
      "Ġboy": 3717,
      "217": 3718,
      "Ġà¦²à¦¬à¦Ĺ": 3719,
      "Ġconsult": 3720,
      "Ġconsider": 3721,
      "Ġphil": 3722,
      "Ġphoto": 3723,
      "Ġcontain": 3724,
      "ATIVES": 3725,
      "Ġbrains": 3726,
      "Ġintro": 3727,
      ")]=": 3728,
      "ERAL": 3729,
      "Ġdeserves": 3730,
      "Ġtoken": 3731,
      "Ġassoci": 3732,
      "ĠComplex": 3733,
      "Ġcommon": 3734,
      "Ġcommit": 3735,
      "Ġcommun": 3736,
      "à¦¿-,": 3737,
      "Ġrecord": 3738,
      "Ġindic": 3739,
      "Ġinstr": 3740,
      "à¦Łà¦¬à¦Łà¦Ĺ": 3741,
      "Ġbuys": 3742,
      "Ġvalues": 3743,
      "222": 3744,
      "versational": 3745,
      "ĠExample": 3746,
      "price": 3747,
      "ĠTriangle": 3748,
      "ĠTransform": 3749,
      "729": 3750,
      "Ġperf": 3751,
      "Ġperform": 3752,
      "ĠForward": 3753,
      "Ġbroad": 3754,
      "ĠlogâĤĲx": 3755,
      "titution": 3756,
      "555": 3757,
      "jected": 3758,
      "ugate": 3759,
      "Ġ(((": 3760,
      "Ġspecial": 3761,
      "Ġcamp": 3762,
      "Ġlayers": 3763,
      "ĠPerpend": 3764,
      "ĠPerimeter": 3765,
      "ĠProper": 3766,
      "Ġcompute": 3767,
      "Ġcomputational": 3768,
      "Ġdiscuss": 3769,
      "ĠIntegrals": 3770,
      "Ġrespons": 3771,
      "56000": 3772,
      "forward": 3773,
      "Ġauth": 3774,
      "âĪĴ(âĪĴ": 3775,
      "Ġelectr": 3776,
      "Ġà§¨à§Ńà§®": 3777,
      "Ġinvest": 3778,
      "ĠDivide": 3779,
      "Ġnews": 3780,
      "Ġempathy": 3781,
      "ARITH": 3782,
      "CALCUL": 3783,
      "minus": 3784,
      "Ġà¦īà¦ªà¦ķà¦°à¦£à¦Ĺ": 3785,
      "Ġconcise": 3786,
      "272727": 3787,
      "ĠSubtract": 3788,
      "GEOMET": 3789,
      "linder": 3790,
      "Ġsells": 3791,
      "Ġlaw": 3792,
      "Ġannoun": 3793,
      "Ġproductively": 3794,
      "MATHEMATICAL": 3795,
      "MATHEMATICS": 3796,
      "METIC": 3797,
      "Ġ}}": 3798,
      "à¦ıà¦¨à¦ı": 3799,
      "Ġincre": 3800,
      "ĠCircle": 3801,
      "ĠCircumference": 3802,
      "Ġpredicate": 3803,
      "Ġpredicted": 3804,
      "Ġcontinu": 3805,
      "ENTAL": 3806,
      "ENTIFIC": 3807,
      "OBLEMS": 3808,
      "Ġkilom": 3809,
      "Ġspeech": 3810,
      "Ġmeaning": 3811,
      "Ġstructured": 3812,
      "Ġbreakdown": 3813,
      "Ġtakes": 3814,
      "Ġworld": 3815,
      "Ġgiven": 3816,
      "Ġvoice": 3817,
      "ĠDeep": 3818,
      "AMENTAL": 3819,
      "LANATIONS": 3820,
      "à¦ĭà¦£": 3821,
      "Ġpillars": 3822,
      "Ġfirst": 3823,
      "Ġfactual": 3824,
      "Ġconjugate": 3825,
      "ĠDerivatives": 3826,
      "Ġprobabilities": 3827,
      "Ġtravels": 3828,
      "ĠLimits": 3829,
      "Ġalgorithms": 3830,
      "Ġshopkee": 3831,
      "Ġargument": 3832,
      "Ġhelp": 3833,
      "Ġoptimizers": 3834,
      "Ġthoughtful": 3835,
      "Factoring": 3836,
      "ĠPROBLEMS": 3837,
      "ĠCylinder": 3838,
      "ĠEXPLANATIONS": 3839,
      "Ġembedding": 3840,
      "Ġemotions": 3841,
      "Ġcapturing": 3842,
      "ĠGradients": 3843,
      "Ġexplanations": 3844,
      "Ġefficiently": 3845,
      "Ġnormalization": 3846,
      "BRA": 3847,
      "Conversational": 3848,
      "EGRAL": 3849,
      "GENERAL": 3850,
      "IVATIVES": 3851,
      "Kindness": 3852,
      "MULAS": 3853,
      "Selling": 3854,
      "SURATION": 3855,
      "Therefore": 3856,
      "propagation": 3857,
      "Ġà¦¦à¦²à¦¬à¦¦": 3858,
      "ĠALGEBRA": 3859,
      "ĠBackpropagation": 3860,
      "ĠPythagorean": 3861,
      "Ġrigor": 3862,
      "ĠCodomain": 3863,
      "ĠSCIENTIFIC": 3864,
      "ĠDERIVATIVES": 3865,
      "ĠINTEGRAL": 3866,
      "ĠRectangle": 3867,
      "ĠFORMULAS": 3868,
      "ĠFUNDAMENTAL": 3869,
      "ĠMENSURATION": 3870,
      "ĠOPERATOR": 3871,
      "Ġparagraph": 3872,
      "ĠGLOSSARY": 3873,
      "ĠTransformers": 3874,
      "ĠPerpendicular": 3875,
      "ARITHMETIC": 3876,
      "CALCULUS": 3877,
      "GEOMETRY": 3878,
      "Ġkilometers": 3879,
      "Ġshopkeeper": 3880,
      "ĠINTEGRALS": 3881,
      "ĠOPERATORS": 3882,
      "'t": 3883,
      "+(-": 3884,
      ",âĪĴ": 3885,
      "/âĪĤ": 3886,
      "29": 3887,
      "2âģµ": 3888,
      "38": 3889,
      "3âģ´": 3890,
      "4Â³": 3891,
      "477": 3892,
      "52": 3893,
      "500": 3894,
      "698": 3895,
      "6237": 3896,
      "732": 3897,
      "845": 3898,
      "875": 3899,
      "897": 3900,
      "8104": 3901,
      "94": 3902,
      "Del": 3903,
      "ION": 3904,
      "Num": 3905,
      "Ome": 3906,
      "Pi": 3907,
      "Sigma": 3908,
      "Table": 3909,
      "],": 3910,
      "au": 3911,
      "aim": 3912,
      "aur": 3913,
      "atic": 3914,
      "bM": 3915,
      "be": 3916,
      "ban": 3917,
      "ball": 3918,
      "body": 3919,
      "can": 3920,
      "cast": 3921,
      "dd": 3922,
      "data": 3923,
      "ee": 3924,
      "eg": 3925,
      "ex": 3926,
      "factorial": 3927,
      "fier": 3928,
      "ges": 3929,
      "hi": 3930,
      "ham": 3931,
      "hib": 3932,
      "hop": 3933,
      "iel": 3934,
      "iple": 3935,
      "ker": 3936,
      "ked": 3937,
      "lies": 3938,
      "mes": 3939,
      "mend": 3940,
      "net": 3941,
      "ners": 3942,
      "node": 3943,
      "ox": 3944,
      "over": 3945,
      "pap": 3946,
      "python": 3947,
      "ration": 3948,
      "sing": 3949,
      "sqrt": 3950,
      "top": 3951,
      "ux": 3952,
      "uit": 3953,
      "uation": 3954,
      "uction": 3955,
      "uck": 3956,
      "vis": 3957,
      "vir": 3958,
      "wise": 3959,
      "xz": 3960,
      "yl": 3961,
      "}^": 3962,
      "}}à¥¤": 3963,
      "Ìħ": 3964,
      "âĨ": 3965,
      "ĠčĊ": 3966,
      "Ġà§Ł": 3967,
      "Ġill": 3968,
      "Ġtim": 3969,
      "Ġtit": 3970,
      "ĩĶ": 3971,
      "à¦Ķ": 3972,
      "Ġà¦Ļ": 3973,
      "à§ĩ-": 3974,
      "à¦¿)à¥¤": 3975,
      "à¦¨à¦ª": 3976,
      "à¦¨à¦¡": 3977,
      "à¦¤à¦¬à¦°": 3978,
      "à¦¯à¦ľà¦¨": 3979,
      "à¦¯à¦ľà¦¨à¦ķ": 3980,
      "à¦ķà¦ľà¦¨": 3981,
      "à¦¬à¦ĩ": 3982,
      "à¦¬à¦¬à¦°": 3983,
      "à¦¬à§Łà¦ķ": 3984,
      "à¦²à¦ľ": 3985,
      "Ġà¦ķà¦¨à¦¸": 3986,
      "Ġà¦ķà§Łà¦Ł": 3987,
      "à¦®à¦¶": 3988,
      "à¦®à¦ķà¦°à¦£": 3989,
      "à¦®à¦ªà¦ķ": 3990,
      "à¦Łà¦ª": 3991,
      "à¦Łà¦Ľ": 3992,
      "à§ģ)": 3993,
      "à¦ªà¦ľ": 3994,
      "à¦¶à¦°": 3995,
      "à¦¶à¦®": 3996,
      "à¦¶à¦ļ": 3997,
      "Ġà¦ªà¦¤": 3998,
      "Ġà¦ªà¦ª": 3999,
      "Ġà¦ªà¦¹": 4000,
      "Ġà¦ªà¦¤à¦¨": 4001,
      "à§ĭâĢĶ": 4002,
      "à¦¸à¦°à¦ķ": 4003,
      "à¦¸à¦¬à¦²": 4004,
      "à¦¸à¦¦à¦¸": 4005,
      "à¦¸à¦Ńà¦ķ": 4006,
      "à¦Ĺà¦«": 4007,
      "à¦Ĺà¦¬à¦¨": 4008,
      "à¦·à¦Ł": 4009,
      "à¦·à¦¦": 4010,
      "Ġà¦ħà¦¯": 4011,
      "Ġà¦®à¦°à¦¸": 4012,
      "Ġà¦Ĩà¦Ļ": 4013,
      "Ġà¦¹à¦°à¦ķ": 4014,
      "à¦ľà¦Ľ": 4015,
      "à¦īà¦¬": 4016,
      "à¦īà¦°à¦¨": 4017,
      "à¦Ńà¦²": 4018,
      "à§Łà¦ķà¦Ĺ": 4019,
      "Ġà¦ıà¦ķà¦ª": 4020,
      "Ġà¦ıà¦ķà¦ļ": 4021,
      "Ġà¦ıà¦ķà¦®à¦¤": 4022,
      "Ġà¦īà¦¹": 4023,
      "à¦¹à¦®": 4024,
      "Ġà§ľ": 4025,
      "Ġà§Ŀ": 4026,
      "Ġà¦ľà¦Ļ": 4027,
      "Ġà¦¸à¦®à¦¬": 4028,
      "Ġà¦¶à¦¸": 4029,
      "Ġà¦¶à¦Ļ": 4030,
      "Ġà¦Ńà¦¬à¦¨": 4031,
      "à¦¡à¦ķ": 4032,
      "Ġà¦Ĺà¦®": 4033,
      "à¦ĵà¦ķ": 4034,
      "Ġà¦²à¦¨": 4035,
      "Ġà¦ĵà¦®": 4036,
      "Ġà¦ĵà¦·": 4037,
      "ined": 4038,
      "ining": 4039,
      "ince": 4040,
      "Ġaud": 4041,
      "Ġà¦ľà¦¨à¦¤": 4042,
      "ero": 4043,
      "ert": 4044,
      "erry": 4045,
      "ont": 4046,
      "los": 4047,
      "lot": 4048,
      "Ġcal": 4049,
      "Ġcot": 4050,
      "Ġcour": 4051,
      "Ġcra": 4052,
      "Ġsen": 4053,
      "Ġsit": 4054,
      "Ġsum": 4055,
      "Ġsout": 4056,
      "Ġsyn": 4057,
      "Ġsorted": 4058,
      "Ġ225": 4059,
      "Ġ219": 4060,
      "ret": 4061,
      "rees": 4062,
      "Ġtour": 4063,
      "Ġtreat": 4064,
      "Ġpd": 4065,
      "Ġpan": 4066,
      "Ġple": 4067,
      "Ġpos": 4068,
      "Ġpower": 4069,
      "à¦«à¦Ĺ": 4070,
      "Ġà¦¬à¦²à¦¬": 4071,
      "Ġà¦¬à¦²à¦²": 4072,
      "Ġà¦¬à¦²à¦Ľ": 4073,
      "ĠâĬ": 4074,
      "Ġà¦ĩà¦¸": 4075,
      "Ġà¦ĩà¦Ļ": 4076,
      "Ġà¦ĩà¦īà¦Ł": 4077,
      "order": 4078,
      "ories": 4079,
      "ali": 4080,
      "Ġfre": 4081,
      "Ġfam": 4082,
      "Ġfore": 4083,
      "Ġfour": 4084,
      "Ġfail": 4085,
      "Ġflow": 4086,
      "Ġfound": 4087,
      "Ġflor": 4088,
      "Ġà¦īà¦ªà¦¹": 4089,
      "Ġec": 4090,
      "Ġep": 4091,
      "Ġeu": 4092,
      "Ġeas": 4093,
      "à§İà¦¸à¦®": 4094,
      "Ġblog": 4095,
      "Ġban": 4096,
      "Ġbed": 4097,
      "Ġbab": 4098,
      "Ġbet": 4099,
      "Ġbid": 4100,
      "Ġback": 4101,
      "Ġdou": 4102,
      "Ġdra": 4103,
      "Ġderiv": 4104,
      "Ġdoll": 4105,
      "Ġà§¨à§¨": 4106,
      "Ġà§¨à§§à§¦": 4107,
      "ĠAC": 4108,
      "arts": 4109,
      "arith": 4110,
      "aries": 4111,
      "Ġmer": 4112,
      "Ġmen": 4113,
      "Ġmor": 4114,
      "Ġmus": 4115,
      "Ġmot": 4116,
      "Ġmess": 4117,
      "Ġmag": 4118,
      "Ġmount": 4119,
      "à¦²à¦ķà¦¦": 4120,
      "à¦²à¦ķà¦Ń": 4121,
      "à¦·à¦£à¦Ĺ": 4122,
      "Ġ575": 4123,
      "Ġ51Â²": 4124,
      "lement": 4125,
      "Ġà§©à§¨": 4126,
      "à¦¼à¦¿,": 4127,
      "ica": 4128,
      "à¦Ĩà¦¬": 4129,
      "à¦¦à¦ķà¦ķ": 4130,
      "ould": 4131,
      "à¦ĺà¦Łà¦¨": 4132,
      "à¦¯à¦ķà¦°à¦ķà¦°à¦£": 4133,
      "Ġwin": 4134,
      "Ġwas": 4135,
      "Ġway": 4136,
      "Ġwall": 4137,
      "Ġwind": 4138,
      "à¦¦à¦®à¦Ł": 4139,
      "à¦¤à¦¬à¦¤": 4140,
      "Ġnation": 4141,
      "Ġnec": 4142,
      "102": 4143,
      "10âģ´": 4144,
      "ablish": 4145,
      "aces": 4146,
      "aster": 4147,
      "Ġrele": 4148,
      "Ġrepl": 4149,
      "Ġrefer": 4150,
      "Ġreached": 4151,
      "à¦īà¦Łà¦°": 4152,
      "100000": 4153,
      "Ġinform": 4154,
      "Ġinteger": 4155,
      "Ġlic": 4156,
      "25Â²": 4157,
      "à¦²à¦¨à¦Ĺ": 4158,
      "Ġà¦®à¦¨à¦¸": 4159,
      "Â°+": 4160,
      "à¦Ĺà¦¤à¦ķ": 4161,
      "Ġà¦¬à¦¨à¦Ĺ": 4162,
      "Ġhun": 4163,
      "Ġhot": 4164,
      "Ġhos": 4165,
      "Ġhash": 4166,
      "Ġhouse": 4167,
      "âĤģâĤĢ7": 4168,
      "âĤģâĤĢ9": 4169,
      "Ġà¦¸à¦¬à¦ĩ": 4170,
      "à¦ĩà¦Łà¦ķ": 4171,
      ")(âĪļ": 4172,
      "Ġà¦ªà¦¦à¦Ł": 4173,
      "Ġà¦ªà¦¦à¦Ĺ": 4174,
      "erset": 4175,
      "ĠBuzz": 4176,
      "Ġgre": 4177,
      "Ġgam": 4178,
      "Ġanim": 4179,
      "Ġyx": 4180,
      "Ġyou": 4181,
      "120": 4182,
      "imb": 4183,
      "ili": 4184,
      "ily": 4185,
      "Ġtheir": 4186,
      "Ġ95": 4187,
      "Ġ990": 4188,
      "ama": 4189,
      "Ġ70": 4190,
      "ote": 4191,
      "otos": 4192,
      "Ġvac": 4193,
      "Ġvers": 4194,
      "Ġvir": 4195,
      "Ġvow": 4196,
      "Ġview": 4197,
      "ĠCB": 4198,
      "ĠCD": 4199,
      "ĠCumulus": 4200,
      "161": 4201,
      "à¦ķà¦Łà¦ª": 4202,
      "Ġconven": 4203,
      "igonom": 4204,
      "à§§à§Ń": 4205,
      "Ġà¦«à¦²à¦¸": 4206,
      "à¦°à¦¥à¦®à¦¬": 4207,
      "ident": 4208,
      "idge": 4209,
      "Ġ10Â³": 4210,
      "ump": 4211,
      "tra": 4212,
      "Ġà¦ıà¦®à¦¨à¦Ń": 4213,
      "Ġthes": 4214,
      "à§¨à§¬": 4215,
      "âĤĤ16": 4216,
      "Ġà¦§à¦°à¦²": 4217,
      "ived": 4218,
      "Ġà¦īà¦łà¦¤": 4219,
      "ists": 4220,
      "ister": 4221,
      "ĠâĪĿ": 4222,
      "Ġexam": 4223,
      "Ġexact": 4224,
      "183": 4225,
      "1818": 4226,
      "odes": 4227,
      "à¦ħà¦ª": 4228,
      "Ġà¦ıà¦ķà¦ĩà¦Ń": 4229,
      "Ġà¦Ĩà¦¸à¦¨": 4230,
      "Ġà¦Ĩà¦¸à¦Ľ": 4231,
      "...}": 4232,
      "ateg": 4233,
      "tery": 4234,
      "Ġcomb": 4235,
      "ĠEmp": 4236,
      "Ġcho": 4237,
      "ession": 4238,
      "chars": 4239,
      "Ġjud": 4240,
      "Ġjew": 4241,
      "Ġkill": 4242,
      "Ġkey": 4243,
      "à¦¬à¦ķà¦¦": 4244,
      "Ġà§¬à§¦": 4245,
      "ĠNetw": 4246,
      "Ġà¦Ŀà¦°": 4247,
      "Ġà¦ıà¦Ĩà¦ĩà¦¯": 4248,
      "Ġà¦ħà¦ªà¦°à¦ķ": 4249,
      "Ġà¦ħà¦ªà¦ļà¦¯": 4250,
      "Ġstate": 4251,
      "Ġstand": 4252,
      "Ġrob": 4253,
      "à¦·à¦ķà¦ķ": 4254,
      "Ġà§Ńà§¦": 4255,
      "Ġà§Ńà§«": 4256,
      "enses": 4257,
      "Ġdem": 4258,
      "Ġdev": 4259,
      "Ġdemo": 4260,
      "à¦¶à¦²à¦Ł": 4261,
      "à¦¶à¦²à¦Ĺà¦¤": 4262,
      "Ġ150": 4263,
      "acters": 4264,
      "356": 4265,
      "Ġdispl": 4266,
      "234": 4267,
      "2349": 4268,
      "Ġà¦Ĩà¦ĩà¦¨à¦Ĺ": 4269,
      "aging": 4270,
      "Ġuses": 4271,
      "Ġarch": 4272,
      "duction": 4273,
      "Ġà¦°à¦Ļà¦Ĺ": 4274,
      "))^": 4275,
      "à¦¾à¦ĥ**": 4276,
      "Ġsear": 4277,
      "Ġplace": 4278,
      "orting": 4279,
      "ested": 4280,
      "Ġprep": 4281,
      "Ġsugg": 4282,
      "Ġsuccess": 4283,
      "Ġneed": 4284,
      "Ġnear": 4285,
      "Ġmeans": 4286,
      "ake": 4287,
      "ialog": 4288,
      "ĠâĪļ((-": 4289,
      "Ġà¦¬à¦¹à¦¨à¦¯": 4290,
      "Ġà¦Ĩà¦¤à¦Ļ": 4291,
      "Ġsubm": 4292,
      "Ġsubt": 4293,
      "Ġà¦ĺà¦¨à¦¬à¦¸": 4294,
      "Ġà¦ıà¦®à¦¬": 4295,
      "Ġenti": 4296,
      "ief": 4297,
      "à¦ķà¦¸à¦ĩà¦¤": 4298,
      "à¦¸à¦ķà¦·": 4299,
      "Ġwee": 4300,
      "à¦ıà¦¸à¦ª": 4301,
      "Ġbeh": 4302,
      "Ġbefore": 4303,
      "Ġbegin": 4304,
      "Ġà¦Ĩà¦ªà¦¡": 4305,
      "Ġappro": 4306,
      "Ġappear": 4307,
      "Ġapplic": 4308,
      "Ġcook": 4309,
      "ential": 4310,
      "à¦Ĺà¦ľà¦Ł": 4311,
      "Ġà§§à§®à§¦": 4312,
      "ANS": 4313,
      "Ġphys": 4314,
      "logâĤĲx": 4315,
      "alse": 4316,
      "Ġcontro": 4317,
      "Ġcharacters": 4318,
      "à§Łà¦ķà¦¦": 4319,
      "onstr": 4320,
      "Ġdescrib": 4321,
      "undred": 4322,
      "ĠComplement": 4323,
      "ually": 4324,
      "Ġsecond": 4325,
      "Ġrecom": 4326,
      "ogn": 4327,
      "ongs": 4328,
      "reek": 4329,
      "Ġmarket": 4330,
      "Ġà¦Ĩà¦ļà¦°à¦£à¦ķ": 4331,
      "efinite": 4332,
      "Ġà¦ľà¦¨à¦¸à¦®à¦ķ": 4333,
      "Ġwhile": 4334,
      "verse": 4335,
      "Ġtele": 4336,
      "Ġfri": 4337,
      "actions": 4338,
      "ĠExamples": 4339,
      "prices": 4340,
      "ĠTrigonom": 4341,
      "Ġsaid": 4342,
      "Ġmanu": 4343,
      "ĠUnion": 4344,
      "Ġà¦¨à¦®à¦¨à¦¯": 4345,
      "Ġcolum": 4346,
      "resh": 4347,
      "Ġrelations": 4348,
      "ĠEquival": 4349,
      "Ġà¦Ĩà¦ĩà¦ĵà¦Ł": 4350,
      "engali": 4351,
      "Ġelement": 4352,
      "ĠâĪħà¥¤": 4353,
      "Ġonly": 4354,
      "Ġcorre": 4355,
      "Ġcalculate": 4356,
      "Ġcontrib": 4357,
      "1101": 4358,
      "Ġsmall": 4359,
      "Ġsimple": 4360,
      "ĠPlane": 4361,
      "therwise": 4362,
      "à¦·à¦ªà¦¥": 4363,
      "Ġpublish": 4364,
      "Ġbasket": 4365,
      "Ġdeterm": 4366,
      "Ġmonth": 4367,
      "Ġgovern": 4368,
      "Ġadverti": 4369,
      "Ġletter": 4370,
      "Ġletters": 4371,
      "::::::::::::::::::::::::::::::::::::::::::::::::::::::::::::::::::::::::::::::::::::::::::::::::::::::::::::::::::::::::::::::::::::::::::::::::::::::::::::::::::::::::::::::::::::::::::::::::::::::::::::::::::::::::::::::::::::::::::::::::::::::::::::::::::::::::::::::::::::::::::::::::::::::::::::::::::::::::::::::::::::::::::::::::::::::::::::::::::::::::::::::::::::::::::::::::::::::::::::::::::::::::::::::::::::::::::::::::::::::::::::::::::::::::::::::::::::::::::::::::::::::::::::::::::::::::::::::::": 4372,
      "Ġcollect": 4373,
      "3478": 4374,
      "Rejected": 4375,
      "inked": 4376,
      "Ġreview": 4377,
      "Ġrequire": 4378,
      "Ġspeak": 4379,
      "Ġpresent": 4380,
      "Ġengine": 4381,
      "à¦ıà¦ıà¦ıà¦ıà¦ıà¦ıà¦ıà¦ıà¦ıà¦ıà¦ıà¦ıà¦ıà¦ıà¦ıà¦ıà¦ıà¦ıà¦ıà¦ıà¦ıà¦ıà¦ıà¦ıà¦ıà¦ıà¦ıà¦ıà¦ıà¦ıà¦ıà¦ıà¦ıà¦ıà¦ıà¦ıà¦ıà¦ıà¦ıà¦ıà¦ıà¦ıà¦ıà¦ıà¦ıà¦ıà¦ıà¦ıà¦ıà¦ıà¦ıà¦ıà¦ıà¦ıà¦ıà¦ıà¦ıà¦ıà¦ıà¦ıà¦ıà¦ıà¦ıà¦ıà¦ıà¦ıà¦ıà¦ıà¦ıà¦ıà¦ıà¦ıà¦ıà¦ıà¦ıà¦ıà¦ıà¦ıà¦ıà¦ıà¦ıà¦ıà¦ıà¦ıà¦ıà¦ıà¦ıà¦ıà¦ıà¦ıà¦ıà¦ıà¦ıà¦ıà¦ıà¦ıà¦ıà¦ıà¦ıà¦ıà¦ıà¦ıà¦ıà¦ıà¦ıà¦ıà¦ıà¦ıà¦ıà¦ıà¦ıà¦ıà¦ıà¦ıà¦ıà¦ıà¦ıà¦ıà¦ıà¦ıà¦ıà¦ıà¦ıà¦ıà¦ıà¦ıà¦ıà¦ı": 4382,
      "Ġhappy": 4383,
      "Ġà¦Ĩà§Łà¦¤": 4384,
      "Ġà¦Ĩà§Łà¦¤à¦ķ": 4385,
      "Ġpurch": 4386,
      "Ġknow": 4387,
      "Ġtypes": 4388,
      "Ġfollow": 4389,
      "Ġinstall": 4390,
      "Ġopposite": 4391,
      "Ġtopic": 4392,
      "graphy": 4393,
      "Ġimplementation": 4394,
      "Ġà§¨à§¦à§¨à§§": 4395,
      "=âĪħà¥¤": 4396,
      "ĠÏĨ": 4397,
      "Ġestablish": 4398,
      "ergy": 4399,
      "Ġtells": 4400,
      "Ġinclud": 4401,
      "Ġviol": 4402,
      "Ġarticle": 4403,
      "Ġlearning": 4404,
      "Ġparticip": 4405,
      "Ġà§§à§¯à§Ńà§§": 4406,
      "Ġestimate": 4407,
      "ology": 4408,
      "ĠArithmetic": 4409,
      ")={âĪħ,{": 4410,
      "ĠStratus": 4411,
      "Ġprogram": 4412,
      "ĠNumbers": 4413,
      "Ġadministr": 4414,
      "Ġpronoun": 4415,
      "Ġquantifier": 4416,
      "Ġperfect": 4417,
      "Ġauthor": 4418,
      "47712": 4419,
      "69897": 4420,
      "84510": 4421,
      "Delta": 4422,
      "Omega": 4423,
      "viron": 4424,
      "âĨĴ": 4425,
      "ĠhashTable": 4426,
      "ĠEmpty": 4427,
      "ĠTrigonomet": 4428,
      "!\"": 4429,
      "!)": 4430,
      "\")": 4431,
      "%)à¥¤": 4432,
      "(âĪļ": 4433,
      ")ÃĹ": 4434,
      "04": 4435,
      "025": 4436,
      "090": 4437,
      "198": 4438,
      "300": 4439,
      "312": 4440,
      "43": 4441,
      "435": 4442,
      "53": 4443,
      "575": 4444,
      "598": 4445,
      "517": 4446,
      "89": 4447,
      "8Â³": 4448,
      "831": 4449,
      "863": 4450,
      "922": 4451,
      "AC": 4452,
      "Al": 4453,
      "Bengali": 4454,
      "CB": 4455,
      "ED": 4456,
      "Gam": 4457,
      "Hy": 4458,
      "ID": 4459,
      "OC": 4460,
      "OM": 4461,
      "OV": 4462,
      "OUR": 4463,
      "QUE": 4464,
      "WER": 4465,
      "ai": 4466,
      "az": 4467,
      "alog": 4468,
      "augh": 4469,
      "bd": 4470,
      "back": 4471,
      "bability": 4472,
      "cel": 4473,
      "do": 4474,
      "ds": 4475,
      "den": 4476,
      "ean": 4477,
      "fy": 4478,
      "fact": 4479,
      "fort": 4480,
      "fied": 4481,
      "go": 4482,
      "ged": 4483,
      "gree": 4484,
      "gress": 4485,
      "ium": 4486,
      "iod": 4487,
      "ience": 4488,
      "jects": 4489,
      "ls": 4490,
      "lar": 4491,
      "ml": 4492,
      "ming": 4493,
      "max": 4494,
      "mbol": 4495,
      "na": 4496,
      "nis": 4497,
      "of": 4498,
      "oy": 4499,
      "oper": 4500,
      "overy": 4501,
      "oft": 4502,
      "ral": 4503,
      "su": 4504,
      "ser": 4505,
      "sch": 4506,
      "sorted": 4507,
      "uis": 4508,
      "uel": 4509,
      "uate": 4510,
      "uence": 4511,
      "view": 4512,
      "xi": 4513,
      "||": 4514,
      "Î²": 4515,
      "Ġ@": 4516,
      "ĠK": 4517,
      "ĠZ": 4518,
      "Ġà§Ĥ": 4519,
      "Ġ00": 4520,
      "Ġic": 4521,
      "Ġur": 4522,
      "Ġul": 4523,
      "Ġut": 4524,
      "Ġess": 4525,
      "Ġens": 4526,
      "Ġite": 4527,
      "Ġà¦¿": 4528,
      "à¦°à¦·": 4529,
      "à¦°à¦¤à¦°": 4530,
      "à§įâĢ": 4531,
      "à¦¿à¦ģ": 4532,
      "à¦¨à¦ĩ": 4533,
      "à¦¨à¦Ĺà¦¤": 4534,
      "à¦¨à¦ªà¦ķ": 4535,
      "à¦¤à¦ª": 4536,
      "à¦¯à¦¶": 4537,
      "à¦¯à¦¹": 4538,
      "à¦¯à¦Ĺà¦¤": 4539,
      "à¦¯à¦ĸà¦¨": 4540,
      "à¦ķà¦ª": 4541,
      "à¦ķà¦£": 4542,
      "à¦ķà¦ľ": 4543,
      "à¦ķà¦¸à¦¬": 4544,
      "à¦²à¦ª": 4545,
      "à¦²à¦ªà¦Ł": 4546,
      "à¦®à§Ł": 4547,
      "à¦®à¦ķà¦°": 4548,
      "à¦®à¦¸à¦®": 4549,
      "à¦®à¦®à¦°": 4550,
      "à¦®à§İà¦ķ": 4551,
      "Ġà¦¸à¦¯": 4552,
      "à¦Łà¦ķà¦Ĺ": 4553,
      "à¦Łà¦Ĩà¦ª": 4554,
      "à¦¼;": 4555,
      "à¦ªà¦ª": 4556,
      "à¦ªà¦¶": 4557,
      "Ġà¦¬à¦¦": 4558,
      "Ġà¦¬à¦ļà¦¨": 4559,
      "à¦¶à¦ª": 4560,
      "Ġà¦ıà¦¯": 4561,
      "Ġà¦ıà¦Ń": 4562,
      "à§ĭ\"": 4563,
      "à¦¦à¦£": 4564,
      "à¦¦à¦Ń": 4565,
      "à¦Ĺà¦ª": 4566,
      "à¦Ĺà¦°à¦£": 4567,
      "à¦Ĺà¦Ĺà¦¤": 4568,
      "à¦Ĺà¦¨à¦¸": 4569,
      "à¦£à¦°": 4570,
      "à¦£à¦Ń": 4571,
      "à¦·à¦ĩ": 4572,
      "à¦·à¦Ń": 4573,
      "Ġà¦ħà¦Ĺà¦£": 4574,
      "Ġà¦ħà¦ĭà¦£": 4575,
      "Ġà¦®à¦¦": 4576,
      "Ġà¦®à¦ŀ": 4577,
      "Ġà¦®à¦®à¦¤": 4578,
      "Ġà¦®à¦¶à¦²": 4579,
      "Ġà¦¤à§İà¦¸à¦®": 4580,
      "Ġà¦Ĩà¦·": 4581,
      "Ġà¦Ĩà¦¹": 4582,
      "Ġà¦Ĩà¦¡": 4583,
      "Ġà¦Ĩà¦«": 4584,
      "Ġà¦Ĩà¦ŀ": 4585,
      "Ġà¦Ĩà¦ĩà¦²": 4586,
      "Ġà¦Ĩà¦ĩà¦°": 4587,
      "Ġà¦¹à¦ľ": 4588,
      "Ġà¦¦à¦£": 4589,
      "Ġà¦¦à¦²à¦Ĺ": 4590,
      "Ġà¦¨à¦¨": 4591,
      "Ġà¦¨à¦°à¦ķ": 4592,
      "Ġà¦¨à¦Ĺà¦°": 4593,
      "à¦ľà¦¹": 4594,
      "à¦ľà¦²à¦¬": 4595,
      "à¦īà¦ļ": 4596,
      "à¦īà¦ªà¦¸": 4597,
      "à¦īà§İà¦ª": 4598,
      "à¦ĩà§Ł": 4599,
      "à¦ĩà¦«": 4600,
      "à¦ĩà¦Ĩà¦°": 4601,
      "à¦ĸà¦Ĺ": 4602,
      "à¦Ńà¦ľà¦¨à¦ķ": 4603,
      "à¦¥à¦°": 4604,
      "à¦¥à¦ªà¦¤": 4605,
      "Ġà¦ľà¦Ĺà¦¤": 4606,
      "Ġxz": 4607,
      "à¦ļà¦¸": 4608,
      "à¦ļà¦Ń": 4609,
      "à¦ļà§Ł": 4610,
      "à¦Ľà¦¤": 4611,
      "à¦¼à¦¾à¦ĥ": 4612,
      "Ġà¦Ńà¦²": 4613,
      "Ġà¦Ńà¦Ļ": 4614,
      "Ġà¦°à¦«": 4615,
      "à¦¼à§ĩ?": 4616,
      "à¦ıà¦Ĺ": 4617,
      "à¦ıà¦«": 4618,
      "à¦¡à¦°": 4619,
      "à¦¡à¦¬": 4620,
      "âĪ¥": 4621,
      "âĪĥ": 4622,
      "âĪĳ": 4623,
      "à¦ĵà¦¸": 4624,
      "à¦ĵà¦Ĺ": 4625,
      "Ġ(,": 4626,
      "Ġ(?": 4627,
      "Ġà¦²à¦ľ": 4628,
      "Ġà¦ĵà¦ķ": 4629,
      "Ġà¦ĵà¦ĩ": 4630,
      "Ġà¦ļà¦¨": 4631,
      "Ġà¦ļà¦®à§İà¦ķ": 4632,
      "iness": 4633,
      "inking": 4634,
      "Ġath": 4635,
      "Ġach": 4636,
      "Ġaward": 4637,
      "Ġaustr": 4638,
      "ering": 4639,
      "Ġ-----": 4640,
      "tial": 4641,
      "tice": 4642,
      "Ġ144": 4643,
      "Ġà¦«à¦°à¦®": 4644,
      "Ġà¦«à¦°à¦ľ": 4645,
      "Ġà¦«à¦¸à¦²": 4646,
      "load": 4647,
      "Ġce": 4648,
      "Ġcy": 4649,
      "Ġcas": 4650,
      "Ġcut": 4651,
      "Ġcand": 4652,
      "Ġcell": 4653,
      "Ġcop": 4654,
      "Ġcart": 4655,
      "Ġcult": 4656,
      "Ġcred": 4657,
      "Ġcirc": 4658,
      "Ġcaus": 4659,
      "Ġsal": 4660,
      "Ġsat": 4661,
      "Ġsle": 4662,
      "Ġsil": 4663,
      "Ġsch": 4664,
      "Ġsort": 4665,
      "Ġsoc": 4666,
      "Ġsav": 4667,
      "Ġsquare": 4668,
      "Ġsched": 4669,
      "ened": 4670,
      "eness": 4671,
      "Ġ260": 4672,
      "Ġ2345": 4673,
      "Ġà¦Ľà¦¨": 4674,
      "Ġà¦Ľà¦¤": 4675,
      "read": 4676,
      "Ġten": 4677,
      "Ġtot": 4678,
      "Ġtag": 4679,
      "Ġtable": 4680,
      "à¦¿à¥¤\"": 4681,
      "ĠpH": 4682,
      "Ġpa": 4683,
      "Ġpi": 4684,
      "Ġps": 4685,
      "Ġpen": 4686,
      "Ġpor": 4687,
      "Ġpal": 4688,
      "Ġput": 4689,
      "Ġpap": 4690,
      "à¦«à¦Ł": 4691,
      "Ġà¦¬à¦²à¦ķ": 4692,
      "Ġà¦¬à¦²à¦Ł": 4693,
      "Ġâģ": 4694,
      "Ġà¦ĩà¦ī": 4695,
      "any": 4696,
      "anch": 4697,
      "ality": 4698,
      "ester": 4699,
      "Ġfed": 4700,
      "Ġfun": 4701,
      "Ġfig": 4702,
      "Ġfall": 4703,
      "Ġfire": 4704,
      "Ġfarm": 4705,
      "Ġfalse": 4706,
      "Ġà¦ĸà¦¬à¦°": 4707,
      "Ġà¦ĸà¦¨à¦¨": 4708,
      "isl": 4709,
      "ison": 4710,
      "ising": 4711,
      "isBST": 4712,
      "à¦¾à¥¤\"": 4713,
      "à¦ĩà¦¨à¦¯": 4714,
      "à¦ĩà¦¨à¦¸": 4715,
      "Ġà¦¡à¦ľà¦¨": 4716,
      "Ġ300": 4717,
      "Ġ3âģ´": 4718,
      "Ġà¦īà¦ªà¦®": 4719,
      "Ġeduc": 4720,
      "Ġber": 4721,
      "Ġblo": 4722,
      "Ġbat": 4723,
      "Ġbul": 4724,
      "Ġbir": 4725,
      "Ġbill": 4726,
      "Ġdre": 4727,
      "Ġdim": 4728,
      "Ġdig": 4729,
      "Ġdest": 4730,
      "Ġà¦ħà¦¬à¦¤à¦²": 4731,
      "edia": 4732,
      "ĠAt": 4733,
      "arate": 4734,
      "atory": 4735,
      "Ġmc": 4736,
      "Ġms": 4737,
      "Ġmx": 4738,
      "Ġmic": 4739,
      "Ġmom": 4740,
      "Ġmun": 4741,
      "Ġmid": 4742,
      "Ġmay": 4743,
      "Ġmore": 4744,
      "Ġmill": 4745,
      "Ġmys": 4746,
      "Ġmouse": 4747,
      "Ġà¦Łà¦¯": 4748,
      "à¦·à¦£à¦®": 4749,
      "Ġ5Â³": 4750,
      "Ġ5âģ°": 4751,
      "à¦¿à¦Ĥà¥¤": 4752,
      "Ġà§©à§ª": 4753,
      "ither": 4754,
      "itors": 4755,
      "Ġ43": 4756,
      "Ġ40000": 4757,
      "ications": 4758,
      "à¦ļà¦ķà¦Ń": 4759,
      "à¦¦à¦ķà¦Ĺ": 4760,
      "Ġà¦ķà¦®à¦ªà¦ķ": 4761,
      "ouble": 4762,
      "à¦¯à¦ķà¦²": 4763,
      "Ġà¦ĩà¦¨à¦«": 4764,
      "ently": 4765,
      "Ġwa": 4766,
      "Ġwon": 4767,
      "Ġwed": 4768,
      "Ġwar": 4769,
      "Ġwhe": 4770,
      "Ġwom": 4771,
      "Ġwood": 4772,
      "Ġworks": 4773,
      "Ġwould": 4774,
      "à¦¦à¦®à¦¯": 4775,
      "Ġà¦²à¦Ĺà¦ĩà¦¨": 4776,
      "à¦¤à¦¬à¦¯": 4777,
      "à¦¤à¦¬à¦Ń": 4778,
      "à¦¤à¦¬à¦¸à¦®": 4779,
      "Ġnet": 4780,
      "Ġnav": 4781,
      "Ġnull": 4782,
      "Ġnames": 4783,
      "Ġnodes": 4784,
      "à¦ķà¦²à¦®": 4785,
      "à¦ķà¦²à¦Ĺ": 4786,
      "à¦«à¦²à¦Ł": 4787,
      "101": 4788,
      "ache": 4789,
      "acts": 4790,
      "acter": 4791,
      "asing": 4792,
      "astic": 4793,
      "Ġred": 4794,
      "Ġremo": 4795,
      "Ġinj": 4796,
      "Ġinn": 4797,
      "Ġintegr": 4798,
      "Ġlen": 4799,
      "Ġles": 4800,
      "Ġline": 4801,
      "Ġlight": 4802,
      "Ġlcm": 4803,
      "Ġliter": 4804,
      "eturn": 4805,
      "omes": 4806,
      "ello": 4807,
      "eling": 4808,
      "Ġà¦¬à¦¨à¦ľ": 4809,
      "Ġho": 4810,
      "Ġhon": 4811,
      "Ġhar": 4812,
      "Ġhow": 4813,
      "Ġhard": 4814,
      "Ġhop": 4815,
      "Ġhost": 4816,
      "Ġhere": 4817,
      "...,": 4818,
      "âĤģâĤĢ40": 4819,
      "une": 4820,
      "unk": 4821,
      "unch": 4822,
      "unique": 4823,
      "Ġok": 4824,
      "Ġover": 4825,
      "usion": 4826,
      "Ġà¦ªà¦¦à¦ļ": 4827,
      "ersection": 4828,
      "Ġge": 4829,
      "Ġgard": 4830,
      "Ġgreat": 4831,
      "Ġang": 4832,
      "Ġanti": 4833,
      "Ġanswer": 4834,
      "Ġyz": 4835,
      "Ġà¦¸à¦¹à¦ľà¦¤à¦°": 4836,
      "ĠPar": 4837,
      "Ġring": 4838,
      "Ġrap": 4839,
      "Ġrich": 4840,
      "Ġruss": 4841,
      "ils": 4842,
      "ilon": 4843,
      "ille": 4844,
      "Ġthey": 4845,
      "ceed": 4846,
      "cement": 4847,
      "amed": 4848,
      "amps": 4849,
      "ameters": 4850,
      "à¦ĩà¦²à¦¶": 4851,
      "à¦°à¦¹à¦Ĺ": 4852,
      "ota": 4853,
      "ott": 4854,
      "Ġà¦¶à¦°à§İ": 4855,
      "Ġ600": 4856,
      "Ġvot": 4857,
      "ols": 4858,
      "olute": 4859,
      "ĠCir": 4860,
      "ĠCOV": 4861,
      "162": 4862,
      "1666": 4863,
      "Ġà¦Ĩà¦²à¦«": 4864,
      "Ġconver": 4865,
      "Ġconcl": 4866,
      "Ġcondition": 4867,
      "ules": 4868,
      "ulation": 4869,
      "à¦Ĩà¦®à¦°": 4870,
      "idence": 4871,
      "à¦¦à¦¨à¦Ĺ": 4872,
      "Ġ103": 4873,
      "ums": 4874,
      "uments": 4875,
      "tric": 4876,
      "tract": 4877,
      "à¦¦à¦¸à¦¹": 4878,
      "Ġtown": 4879,
      "à¦¼à§ģ,": 4880,
      "Ġthen": 4881,
      "206": 4882,
      "à§¨à§¦": 4883,
      "à§¨à§«": 4884,
      "âĤĤ2": 4885,
      "âĤĤ9": 4886,
      "iving": 4887,
      "ivate": 4888,
      "utor": 4889,
      "utes": 4890,
      "ĠDB": 4891,
      "ĠDel": 4892,
      "ĠDialog": 4893,
      "Ġà¦īà¦łà¦²": 4894,
      "Ġprom": 4895,
      "Ġpromo": 4896,
      "Ġpropos": 4897,
      "ĠâĪ©": 4898,
      "ĠâĪª": 4899,
      "ĠâĪĳ": 4900,
      "^(âĪĴ": 4901,
      "Ġà§ªà§«": 4902,
      "ĠTh": 4903,
      "à¦ħà¦ªà¦°": 4904,
      "Ġà¦Ĺà¦£à¦ªà¦°": 4905,
      "ained": 4906,
      "ĠIm": 4907,
      "à¦¯à¦Łà¦¨": 4908,
      "ĠReturn": 4909,
      "à§ĩâĢĶ\"": 4910,
      "à¦ıà¦ķà¦¦": 4911,
      "à¦ıà¦ķà¦ľà¦¨": 4912,
      "Ġoffer": 4913,
      "pper": 4914,
      "pping": 4915,
      "lying": 4916,
      "vement": 4917,
      "27Â²": 4918,
      "Ġ128": 4919,
      "Ġcompl": 4920,
      "Ġà¦¬à¦Ľà¦°à¦Ĺ": 4921,
      "Ġtrail": 4922,
      "ublic": 4923,
      "ĠLine": 4924,
      "ĠLAN": 4925,
      "ĠLCM": 4926,
      "Ġchair": 4927,
      "Ġchang": 4928,
      "Ġchild": 4929,
      "âĤĥ5": 4930,
      "ching": 4931,
      "child": 4932,
      "Ġju": 4933,
      "Ġjour": 4934,
      "à¦°à¦¹à¦£à¦ķ": 4935,
      "Ġken": 4936,
      "Ġà§¬à§ª": 4937,
      "140": 4938,
      "150": 4939,
      "à§®à§¦": 4940,
      "à¦¹à¦°à¦£à¦Ĺ": 4941,
      "ĠNO": 4942,
      "ĠNext": 4943,
      "à§©à§¬": 4944,
      "à§©à§¯": 4945,
      "Ġà¦Ŀà¦²à¦®": 4946,
      "ift": 4947,
      "ify": 4948,
      "Ġà¦ļà¦²à¦®": 4949,
      "Ġstre": 4950,
      "Ġstore": 4951,
      "Ġstock": 4952,
      "Ġroman": 4953,
      "à¦¼à§Ģ,": 4954,
      "ounts": 4955,
      "243": 4956,
      "ĠWAN": 4957,
      "Ġaltern": 4958,
      "ensive": 4959,
      "Ġdepend": 4960,
      "Ġabs": 4961,
      "Ġabout": 4962,
      "990": 4963,
      "à§ªà§¦": 4964,
      "à§ªà§®": 4965,
      "Ġspr": 4966,
      "Ġspons": 4967,
      "Ġ1001": 4968,
      "Ġ10000": 4969,
      "Ġ1001Â²": 4970,
      "Ġdistrib": 4971,
      "813": 4972,
      "pervis": 4973,
      "305": 4974,
      "50Â²": 4975,
      "60206": 4976,
      "Ġshare": 4977,
      "aged": 4978,
      "Ġusage": 4979,
      "duce": 4980,
      "ĠOtherwise": 4981,
      "Ġadop": 4982,
      "Ġaddition": 4983,
      "ends": 4984,
      "Ġprac": 4985,
      "Ġprices": 4986,
      "Ġprior": 4987,
      "Ġprinc": 4988,
      "Ġload": 4989,
      "Ġloop": 4990,
      "Ġleft": 4991,
      "Ġactiv": 4992,
      "Ġactive": 4993,
      "Ġaccept": 4994,
      "ector": 4995,
      "ĠInd": 4996,
      "Ġunivers": 4997,
      "Ġseem": 4998,
      "Ġselect": 4999,
      "ource": 5000,
      "Ġà§§à§¯à§§à§©": 5001,
      "Ġà§§à§¯à§¨à§¯": 5002,
      "âĤħ5": 5003,
      "âĤħ125": 5004,
      "Ġplat": 5005,
      "Ġplus": 5006,
      "Ġà¦ľà¦²à¦ª": 5007,
      "atio": 5008,
      "Ġprefer": 5009,
      "Ġprepos": 5010,
      "ĠÏĢr": 5011,
      "Ġà§¯à§¦": 5012,
      "Ġà§¯à§ª": 5013,
      "itions": 5014,
      "Ġ##": 5015,
      "Ġsup": 5016,
      "Ġsuch": 5017,
      "Ġresult": 5018,
      "Ġmeet": 5019,
      "Ġà¦ıà¦¨à¦ıà¦¡": 5020,
      "Ġà¦ıà¦²à¦ľ": 5021,
      "Ġà¦ıà¦²à¦ĩà¦¡": 5022,
      "Ġà¦¬à¦¹à¦¨à¦ķ": 5023,
      "Ġstrong": 5024,
      "Ġstrateg": 5025,
      "Ġhealth": 5026,
      "à¦Łà¦ķà¦¯": 5027,
      "Ġà¦ıà¦¤à¦Ł": 5028,
      "Ġsubst": 5029,
      "Ġimp": 5030,
      "Ġimport": 5031,
      "Ġà¦ıà¦®à¦Ń": 5032,
      "ically": 5033,
      "ousands": 5034,
      "Ġenviron": 5035,
      "à¦¡à¦²à¦¸": 5036,
      "Ġweb": 5037,
      "ĠTheory": 5038,
      "ĠHow": 5039,
      "ĠHello": 5040,
      "Ġ{#": 5041,
      "Ġ{}": 5042,
      "Ġatl": 5043,
      "Ġattr": 5044,
      "Ġclaim": 5045,
      "Ġboot": 5046,
      "Ġscre": 5047,
      "Ġappe": 5048,
      "Ġappl": 5049,
      "Ġcover": 5050,
      "Ġcolor": 5051,
      "Ġcooper": 5052,
      "Â¹Â²": 5053,
      "ĠVectors": 5054,
      "time": 5055,
      "Ġconstr": 5056,
      "909": 5057,
      "logâĤĲM": 5058,
      "logâĤĲy": 5059,
      "Ġwithin": 5060,
      "Ġwithout": 5061,
      "issions": 5062,
      "Ġcharacter": 5063,
      "earch": 5064,
      "Ġdesk": 5065,
      "Ġà§¨à§¦à§§à§¯": 5066,
      "ostrop": 5067,
      "tically": 5068,
      "Ġcomma": 5069,
      "Ġrecip": 5070,
      "Ġrecogn": 5071,
      "Ġindian": 5072,
      "Ġindustr": 5073,
      "Ġindex": 5074,
      "Ġà§¨à§¦à§¦à§¦": 5075,
      "Ġmark": 5076,
      "Ġmarks": 5077,
      "Ġinstitution": 5078,
      "Ġexists": 5079,
      "ĠOrigin": 5080,
      "pha": 5081,
      "à¦ıà¦²à¦ª": 5082,
      "Ġbuil": 5083,
      "Ġbuild": 5084,
      "Ġreports": 5085,
      "à¦ĩà¦ªà¦²": 5086,
      "Ġnote": 5087,
      "Ġlists": 5088,
      "Ġ189": 5089,
      "Ġteach": 5090,
      "olden": 5091,
      "673": 5092,
      "print": 5093,
      "pson": 5094,
      "psilon": 5095,
      "|=|": 5096,
      "Ġchem": 5097,
      "duced": 5098,
      "Ġasp": 5099,
      "ression": 5100,
      "0000673": 5101,
      "Ġperiod": 5102,
      "Ġmany": 5103,
      "Ġ6400": 5104,
      "Ġtransform": 5105,
      "clam": 5106,
      "Ġamer": 5107,
      "Ġcanad": 5108,
      "Ġfeat": 5109,
      "Ġbrow": 5110,
      "Ġregard": 5111,
      "Ġgraph": 5112,
      "ĠSubset": 5113,
      "vention": 5114,
      "Ġagree": 5115,
      "Ġoperator": 5116,
      "4800": 5117,
      "Ġà¦·à¦¡": 5118,
      "Ġcalls": 5119,
      "Ġhave": 5120,
      "Ġgene": 5121,
      "Ġgrow": 5122,
      "Ġsuppl": 5123,
      "STION": 5124,
      "Ġà¦Ĩà¦ĩà¦ĵà¦¯": 5125,
      "Ġà¦Ĩà¦ĩà¦ıà¦¸à¦ª": 5126,
      "Ġaxis": 5127,
      "Ġdiffic": 5128,
      "Ġdiffer": 5129,
      "Ġobtain": 5130,
      "à§ĭ?\",": 5131,
      "Ġà¦ĵà¦¹à¦®": 5132,
      "Ġclean": 5133,
      "âĤĦ64": 5134,
      "Ġwrite": 5135,
      "Ġwriting": 5136,
      "Ġinvol": 5137,
      "ĠIntersection": 5138,
      "_{}": 5139,
      "comm": 5140,
      "Ġcorpor": 5141,
      "Ġconcern": 5142,
      "Ġjohn": 5143,
      "Ġfinal": 5144,
      "Ġmeasure": 5145,
      "Ġupdate": 5146,
      "iously": 5147,
      "à¤ķ": 5148,
      "Ġà¦Īà¦¶": 5149,
      "Ġcountr": 5150,
      "Ġswit": 5151,
      "Ġeval": 5152,
      "Ġdetail": 5153,
      "Ġmaintain": 5154,
      "Ġmultiple": 5155,
      "ĠGraph": 5156,
      "ynam": 5157,
      "ĠÂ·": 5158,
      "Ġitself": 5159,
      "Ġapart": 5160,
      "Ġapostrop": 5161,
      "Ġsurve": 5162,
      "Ġsomeone": 5163,
      "Ġdeliver": 5164,
      "Ġconfig": 5165,
      "Ġconfir": 5166,
      "Ġexperim": 5167,
      "Ġmeanings": 5168,
      "THE": 5169,
      "ĠYOUR": 5170,
      "Ġà¦¨à¦¬à¦¬à¦°": 5171,
      "Ġaffili": 5172,
      "istry": 5173,
      "Ġbelie": 5174,
      "Ġverb": 5175,
      "Ġvariable": 5176,
      "idential": 5177,
      "Ġshows": 5178,
      "Ġlegisl": 5179,
      "Ġpartners": 5180,
      "cription": 5181,
      "à¦ıà¦®à¦ıà¦®à¦ıà¦®à¦ıà¦®à¦ıà¦®à¦ıà¦®à¦ıà¦®à¦ıà¦®à¦ıà¦®à¦ıà¦®à¦ıà¦®à¦ıà¦®à¦ıà¦®à¦ıà¦®à¦ıà¦®à¦ıà¦®à¦ıà¦®à¦ıà¦®à¦ıà¦®à¦ıà¦®à¦ıà¦®à¦ıà¦®à¦ıà¦®à¦ıà¦®à¦ıà¦®à¦ıà¦®à¦ıà¦®à¦ıà¦®à¦ıà¦®à¦ıà¦®à¦ıà¦®à¦ıà¦®à¦ıà¦®à¦ıà¦®à¦ıà¦®à¦ıà¦®à¦ıà¦®à¦ıà¦®à¦ıà¦®à¦ıà¦®à¦ıà¦®à¦ıà¦®à¦ıà¦®à¦ıà¦®à¦ıà¦®à¦ıà¦®à¦ıà¦®à¦ıà¦®à¦ıà¦®à¦ıà¦®à¦ıà¦®à¦ıà¦®à¦ıà¦®à¦ıà¦®à¦ıà¦®à¦ıà¦®à¦ıà¦®à¦ıà¦®à¦ıà¦®à¦ıà¦®à¦ıà¦®à¦ıà¦®à¦ıà¦®à¦ıà¦®à¦ıà¦®à¦ıà¦®à¦ıà¦®à¦ıà¦®à¦ıà¦®à¦ıà¦®à¦ıà¦®à¦ıà¦®à¦ıà¦®à¦ıà¦®à¦ıà¦®à¦ıà¦®à¦ıà¦®à¦ıà¦®à¦ıà¦®à¦ıà¦®à¦ıà¦®à¦ıà¦®à¦ıà¦®à¦ıà¦®à¦ıà¦®à¦ıà¦®à¦ıà¦®à¦ıà¦®à¦ıà¦®à¦ıà¦®à¦ıà¦®à¦ıà¦®à¦ıà¦®à¦ıà¦®à¦ıà¦®à¦ıà¦®à¦ıà¦®à¦ıà¦®à¦ıà¦®à¦ıà¦®à¦ıà¦®à¦ıà¦®à¦ıà¦®à¦ıà¦®à¦ıà¦®à¦ıà¦®à¦ıà¦®à¦ıà¦®à¦ıà¦®à¦ıà¦®à¦ıà¦®à¦ıà¦®à¦ıà¦®à¦ıà¦®à¦ıà¦®à¦ıà¦®à¦ıà¦®à¦ıà¦®à¦ıà¦®à¦ıà¦®à¦ıà¦®à¦ıà¦®à¦ıà¦®à¦ıà¦®à¦ıà¦®à¦ıà¦®à¦ıà¦®à¦ıà¦®à¦ıà¦®à¦ıà¦®à¦ıà¦®à¦ıà¦®à¦ıà¦®à¦ıà¦®à¦ıà¦®à¦ıà¦®à¦ıà¦®à¦ıà¦®à¦ıà¦®à¦ıà¦®à¦ıà¦®à¦ıà¦®à¦ıà¦®à¦ıà¦®à¦ıà¦®à¦ıà¦®à¦ıà¦®à¦ıà¦®à¦ıà¦®à¦ıà¦®à¦ıà¦®à¦ıà¦®à¦ıà¦®à¦ıà¦®à¦ıà¦®à¦ıà¦®à¦ıà¦®à¦ıà¦®à¦ıà¦®à¦ıà¦®à¦ıà¦®à¦ıà¦®à¦ıà¦®à¦ıà¦®à¦ıà¦®à¦ıà¦®à¦ıà¦®à¦ıà¦®à¦ıà¦®à¦ıà¦®à¦ıà¦®à¦ıà¦®à¦ıà¦®à¦ıà¦®à¦ıà¦®à¦ıà¦®à¦ıà¦®à¦ıà¦®à¦ıà¦®à¦ıà¦®à¦ıà¦®à¦ıà¦®à¦ıà¦®à¦ıà¦®à¦ıà¦®à¦ıà¦®à¦ıà¦®à¦ıà¦®à¦ıà¦®à¦ıà¦®à¦ıà¦®à¦ıà¦®à¦ıà¦®à¦ıà¦®à¦ıà¦®à¦ıà¦®à¦ıà¦®à¦ıà¦®à¦ıà¦®à¦ıà¦®à¦ıà¦®à¦ıà¦®à¦ıà¦®à¦ıà¦®à¦ıà¦®à¦ıà¦®à¦ıà¦®à¦ıà¦®à¦ıà¦®à¦ıà¦®à¦ıà¦®à¦ıà¦®à¦ıà¦®à¦ıà¦®à¦ıà¦®à¦ıà¦®à¦ıà¦®à¦ıà¦®à¦ıà¦®à¦ıà¦®à¦ıà¦®à¦ıà¦®à¦ıà¦®à¦ıà¦®à¦ıà¦®à¦ıà¦®à¦ıà¦®à¦ıà¦®à¦ıà¦®à¦ıà¦®à¦ıà¦®à¦ıà¦®à¦ıà¦®à¦ıà¦®à¦ıà¦®à¦ıà¦®à¦ıà¦®à¦ıà¦®à¦ıà¦®à¦ıà¦®à¦ıà¦®à¦ıà¦®à¦ıà¦®à¦ıà¦®à¦ıà¦®à¦ıà¦®à¦ıà¦®à¦ıà¦®à¦ıà¦®à¦ıà¦®à¦ıà¦®à¦ıà¦®à¦ıà¦®à¦ıà¦®à¦ıà¦®à¦ıà¦®": 5182,
      "Ġbecause": 5183,
      "Ġsubscrib": 5184,
      "Ġà§¨à§¦à§¨à§¨": 5185,
      "Ġgrouping": 5186,
      "________________________________________________________________________________________________________________________________": 5187,
      "4623": 5188,
      "medi": 5189,
      "intercept": 5190,
      "ervation": 5191,
      "Ġ1983": 5192,
      "Ġcertific": 5193,
      "Ġterror": 5194,
      "Ġpossible": 5195,
      "ĠAlt": 5196,
      "Ġruns": 5197,
      "Ġvolun": 5198,
      "454545": 5199,
      "Ġchrist": 5200,
      "Ġaddress": 5201,
      "Ġdictionary": 5202,
      "Ġdictionaries": 5203,
      "Ġidea": 5204,
      "Ġsymbol": 5205,
      "Ġfavor": 5206,
      "Ġdocument": 5207,
      "Ġoriginal": 5208,
      "Ġdebt": 5209,
      "Ġdepart": 5210,
      "Ġadjust": 5211,
      "Ġseparate": 5212,
      "Ġà§§à§¯à§¦à§©": 5213,
      "Ġcontinuous": 5214,
      "canus": 5215,
      "Ġsumm": 5216,
      "Ġfrequ": 5217,
      "Ġeconom": 5218,
      "Ġmerch": 5219,
      "Ġmotor": 5220,
      "Ġhosp": 5221,
      "Ġvowels": 5222,
      "ĠNetwork": 5223,
      "Ġdemocr": 5224,
      "Ġdisplay": 5225,
      "Ġweek": 5226,
      "ANSWER": 5227,
      "undreds": 5228,
      "Ġrecommend": 5229,
      "Ġmanufact": 5230,
      "Ġrelationship": 5231,
      "ĠEquivalent": 5232,
      "ĠTrigonometric": 5233,
      "090909": 5234,
      "1986": 5235,
      "Hyper": 5236,
      "QUESTION": 5237,
      "à§įâĢĮ": 5238,
      "à¦ķà¦¸à¦¬à¦ľ": 5239,
      "Ġà¦¬à¦¦à¦²": 5240,
      "Ġà¦°à¦«à¦¤": 5241,
      "Ġachie": 5242,
      "Ġ2345Â²": 5243,
      "esterday": 5244,
      "ĠCOVID": 5245,
      "Ġà¦Ŀà¦²à¦®à¦²": 5246,
      "Ġpreposition": 5247,
      "Ġapostrophe": 5248,
      "\"\"": 5249,
      "%,": 5250,
      "')": 5251,
      "((": 5252,
      ")'": 5253,
      ");": 5254,
      ")âĪļ": 5255,
      "))=": 5256,
      ")^(": 5257,
      ")|=": 5258,
      ")âīĪ": 5259,
      ",?": 5260,
      ",...}": 5261,
      "/à§į": 5262,
      "09": 5263,
      "010": 5264,
      "018": 5265,
      "045": 5266,
      "060": 5267,
      "0225": 5268,
      "04623": 5269,
      "1Â³": 5270,
      "245": 5271,
      "2000": 5272,
      "39": 5273,
      "3âģ¶": 5274,
      "425": 5275,
      "437": 5276,
      "467": 5277,
      "40000": 5278,
      "4234": 5279,
      "4305": 5280,
      "57": 5281,
      "5âģµ": 5282,
      "5333": 5283,
      "570": 5284,
      "567": 5285,
      "523457": 5286,
      "600": 5287,
      "618": 5288,
      "636": 5289,
      "71": 5290,
      "74": 5291,
      "780": 5292,
      "72727": 5293,
      "83": 5294,
      "800": 5295,
      "866": 5296,
      "92": 5297,
      "93": 5298,
      "95": 5299,
      "96": 5300,
      "923": 5301,
      "965": 5302,
      "=)": 5303,
      "AOB": 5304,
      "AOC": 5305,
      "Bet": 5306,
      "But": 5307,
      "BILINGUAL": 5308,
      "CT": 5309,
      "Cur": 5310,
      "Calcul": 5311,
      "COB": 5312,
      "Diver": 5313,
      "EL": 5314,
      "Ele": 5315,
      "Equ": 5316,
      "Epsilon": 5317,
      "Gr": 5318,
      "Greek": 5319,
      "Golden": 5320,
      "HO": 5321,
      "HS": 5322,
      "He": 5323,
      "Jo": 5324,
      "Lam": 5325,
      "Log": 5326,
      "LCM": 5327,
      "Linked": 5328,
      "LED": 5329,
      "MI": 5330,
      "Mu": 5331,
      "NA": 5332,
      "Norm": 5333,
      "Node": 5334,
      "Natural": 5335,
      "PI": 5336,
      "Pl": 5337,
      "Px": 5338,
      "Phi": 5339,
      "Sc": 5340,
      "Set": 5341,
      "Stand": 5342,
      "UN": 5343,
      "VAL": 5344,
      "Vari": 5345,
      "WAN": 5346,
      "WHO": 5347,
      "]/": 5348,
      "]]": 5349,
      "`à¥¤": 5350,
      "aw": 5351,
      "ault": 5352,
      "bn": 5353,
      "bx": 5354,
      "bor": 5355,
      "bar": 5356,
      "bur": 5357,
      "band": 5358,
      "bian": 5359,
      "bia": 5360,
      "bile": 5361,
      "bility": 5362,
      "bird": 5363,
      "bling": 5364,
      "cd": 5365,
      "co": 5366,
      "cz": 5367,
      "cer": 5368,
      "cour": 5369,
      "ctive": 5370,
      "come": 5371,
      "cision": 5372,
      "csc": 5373,
      "dom": 5374,
      "eh": 5375,
      "eti": 5376,
      "equ": 5377,
      "east": 5378,
      "example": 5379,
      "fers": 5380,
      "fol": 5381,
      "ffer": 5382,
      "fri": 5383,
      "flies": 5384,
      "fox": 5385,
      "fresh": 5386,
      "gl": 5387,
      "gn": 5388,
      "gar": 5389,
      "ging": 5390,
      "gation": 5391,
      "gers": 5392,
      "got": 5393,
      "gment": 5394,
      "gence": 5395,
      "gest": 5396,
      "gative": 5397,
      "ground": 5398,
      "hz": 5399,
      "hire": 5400,
      "habil": 5401,
      "hold": 5402,
      "hood": 5403,
      "ien": 5404,
      "iation": 5405,
      "iers": 5406,
      "iant": 5407,
      "iance": 5408,
      "itical": 5409,
      "jor": 5410,
      "jac": 5411,
      "junction": 5412,
      "joy": 5413,
      "km": 5414,
      "kx": 5415,
      "la": 5416,
      "lis": 5417,
      "lam": 5418,
      "lig": 5419,
      "lder": 5420,
      "my": 5421,
      "mber": 5422,
      "mouse": 5423,
      "mission": 5424,
      "mark": 5425,
      "ns": 5426,
      "ny": 5427,
      "nal": 5428,
      "nes": 5429,
      "nel": 5430,
      "nam": 5431,
      "nos": 5432,
      "nia": 5433,
      "oo": 5434,
      "ov": 5435,
      "oon": 5436,
      "oes": 5437,
      "ople": 5438,
      "pq": 5439,
      "pt": 5440,
      "pal": 5441,
      "pective": 5442,
      "ql": 5443,
      "rs": 5444,
      "ren": 5445,
      "rlog": 5446,
      "rat": 5447,
      "rus": 5448,
      "right": 5449,
      "rite": 5450,
      "rics": 5451,
      "ried": 5452,
      "sa": 5453,
      "sl": 5454,
      "sts": 5455,
      "sort": 5456,
      "tp": 5457,
      "tw": 5458,
      "tes": 5459,
      "tage": 5460,
      "tings": 5461,
      "tonym": 5462,
      "tml": 5463,
      "uj": 5464,
      "uce": 5465,
      "uid": 5466,
      "uum": 5467,
      "utr": 5468,
      "uary": 5469,
      "uctions": 5470,
      "ucle": 5471,
      "vs": 5472,
      "vt": 5473,
      "val": 5474,
      "vely": 5475,
      "ville": 5476,
      "we": 5477,
      "wer": 5478,
      "war": 5479,
      "west": 5480,
      "wide": 5481,
      "ways": 5482,
      "write": 5483,
      "xic": 5484,
      "yle": 5485,
      "yom": 5486,
      "|ÃĹ": 5487,
      "¬_": 5488,
      "®_": 5489,
      "Â¬": 5490,
      "Â·": 5491,
      "Î©": 5492,
      "Î±": 5493,
      "Î³": 5494,
      "Î´": 5495,
      "Îµ": 5496,
      "Î»": 5497,
      "Î¼": 5498,
      "ÎĶ": 5499,
      "Ïĥ": 5500,
      "Ïī": 5501,
      "Ïķ": 5502,
      "âĩĶ": 5503,
      "Ġ%": 5504,
      "ĠJ": 5505,
      "ĠX": 5506,
      "Ġ~": 5507,
      "Ġà§ĩ": 5508,
      "Ġà§ģ": 5509,
      "Ġà§ĭ": 5510,
      "Ġing": 5511,
      "Ġid": 5512,
      "Ġtic": 5513,
      "Ġ...à¥¤": 5514,
      "Ġip": 5515,
      "Ġie": 5516,
      "Ġ...}": 5517,
      "Ĩ2": 5518,
      "ı_{": 5519,
      "Ń_": 5520,
      "à¦Ī": 5521,
      "à¦Ĭ": 5522,
      "à§Ŀ": 5523,
      "Ġà¦£": 5524,
      "Ġà¦ģ": 5525,
      "Ġà¦Ĥ": 5526,
      "Ġà¦ĥ": 5527,
      "Ġà¦ŀ": 5528,
      "à¦¾/": 5529,
      "à¦¾]": 5530,
      "à¦¾=(": 5531,
      "à¦¾)à¥¤": 5532,
      "à¦°à¦¥": 5533,
      "à¦°à¦ĵà¦¯": 5534,
      "à¦°à¦Ļ": 5535,
      "à§į)à¥¤": 5536,
      "à§ĩ=": 5537,
      "à¦¿'": 5538,
      "à¦¨à¦ĸ": 5539,
      "à¦¨à¦¸à¦®": 5540,
      "à¦¨à¦¶à¦Ł": 5541,
      "à¦¨à¦īà¦¡": 5542,
      "à¦¤à¦¤à¦°": 5543,
      "à¦¤à¦ļ": 5544,
      "à¦¤à¦¤à¦®": 5545,
      "à¦¤à¦ªà¦ķ": 5546,
      "à¦¯à¦Ļ": 5547,
      "à¦ķà¦·": 5548,
      "à¦ķà¦Ľ": 5549,
      "à¦ķà¦ĸà¦¨": 5550,
      "à¦ķà¦¡à¦²": 5551,
      "à¦¬à¦£": 5552,
      "à¦¬à¦Ľ": 5553,
      "à¦¬à¦°à¦¤": 5554,
      "à¦¬à¦¦à¦¨": 5555,
      "à¦¬à¦ļà¦¨": 5556,
      "à¦²à¦°": 5557,
      "à¦²à¦ĵà¦¯": 5558,
      "Ġà¦ķà§Ł": 5559,
      "Ġà¦ķà¦®à¦¨": 5560,
      "Ġà¦ķà¦²à¦ķ": 5561,
      "à¦®à¦®": 5562,
      "à¦®à¦Ń": 5563,
      "à¦®à¦ķà¦Ń": 5564,
      "à¦®à¦īà¦¦": 5565,
      "Ġà¦¸à¦¦": 5566,
      "Ġà¦¸à¦°à¦£": 5567,
      "Ġà¦¸à¦ļà¦²": 5568,
      "à¥¤)": 5569,
      "à¦Łà¦ĸ": 5570,
      "à¦Łà¦°à¦¦": 5571,
      "à¦Łà¦°à¦¸": 5572,
      "à¦Łà¦ķà¦Ł": 5573,
      "à§ģ:": 5574,
      "à§ģ)à¥¤": 5575,
      "à¦¼!": 5576,
      "à¦¼\",": 5577,
      "à¦ªà¦¬": 5578,
      "à¦ªà¦Ń": 5579,
      "à¦ªà¦«": 5580,
      "à¦ªà¦ķà¦°": 5581,
      "à¦ªà¦¬à¦¦": 5582,
      "Ġà¦¬à¦ĩà¦Ł": 5583,
      "Ġà¦ıà¦ľ": 5584,
      "Ġà¦ıà¦«": 5585,
      "Ġà¦ıà¦¨à¦Ł": 5586,
      "Ġà¦ıà¦ªà¦¸": 5587,
      "Ġà¦ªà¦¬": 5588,
      "Ġà¦ªà¦ľ": 5589,
      "Ġà¦ªà¦ļ": 5590,
      "Ġà¦ªà¦¨à¦ľ": 5591,
      "à§ĭ!": 5592,
      "à§ĭà¦ĥ": 5593,
      "à¦¦à¦ª": 5594,
      "à¦¦à¦¶": 5595,
      "à¦¦à¦°à¦Ń": 5596,
      "à¦¦à¦Ĺà¦¤": 5597,
      "à¦¸à¦ĵ": 5598,
      "à¦¸à¦ķà¦²": 5599,
      "à¦¸à¦«à¦²": 5600,
      "à¦¸à¦ıà¦®à¦ıà¦²": 5601,
      "à¦Ĥ)": 5602,
      "à¦Ĥ,": 5603,
      "à§Ģ)": 5604,
      "à§Ģ:": 5605,
      "à§Ģ',": 5606,
      "à¦Ĺà¦¯": 5607,
      "à¦Ĺà¦§": 5608,
      "à¦£à¦Ł": 5609,
      "à¦£à¦ĩ": 5610,
      "à¦£à¦¹": 5611,
      "à¦£à¦ĵ": 5612,
      "à¦£à¦«": 5613,
      "Ġà¦ħà¦¹": 5614,
      "Ġà¦ħà¦¡": 5615,
      "Ġà¦®à¦¶": 5616,
      "à¦§à¦°": 5617,
      "à¦§à¦¯": 5618,
      "à¦§à¦Ĺà¦®": 5619,
      "Ġà¦¤à¦¬à¦²": 5620,
      "Ġà¦¤à¦°à¦¬": 5621,
      "Ġà¦Ĩà¦Ĺà¦¤": 5622,
      "Ġà¦Ĩà¦ĩà¦ķ": 5623,
      "Ġà¦Ĩà¦Łà¦Ł": 5624,
      "Ġà¦Ĩà¦ĩà¦¬": 5625,
      "Ġà¦¦à¦ĸà¦²": 5626,
      "Ġà¦¦à¦¹à¦¨": 5627,
      "Ġà¦¨à¦ķ": 5628,
      "Ġà¦¨à¦ľ": 5629,
      "Ġà¦¨à¦ĩ": 5630,
      "Ġà¦¨à¦Ń": 5631,
      "Ġà¦¨à¦Ĺà¦¦": 5632,
      "à¦ľà¦¶": 5633,
      "à¦ľà¦¦": 5634,
      "à¦ľà¦¡": 5635,
      "à¦ľà¦ĵ": 5636,
      "à¦¤à¦°à¦¤": 5637,
      "à¦¤à¦°à¦Ĺ": 5638,
      "à¦¤à¦°à¦Ļ": 5639,
      "à¦¤à¦°à¦£à¦ķ": 5640,
      "à¦īà¦²": 5641,
      "à¦īà¦·": 5642,
      "à¦īà¦¶à¦¨": 5643,
      "à¦īà¦ĩà¦Ł": 5644,
      "à¦īà¦ıà¦ĩà¦ļ": 5645,
      "à¦ĩà¦Ĩ": 5646,
      "à¦°à¦¶à¦®": 5647,
      "à¦°à¦¶à¦¸": 5648,
      "à§Łà¦¤": 5649,
      "à§Łà¦Ĺ": 5650,
      "Ġà¦ıà¦ķà¦ĺ": 5651,
      "Ġà¦ıà¦ķà¦¦à¦®": 5652,
      "à¦¹à¦Ĺ": 5653,
      "à¦¹à¦£": 5654,
      "Ġà§ĥ": 5655,
      "Ġà§Ī": 5656,
      "Ġà§Į": 5657,
      "Ġà§İ": 5658,
      "Ġà¦ľà¦¬": 5659,
      "Ġà¦ľà¦¸": 5660,
      "Ġà¦ľà¦ŀ": 5661,
      "à¦ļà¦¬": 5662,
      "à¦ļà¦Ĺ": 5663,
      "à¦ļà¦ľà¦¨": 5664,
      "Ġà¦¸à¦®à¦¦": 5665,
      "Ġà¦¸à¦®à¦ľ": 5666,
      "à¦Ľà¦Ł": 5667,
      "à¦Ľà¦²à¦¤": 5668,
      "à¦¼à¦¾:": 5669,
      "Ġà¦Ńà¦°à¦¬": 5670,
      "Ġà¦°à¦®": 5671,
      "Ġà¦°à§Ł": 5672,
      "Ġà¦°à¦ŀ": 5673,
      "Ġà¦°à¦¹à¦®": 5674,
      "à¦¼à§ĩ-": 5675,
      "à¦ıà¦¤": 5676,
      "à¦ıà¦ª": 5677,
      "âĪ§": 5678,
      "âĪ¨": 5679,
      "âĪ¬": 5680,
      "âĪ®": 5681,
      "âĪ´": 5682,
      "âĪµ": 5683,
      "âĪĢ": 5684,
      "âĪĦ": 5685,
      "âĪĩ": 5686,
      "âĪı": 5687,
      "âĪĵ": 5688,
      "âĪľ": 5689,
      "âĪĿ": 5690,
      "âĪŃ": 5691,
      "Ġà¦Ĺà¦¸": 5692,
      "Ġà¦Ĺà¦ŀ": 5693,
      "Ġà¦Ĺà¦Ļ": 5694,
      "à¦ĵà¦°": 5695,
      "à¦ĵà¦ª": 5696,
      "à¦ĵà¦·": 5697,
      "à¦ĵà¦ıà¦ª": 5698,
      "Ġ(!)": 5699,
      "Ġ(=)": 5700,
      "Ġ(à¥¤)": 5701,
      "Ġà¦²à¦°": 5702,
      "à¦°à¦£à¦¨": 5703,
      "à¦°à¦£à¦ķ": 5704,
      "à¦°à¦£à¦Ł": 5705,
      "Ġà¦ĵà¦Ł": 5706,
      "Ġà¦ĵà¦ª": 5707,
      "Ġà¦ĵà¦Ń": 5708,
      "Ġà¦ļà¦¡": 5709,
      "Ġà¦ļà¦ŀ": 5710,
      "Ġà¦ļà¦¶à¦®": 5711,
      "inn": 5712,
      "ino": 5713,
      "inus": 5714,
      "inum": 5715,
      "ints": 5716,
      "inks": 5717,
      "inions": 5718,
      "inux": 5719,
      "Ġak": 5720,
      "Ġaim": 5721,
      "Ġaid": 5722,
      "Ġagr": 5723,
      "Ġama": 5724,
      "Ġapr": 5725,
      "Ġaug": 5726,
      "Ġaround": 5727,
      "Ġalex": 5728,
      "Ġà¦ľà¦¨à¦ķ": 5729,
      "eration": 5730,
      "erce": 5731,
      "erment": 5732,
      "eries": 5733,
      "erous": 5734,
      "erals": 5735,
      "ona": 5736,
      "onent": 5737,
      "à¦¾à¦Ĥ)": 5738,
      "Ġà¦ħà¦¨à¦¬": 5739,
      "tiful": 5740,
      "tish": 5741,
      "Ġ118": 5742,
      "loc": 5743,
      "Ġcp": 5744,
      "Ġcro": 5745,
      "Ġciv": 5746,
      "Ġcity": 5747,
      "Ġcast": 5748,
      "Ġciti": 5749,
      "Ġcode": 5750,
      "Ġcry": 5751,
      "Ġcold": 5752,
      "Ġcoth": 5753,
      "Ġcross": 5754,
      "Ġcsch": 5755,
      "Ġsr": 5756,
      "Ġson": 5757,
      "Ġsou": 5758,
      "Ġsus": 5759,
      "Ġsam": 5760,
      "Ġsol": 5761,
      "Ġster": 5762,
      "Ġsay": 5763,
      "Ġsens": 5764,
      "Ġsite": 5765,
      "Ġslow": 5766,
      "Ġsold": 5767,
      "Ġscrip": 5768,
      "Ġsatis": 5769,
      "à¦°à¦ķà¦°": 5770,
      "à¦°à¦ķà¦¦": 5771,
      "enger": 5772,
      "Ġ26": 5773,
      "Ġ28": 5774,
      "Ġ29": 5775,
      "Ġ2Â²": 5776,
      "Ġ275": 5777,
      "Ġ2âģ°": 5778,
      "Ġ2âģ¶": 5779,
      "Ġà¦Ľà§ľ": 5780,
      "à¦ªà¦°à¦®": 5781,
      "rem": 5782,
      "reme": 5783,
      "Ġtc": 5784,
      "Ġtin": 5785,
      "Ġton": 5786,
      "Ġtro": 5787,
      "Ġtab": 5788,
      "Ġtas": 5789,
      "Ġtom": 5790,
      "Ġtur": 5791,
      "Ġtall": 5792,
      "Ġtest": 5793,
      "Ġtax": 5794,
      "Ġtenses": 5795,
      "Ġtutor": 5796,
      "005": 5797,
      "006": 5798,
      "0045": 5799,
      "00000": 5800,
      "000001": 5801,
      "0038": 5802,
      "006237": 5803,
      "Ġpc": 5804,
      "Ġpm": 5805,
      "Ġpic": 5806,
      "Ġpul": 5807,
      "Ġpow": 5808,
      "Ġpip": 5809,
      "Ġpati": 5810,
      "Ġpair": 5811,
      "Ġpoint": 5812,
      "Ġpick": 5813,
      "Ġpound": 5814,
      "Ġpython": 5815,
      "Ġpict": 5816,
      "à¦ľà¦¨à¦Ĺ": 5817,
      "Ġà¦¬à¦²à¦Ĺ": 5818,
      "Ġà¦ĺà¦¡": 5819,
      "Ġà¦ĺà¦°à¦Ĺ": 5820,
      "ĠâĩĶ": 5821,
      "à¦¬à¦¨à¦Ł": 5822,
      "à¦¬à¦¨à¦¸à¦Ļ": 5823,
      "Ġà¦ĩà¦Ł": 5824,
      "Ġà¦ĩà¦ª": 5825,
      "oration": 5826,
      "ortional": 5827,
      "ante": 5828,
      "ances": 5829,
      "anking": 5830,
      "ancy": 5831,
      "alf": 5832,
      "aled": 5833,
      "aling": 5834,
      "alian": 5835,
      "à¦ıà¦®à¦¨": 5836,
      "à¦ıà¦®à¦ĩ": 5837,
      "à¦ıà¦®à¦Ĩà¦°": 5838,
      "Ġà¦¸à¦°à¦²à¦ķ": 5839,
      "ese": 5840,
      "estions": 5841,
      "à¦łà¦¤": 5842,
      "à¦łà¦ķà¦ķ": 5843,
      "Ġflo": 5844,
      "Ġfit": 5845,
      "Ġfel": 5846,
      "Ġfur": 5847,
      "Ġfant": 5848,
      "Ġfib": 5849,
      "Ġfill": 5850,
      "Ġfight": 5851,
      "Ġfish": 5852,
      "Ġfair": 5853,
      "Ġfoc": 5854,
      "Ġfast": 5855,
      "Ġfactor": 5856,
      "Ġfree": 5857,
      "Ġfood": 5858,
      "Ġfoot": 5859,
      "Ġfix": 5860,
      "Ġfaq": 5861,
      "Ġflex": 5862,
      "Ġfiel": 5863,
      "Ġferment": 5864,
      "Ġà¦ĸà¦£": 5865,
      "isor": 5866,
      "ises": 5867,
      "ised": 5868,
      "isions": 5869,
      "à¦ĩà¦¨à¦°": 5870,
      "Ġà¦¡à¦¨": 5871,
      "Ġ37": 5872,
      "Ġ333": 5873,
      "Ġ375": 5874,
      "Ġeb": 5875,
      "Ġeg": 5876,
      "Ġet": 5877,
      "Ġey": 5878,
      "Ġeat": 5879,
      "Ġever": 5880,
      "Ġeven": 5881,
      "Ġedition": 5882,
      "Ġegg": 5883,
      "à¦®à¦¨à¦¸": 5884,
      "Ġà¦¸à¦¹à¦¸": 5885,
      "Ġà¦¸à¦¹à¦®à¦°": 5886,
      "Ġà¦¸à¦¹à¦¨à¦¶": 5887,
      "Ġba": 5888,
      "Ġbal": 5889,
      "Ġband": 5890,
      "Ġbag": 5891,
      "Ġburn": 5892,
      "Ġbud": 5893,
      "Ġbond": 5894,
      "Ġbath": 5895,
      "Ġbound": 5896,
      "Ġbank": 5897,
      "Ġbird": 5898,
      "Ġbik": 5899,
      "Ġbene": 5900,
      "ĠdA": 5901,
      "ĠdV": 5902,
      "Ġda": 5903,
      "Ġdan": 5904,
      "Ġded": 5905,
      "Ġdat": 5906,
      "Ġdur": 5907,
      "Ġdam": 5908,
      "Ġdut": 5909,
      "Ġdir": 5910,
      "Ġdire": 5911,
      "Ġdie": 5912,
      "Ġdav": 5913,
      "Ġdomain": 5914,
      "Ġdang": 5915,
      "Ġdivers": 5916,
      "Ġdog": 5917,
      "Ġdiam": 5918,
      "Ġdays": 5919,
      "Ġdark": 5920,
      "Ġdynam": 5921,
      "ÃĹâĪħ": 5922,
      "Ġà¦ħà¦¬à¦§": 5923,
      "Ġà¦ħà¦¬à¦ľ": 5924,
      "Ġà¦ħà¦¬à¦¤à¦°à¦£": 5925,
      "ĠAc": 5926,
      "ĠAbs": 5927,
      "ĠAxi": 5928,
      "ĠAPI": 5929,
      "aron": 5930,
      "arter": 5931,
      "arks": 5932,
      "arily": 5933,
      "arante": 5934,
      "inger": 5935,
      "Ġmg": 5936,
      "Ġml": 5937,
      "Ġmp": 5938,
      "Ġmit": 5939,
      "Ġmac": 5940,
      "Ġmel": 5941,
      "Ġmad": 5942,
      "Ġmap": 5943,
      "Ġmort": 5944,
      "Ġmerc": 5945,
      "Ġmary": 5946,
      "Ġmach": 5947,
      "Ġmail": 5948,
      "Ġmost": 5949,
      "Ġmuse": 5950,
      "Ġmich": 5951,
      "Ġmix": 5952,
      "Ġmade": 5953,
      "Ġmisc": 5954,
      "à§Ģ?\"": 5955,
      "à¦²à¦ķà¦°": 5956,
      "Ġà¦ıà¦ĩà¦ļ": 5957,
      "rote": 5958,
      "rome": 5959,
      ")=âĪĴ": 5960,
      "Ġ54": 5961,
      "Ġ58": 5962,
      "Ġ5âģµ": 5963,
      "ley": 5964,
      "Ġà§©à§«": 5965,
      "Ġà§©à§©": 5966,
      "itation": 5967,
      "itter": 5968,
      "itable": 5969,
      "itted": 5970,
      "Ġ4Â²": 5971,
      "Ġ450": 5972,
      "Ġ460": 5973,
      "ician": 5974,
      "ictim": 5975,
      "icult": 5976,
      "à¦ļà¦ķà¦¤": 5977,
      "à¦ļà¦ķà¦ķ": 5978,
      "à¦ļà¦ķà¦¦": 5979,
      "à¦Ĩà¦ķ": 5980,
      "à¦Ĩà¦¬à¦°": 5981,
      "à¦¦à¦ķà¦¦": 5982,
      "Ġà¦ķà¦®à¦¡": 5983,
      "à¦ĺà¦ķ": 5984,
      "à¦ĺà¦Ł": 5985,
      "à¦ĺà¦¨à¦®": 5986,
      "à¦ĺà¦Łà¦ķ": 5987,
      "hel": 5988,
      "heast": 5989,
      "Ġ+(": 5990,
      "Ġ++": 5991,
      "enty": 5992,
      "enture": 5993,
      "Ġà¦Ĩà¦ķà¦¸": 5994,
      "Ġà¦Ĩà¦°à¦ª": 5995,
      "Ġà§®à§Ń": 5996,
      "Ġwant": 5997,
      "Ġwell": 5998,
      "Ġwish": 5999,
      "Ġwire": 6000,
      "Ġwors": 6001,
      "Ġwash": 6002,
      "Ġwild": 6003,
      "Ġwarr": 6004,
      "Ġwik": 6005,
      "à¦°à¦®à¦Ĺ": 6006,
      "à¦¤à¦¬à¦Ĺ": 6007,
      "Ġnh": 6008,
      "Ġny": 6009,
      "Ġnà¦Ł": 6010,
      "Ġnort": 6011,
      "Ġnurs": 6012,
      "Ġnatural": 6013,
      "Ġnamed": 6014,
      "Ġ\"\"\"": 6015,
      "à¦°à¦¨à¦Ĺ": 6016,
      "à¦«à¦²à¦Ĺ": 6017,
      "10âģ¶": 6018,
      "à¦¬à¦²à¦Ľ": 6019,
      "abe": 6020,
      "abet": 6021,
      "abled": 6022,
      "abla": 6023,
      "aced": 6024,
      "acle": 6025,
      "active": 6026,
      "acific": 6027,
      "asons": 6028,
      "Ġreti": 6029,
      "Ġreaction": 6030,
      "Ġreven": 6031,
      "Ġreason": 6032,
      "Ġreverse": 6033,
      "Ġà§«à§«": 6034,
      "Ġà§«à§§à§¨": 6035,
      "1002": 6036,
      "1003": 6037,
      "Ġ*=": 6038,
      "à¦¶à¦¨à¦ķ": 6039,
      "=(-": 6040,
      "à§ĩ?\",": 6041,
      "Ġink": 6042,
      "Ġll": 6043,
      "Ġly": 6044,
      "Ġlas": 6045,
      "Ġlad": 6046,
      "Ġlate": 6047,
      "Ġlap": 6048,
      "Ġland": 6049,
      "Ġlength": 6050,
      "Ġlife": 6051,
      "Ġluck": 6052,
      "etry": 6053,
      "oms": 6054,
      "omonym": 6055,
      "à¦²à¦¨à¦ķ": 6056,
      "Ġà¦®à¦¨à¦ķ": 6057,
      "Â°<": 6058,
      "elves": 6059,
      "elines": 6060,
      "elongs": 6061,
      "Ġhi": 6062,
      "Ġher": 6063,
      "Ġhor": 6064,
      "Ġhis": 6065,
      "Ġhim": 6066,
      "Ġhour": 6067,
      "Ġhous": 6068,
      "Ġhair": 6069,
      "Ġhors": 6070,
      "Ġhav": 6071,
      "Ġhome": 6072,
      "Ġhero": 6073,
      "Ġhomonym": 6074,
      "âĤģâĤĨ2": 6075,
      "âĤģâĤĢ1": 6076,
      "âĤģâĤĢ6": 6077,
      "âĤģâĤĢ12": 6078,
      "âĤģâĤĢ14": 6079,
      "ung": 6080,
      "uns": 6081,
      "unct": 6082,
      "à¦ĩà¦Łà¦¬": 6083,
      "Ġoh": 6084,
      "Ġot": 6085,
      "Ġoct": 6086,
      "Ġoak": 6087,
      "Ġold": 6088,
      "Ġother": 6089,
      "Ġodd": 6090,
      "ush": 6091,
      "usive": 6092,
      "ership": 6093,
      "ĠBab": 6094,
      "ĠBec": 6095,
      "ĠBST": 6096,
      "ĠBá¶ľ": 6097,
      "ĠBillions": 6098,
      "ĠBelongs": 6099,
      "Ġgb": 6100,
      "Ġgm": 6101,
      "Ġgn": 6102,
      "Ġget": 6103,
      "Ġgir": 6104,
      "Ġgate": 6105,
      "Ġgall": 6106,
      "Ġgerm": 6107,
      "Ġgood": 6108,
      "Ġgeo": 6109,
      "Ġangle": 6110,
      "Ġantonym": 6111,
      "Ġyoun": 6112,
      "Ġyear": 6113,
      "Ġyours": 6114,
      "ĠProp": 6115,
      "ĠPres": 6116,
      "Ġrf": 6117,
      "Ġris": 6118,
      "Ġrat": 6119,
      "Ġrent": 6120,
      "Ġrad": 6121,
      "Ġrain": 6122,
      "Ġrub": 6123,
      "Ġrail": 6124,
      "Ġrank": 6125,
      "ilar": 6126,
      "ilities": 6127,
      "ilton": 6128,
      "Ġtheat": 6129,
      "Ġtheorem": 6130,
      "cean": 6131,
      "Ġ998": 6132,
      "Ġ997": 6133,
      "Ġ98Â²": 6134,
      "urance": 6135,
      "uracy": 6136,
      "ectively": 6137,
      "Ġ77": 6138,
      "Ġ7Â²": 6139,
      "à¦°à¦¹à¦ķ": 6140,
      "à¦°à¦¹à¦Ł": 6141,
      "à¦Ĺà¦°à¦Ĺ": 6142,
      "otation": 6143,
      "ottle": 6144,
      "à¦¶à¦ķà¦°": 6145,
      "Ġ625": 6146,
      "Ġvend": 6147,
      "Ġvill": 6148,
      "Ġvide": 6149,
      "Ġvict": 6150,
      "Ġveh": 6151,
      "Ġvictim": 6152,
      "olf": 6153,
      "olis": 6154,
      "ĠCast": 6155,
      "ĠCON": 6156,
      "ĠCube": 6157,
      "ĠClos": 6158,
      "165": 6159,
      "1600": 6160,
      "),à§Ģ": 6161,
      "à¦Ŀà¦¬": 6162,
      "à¦Ŀà¦¡": 6163,
      "à¦ķà¦Łà¦¨": 6164,
      "Ġà¦Ĩà¦²à¦¸": 6165,
      "Ġà¦Ĩà¦²à¦Ĺ": 6166,
      "Ġconduct": 6167,
      "igration": 6168,
      "uly": 6169,
      "ulas": 6170,
      "ults": 6171,
      "ully": 6172,
      "ulations": 6173,
      "ulty": 6174,
      "à§§à§¦à§¦": 6175,
      "osed": 6176,
      "osition": 6177,
      "Ġà¦«à¦²à¦Ĺ": 6178,
      "Ġiss": 6179,
      "Ġisra": 6180,
      "Ġisland": 6181,
      "Ġislam": 6182,
      "à¦°à¦¥à¦®à¦Ł": 6183,
      "iding": 6184,
      "iday": 6185,
      "idual": 6186,
      "à¦¦à¦¨à¦¯": 6187,
      "Ġ10Â²": 6188,
      "Ġ10âģµ": 6189,
      "Ġ102Â²": 6190,
      "Ġ101Â²": 6191,
      "à¦°à¦¬à¦¤": 6192,
      "Ġà¦Ĩà¦¬à¦°à¦£": 6193,
      "à§«à§¦": 6194,
      "à§«à§«": 6195,
      "à§ĭà¥¤\"": 6196,
      "Ġà¦ħà¦¸à¦¨": 6197,
      "Ġtoy": 6198,
      "Ġtool": 6199,
      "Ġtoward": 6200,
      "Ġtoget": 6201,
      "Ġtoday": 6202,
      "ĠSt": 6203,
      "ĠShe": 6204,
      "ĠSure": 6205,
      "ĠSup": 6206,
      "ĠSaf": 6207,
      "ĠSince": 6208,
      "outh": 6209,
      "Ġ85": 6210,
      "Ġ800": 6211,
      "Ġ8âģµ": 6212,
      "Ġther": 6213,
      "Ġthing": 6214,
      "Ġthom": 6215,
      "Ġthum": 6216,
      "Ġthree": 6217,
      "à§¨à§§": 6218,
      "à§¨à§§à§¬": 6219,
      "âĤĤ1": 6220,
      "âĤĤ27": 6221,
      "âĤĤâĤĩ": 6222,
      "âĤĤ128": 6223,
      "âĤĤâĤħ5": 6224,
      "ades": 6225,
      "adem": 6226,
      "aduate": 6227,
      "ivabe": 6228,
      "uted": 6229,
      "uture": 6230,
      "ĠDif": 6231,
      "ĠDem": 6232,
      "ĠDefinite": 6233,
      "ĠDouble": 6234,
      "ĠDNA": 6235,
      "ĠDoes": 6236,
      "à¦®à¦ķà¦ķ": 6237,
      "Ġpros": 6238,
      "Ġprote": 6239,
      "Ġproduct": 6240,
      "Ġproced": 6241,
      "Ġprogress": 6242,
      "Ġproceed": 6243,
      "istan": 6244,
      "istential": 6245,
      "ĠâĪ§": 6246,
      "ĠâĪ¨": 6247,
      "ĠâĪĢ": 6248,
      "ĠâĪĥ": 6249,
      "ĠâĪī": 6250,
      "ĠâĪĵ": 6251,
      "ĠâĪľ": 6252,
      "ĠâĪ¬_": 6253,
      "ĠâĪ®_": 6254,
      "ĠâĪı_{": 6255,
      "ĠâĪŃ_": 6256,
      "Ġexec": 6257,
      "Ġexerc": 6258,
      "Ġexhib": 6259,
      "Ġextract": 6260,
      "Ġà¦ĺà¦Łà¦¤": 6261,
      "Ġà¦ĺà¦Łà¦¬": 6262,
      "189": 6263,
      "odulus": 6264,
      "ĠTens": 6265,
      "ĠThis": 6266,
      "Ġà¦ªà¦¶à¦®": 6267,
      "à¦ħà¦Ł": 6268,
      "à¦ħà¦¨à¦²": 6269,
      "à¦ħà¦®à¦²": 6270,
      "irit": 6271,
      "à¦¸à¦®à§Ł": 6272,
      "aint": 6273,
      "aining": 6274,
      "aints": 6275,
      "à¦¨à¦¬à¦ľ": 6276,
      "ĠIt": 6277,
      "ĠIden": 6278,
      "à¦°à¦ļà¦°": 6279,
      "à¦°à¦ļà¦²à¦¨": 6280,
      "ĠRec": 6281,
      "ĠRAM": 6282,
      "ĠROM": 6283,
      "ĠRatio": 6284,
      "ĠRHS": 6285,
      "Ġorient": 6286,
      "Ġordered": 6287,
      "Ġorders": 6288,
      "ĠFour": 6289,
      "ĠFactorial": 6290,
      "à¦Ĩà¦ĩà¦¯": 6291,
      "à¦Ĩà¦ĩà¦ª": 6292,
      "à¦Ĩà¦ĩà¦ĵà¦Ł": 6293,
      "à¦ıà¦ķà¦ķ": 6294,
      "pped": 6295,
      "ppeat": 6296,
      "pposite": 6297,
      "tegers": 6298,
      "terflies": 6299,
      "ĠĠĠĠĠĠĠĠ": 6300,
      "ayer": 6301,
      "mental": 6302,
      "à¦¹à¦ķà¦ķ": 6303,
      "Ġ123": 6304,
      "thers": 6305,
      "though": 6306,
      "tices": 6307,
      "45645": 6308,
      "Ġcomes": 6309,
      "Ġcomment": 6310,
      "Ġcomplex": 6311,
      "Ġcomfort": 6312,
      "Ġà¦¬à¦Ľà¦°à¦Ł": 6313,
      "Ġtry": 6314,
      "Ġtrip": 6315,
      "Ġtrust": 6316,
      "ĠElement": 6317,
      "ĠErat": 6318,
      "ubs": 6319,
      "ĠList": 6320,
      "ĠLANs": 6321,
      "ĠLaw": 6322,
      "ĠLeast": 6323,
      "Ġchan": 6324,
      "Ġchur": 6325,
      "Ġchap": 6326,
      "Ġchall": 6327,
      "Ġchased": 6328,
      "Ġchamp": 6329,
      "âĤĥ2": 6330,
      "âĤĥ3": 6331,
      "âĤĥ7": 6332,
      "âĤĥ25": 6333,
      "âĤĥâĤĤ2": 6334,
      "âĤĥ243": 6335,
      "00045": 6336,
      "00014": 6337,
      "000435": 6338,
      "000245": 6339,
      "Ġja": 6340,
      "Ġjp": 6341,
      "Ġjon": 6342,
      "Ġjan": 6343,
      "Ġjun": 6344,
      "Ġjim": 6345,
      "Ġjap": 6346,
      "Ġjack": 6347,
      "Ġjav": 6348,
      "Ġjog": 6349,
      "Ġjef": 6350,
      "Ġjose": 6351,
      "Ġjacks": 6352,
      "Ġjump": 6353,
      "Ġkor": 6354,
      "Ġking": 6355,
      "Ġkit": 6356,
      "Ġkent": 6357,
      "Ġkid": 6358,
      "Ġkore": 6359,
      "Ġkind": 6360,
      "Ġkivabe": 6361,
      "à¦¬à¦ķà¦ķ": 6362,
      "à§®à§«": 6363,
      "à§®à§©": 6364,
      "à§®à§¬": 6365,
      "apolis": 6366,
      "ĠNew": 6367,
      "ĠNull": 6368,
      "ĠNeg": 6369,
      "ĠNabla": 6370,
      "anta": 6371,
      "anty": 6372,
      "antly": 6373,
      "à§©à§¦": 6374,
      "à§©à§«": 6375,
      "Ġà¦Ŀà§ľ": 6376,
      "à¦¼?\"": 6377,
      "Ġà¦ħà¦ªà¦ļà§Ł": 6378,
      "Ġstay": 6379,
      "Ġstatis": 6380,
      "Ġstarts": 6381,
      "3300": 6382,
      "33645": 6383,
      "agement": 6384,
      "Ġrom": 6385,
      "Ġroy": 6386,
      "Ġrout": 6387,
      "Ġrober": 6388,
      "Ġrock": 6389,
      "Ġroll": 6390,
      "Ġà§Ńà§®": 6391,
      "Ġâī¤": 6392,
      "Ġâī¥": 6393,
      "ander": 6394,
      "andom": 6395,
      "andum": 6396,
      "Ġuk": 6397,
      "Ġuv": 6398,
      "Ġutil": 6399,
      "à¦·à¦®à¦¬": 6400,
      "2499": 6401,
      "ĠWord": 6402,
      "à¦¨à¦¸à¦¨": 6403,
      "âī¡": 6404,
      "Ġalb": 6405,
      "Ġalum": 6406,
      "Ġalber": 6407,
      "Ġalways": 6408,
      "Ġalloc": 6409,
      "Ġalthough": 6410,
      "ensions": 6411,
      "à§¬à§¨": 6412,
      "à§¬à§¯": 6413,
      "à§¯à§¯": 6414,
      "Ġà¦ıà¦ķà¦ķà¦ķ": 6415,
      "Ġdele": 6416,
      "Ġdead": 6417,
      "Ġdeath": 6418,
      "Ġfort": 6419,
      "Ġforms": 6420,
      "Ġforgot": 6421,
      "99Â²": 6422,
      "9999": 6423,
      "993Â²": 6424,
      "ĠMS": 6425,
      "ĠMoc": 6426,
      "ĠMem": 6427,
      "ĠMail": 6428,
      "ĠMathematical": 6429,
      "ĠMillions": 6430,
      "ĠMinus": 6431,
      "ĠModulus": 6432,
      "à§ªà§Ń": 6433,
      "à¦¶à¦²à¦Ĺà¦¤à¦Ń": 6434,
      "Ġspy": 6435,
      "Ġspoken": 6436,
      "Ġspirit": 6437,
      "Ġ15000": 6438,
      "Ġ1570": 6439,
      "stants": 6440,
      "stock": 6441,
      "Ġà¦Ĩà¦Ĺà¦®à¦¨": 6442,
      "ows": 6443,
      "Ġ100âģ°": 6444,
      "Ġ1005Â²": 6445,
      "Ġ1007Â²": 6446,
      "Ġdise": 6447,
      "perators": 6448,
      "ordin": 6449,
      "orders": 6450,
      "502": 6451,
      "602": 6452,
      "ipal": 6453,
      "iples": 6454,
      "Ġ2019": 6455,
      "Ġà¦ıà¦¸à¦ĵà¦ıà¦ª": 6456,
      "Ġ2550": 6457,
      "Ġà¦Ĩà¦ĩà¦¨à¦ķ": 6458,
      "Ġà¦Ĩà¦ĩà¦¨à¦Ł": 6459,
      "Ġà¦Ĩà¦ĩà¦¨à¦Ĺà¦¤": 6460,
      "Ġshot": 6461,
      "Ġshir": 6462,
      "Ġshort": 6463,
      "Ġshoot": 6464,
      "Ġshipp": 6465,
      "363": 6466,
      "agnos": 6467,
      "Ġused": 6468,
      "Ġusually": 6469,
      "Ġarc": 6470,
      "Ġarti": 6471,
      "Ġarab": 6472,
      "ĠOR": 6473,
      "ĠOpposite": 6474,
      "ĠOperators": 6475,
      "759": 6476,
      "7567": 6477,
      "759Â²": 6478,
      "à¦ĩà¦¸à¦Ł": 6479,
      "Ġpric": 6480,
      "Ġprim": 6481,
      "Ġprivate": 6482,
      "Ġlod": 6483,
      "Ġlot": 6484,
      "Ġloss": 6485,
      "Ġlock": 6486,
      "Ġlouis": 6487,
      "Ġleast": 6488,
      "Ġleav": 6489,
      "Ġacqu": 6490,
      "Ġaccom": 6491,
      "Ġaccount": 6492,
      "Ġacadem": 6493,
      "ĠIndef": 6494,
      "ĠInteger": 6495,
      "Ġseed": 6496,
      "Ġseat": 6497,
      "Ġsequ": 6498,
      "Ġsever": 6499,
      "Ġsemin": 6500,
      "Ġseason": 6501,
      "Ġparent": 6502,
      "Ġparameters": 6503,
      ")=(âĪļ": 6504,
      "ources": 6505,
      "Ġà§§à§¯à§¯à§¦": 6506,
      "Ġà§§à§¯à§¬à§¯": 6507,
      "Ġà§§à§¯à§¯à§¯": 6508,
      "oke": 6509,
      "âĤħ2": 6510,
      "âĤħ625": 6511,
      "Ġplug": 6512,
      "Ġplane": 6513,
      "Ġplaces": 6514,
      "ortun": 6515,
      "490": 6516,
      "498": 6517,
      "49Â²": 6518,
      "à¦¥à¦¬à¦¹": 6519,
      "Ġprem": 6520,
      "Ġpress": 6521,
      "Ġpregn": 6522,
      "à¦°à¦®à¦£à¦Ł": 6523,
      "Ġà¦¤à¦ĸà¦¨à¦ĩ": 6524,
      "ĠFunctions": 6525,
      "gruence": 6526,
      "à¦¿à¦ĥ**": 6527,
      "Ġà¦Ĩà¦¶à¦ª": 6528,
      "Ġsuper": 6529,
      "Ġneither": 6530,
      "Ġreser": 6531,
      "Ġrestric": 6532,
      "Ġresource": 6533,
      "Ġresearch": 6534,
      "Ġmexic": 6535,
      "asses": 6536,
      "plies": 6537,
      "place": 6538,
      "ĠGreat": 6539,
      "ĠGCD": 6540,
      "ansas": 6541,
      "Ġque": 6542,
      "Ġqual": 6543,
      "Ġquick": 6544,
      "Ġquery": 6545,
      "Ġquarter": 6546,
      "Ġheav": 6547,
      "à§Ńà§¯": 6548,
      "Ġ16000": 6549,
      "Ġsubset": 6550,
      "2863": 6551,
      "Ġimag": 6552,
      "Ġimmedi": 6553,
      "Ġenh": 6554,
      "Ġenergy": 6555,
      "Ġencour": 6556,
      "Ġenjoy": 6557,
      "ocol": 6558,
      "ocumulus": 6559,
      "à¦¬à¦¹à¦£": 6560,
      "Ġwebs": 6561,
      "à¦ıà¦¸à¦¡": 6562,
      "Ġbeing": 6563,
      "Ġbeau": 6564,
      "ĠHT": 6565,
      "ĠHundreds": 6566,
      "Ġattem": 6567,
      "Ġattrib": 6568,
      "Ġclin": 6569,
      "Ġclient": 6570,
      "Ġclick": 6571,
      "Ġclaus": 6572,
      "Ġbox": 6573,
      "Ġboole": 6574,
      "Ġminor": 6575,
      "Ġminus": 6576,
      "Ġscan": 6577,
      "Ġsche": 6578,
      "Ġscot": 6579,
      "Ġscore": 6580,
      "Ġ270": 6581,
      "Ġemail": 6582,
      "Ġemerg": 6583,
      "2135": 6584,
      "Ġà¦Ĩà¦ªà¦²": 6585,
      "Ġapple": 6586,
      "Ġappoint": 6587,
      "Ġcoal": 6588,
      "Ġcool": 6589,
      "Ġcoast": 6590,
      "Ġcoach": 6591,
      "Ġà§§à§«à§¦": 6592,
      "âīł-": 6593,
      "Â¹âģ°": 6594,
      "Ġà¦Ĳà¦ķ": 6595,
      "itive": 6596,
      "key": 6597,
      "raud": 6598,
      "raham": 6599,
      "times": 6600,
      "reappeat": 6601,
      "Ġà§§à§®à§ªà§®": 6602,
      "Ġconson": 6603,
      "Ġconsum": 6604,
      "Ġconstitution": 6605,
      "Ġconsists": 6606,
      "Ġphr": 6607,
      "Ġpharm": 6608,
      "Ġphotos": 6609,
      "Ġà¦ĩà¦®à¦ª": 6610,
      "**-": 6611,
      "sinh": 6612,
      "Ġouts": 6613,
      "Ġoutdo": 6614,
      "Ġcosh": 6615,
      "Ġcost": 6616,
      "logâĤĲN": 6617,
      "logâĤĲz": 6618,
      "Ġcontour": 6619,
      "Ġbring": 6620,
      "Ġbrit": 6621,
      "Ġintel": 6622,
      "Ġintelligence": 6623,
      "Ġ<=": 6624,
      "Ġà¦Ĺà¦¡à¦«": 6625,
      "Ġassum": 6626,
      "Ġassess": 6627,
      "Ġassign": 6628,
      "ustain": 6629,
      "Ġcommission": 6630,
      "Ġ|-": 6631,
      "Ġà¦ıà¦¡à¦Ĺ": 6632,
      "Ġsech": 6633,
      "Ġsecur": 6634,
      "Ġsecret": 6635,
      "Ġrecurs": 6636,
      "Ġindiv": 6637,
      "Ġindep": 6638,
      "Ġà§¨à§¦à§¦à§®": 6639,
      "Ġmarri": 6640,
      "Ġexpand": 6641,
      "Ġexpect": 6642,
      "Ġexplor": 6643,
      "Ġà¦ľà¦¨à¦¸à¦ļ": 6644,
      "Ġbug": 6645,
      "Ġ4218": 6646,
      "Ġrepublic": 6647,
      "Ġguid": 6648,
      "Ġguard": 6649,
      "Ġguest": 6650,
      "Ġguarante": 6651,
      "Ġvalu": 6652,
      "Ġcompil": 6653,
      "Ġcompati": 6654,
      "Ġcompound": 6655,
      "Ġcompeti": 6656,
      "Ġcarol": 6657,
      "Ġcartr": 6658,
      "Ġcarry": 6659,
      "Ġmoder": 6660,
      "Ġmodern": 6661,
      "Ġwho": 6662,
      "Ġà§§à§§à§®à§©": 6663,
      "versal": 6664,
      "Ġ186": 6665,
      "Ġtex": 6666,
      "Ġteen": 6667,
      "Ġtext": 6668,
      "Ġframe": 6669,
      "Ġfranc": 6670,
      "Ġfrank": 6671,
      "Ġinterest": 6672,
      "Ġinterview": 6673,
      "ossible": 6674,
      "ĠâĪĽ(": 6675,
      "ĠExistential": 6676,
      "196": 6677,
      "6720": 6678,
      "prise": 6679,
      "ything": 6680,
      "âĬĤ": 6681,
      "âĬĥ": 6682,
      "âĬĩ": 6683,
      "à¦°à¦ľà¦¨à¦¨": 6684,
      "ĠTrillions": 6685,
      "ĠTriple": 6686,
      "444": 6687,
      "Ġà¦ļà¦ķà¦ļà¦ķ": 6688,
      "000000014": 6689,
      "Ġdrug": 6690,
      "Ġmanag": 6691,
      "ception": 6692,
      "Ġtransl": 6693,
      "Ġtransfer": 6694,
      "Ġtransport": 6695,
      "Ġtransversal": 6696,
      "Ġformulas": 6697,
      "ĠUnits": 6698,
      "cling": 6699,
      "Ġà¦ıà¦ķà¦¦à¦²": 6700,
      "Ġamend": 6701,
      "Ġfeel": 6702,
      "Ġbrok": 6703,
      "Ġregion": 6704,
      "Ġregular": 6705,
      "Ġregister": 6706,
      "Ġgrant": 6707,
      "Quod": 6708,
      "Ġà¦®à¦ľà¦¬": 6709,
      "Ġagain": 6710,
      "titled": 6711,
      "titute": 6712,
      "Ġ1981": 6713,
      "Ġ1944": 6714,
      "Ġdoct": 6715,
      "Ġmov": 6716,
      "Ġtradem": 6717,
      "fully": 6718,
      "Ġpassive": 6719,
      "Ġfactorialize": 6720,
      "ĠAdjac": 6721,
      "ought": 6722,
      "Ġreli": 6723,
      "Ġrelation": 6724,
      "Ġrelig": 6725,
      "Ġground": 6726,
      "Ġprovided": 6727,
      "ĠEquation": 6728,
      "ĠEquations": 6729,
      "Ġspecific": 6730,
      "Ġsupplement": 6731,
      "Ġsupporting": 6732,
      "eping": 6733,
      "kingbird": 6734,
      "Ġii": 6735,
      "Ġzero": 6736,
      "Ġà¦Ĩà¦ĩà¦Ĺ": 6737,
      "Ġcamc": 6738,
      "Ġcamer": 6739,
      "Ġ4500": 6740,
      "Ġnumbers": 6741,
      "Ġà§§à§ªà§ª": 6742,
      "Ġobj": 6743,
      "Ġobs": 6744,
      "Ġobv": 6745,
      "Ġoblig": 6746,
      "ĠProbability": 6747,
      "Ġcomputing": 6748,
      "9996": 6749,
      "Ġdiscover": 6750,
      "567567": 6751,
      "MNP": 6752,
      "Theta": 6753,
      "forcement": 6754,
      "mooth": 6755,
      "à§ĭ?\"": 6756,
      "Ġà¦¤à¦¦à¦¤": 6757,
      "onyms": 6758,
      "âĤĦ2": 6759,
      "âĤĩ49": 6760,
      "Ġmater": 6761,
      "Ġwrit": 6762,
      "Ġnov": 6763,
      "Ġinvolve": 6764,
      "Ġlimit": 6765,
      "âĤģâĤĢ360": 6766,
      "ĠâĪħÃĹ": 6767,
      "ĠâĪħ,{": 6768,
      "diction": 6769,
      "Ġserv": 6770,
      "Ġedward": 6771,
      "Ġeditor": 6772,
      "Ġelig": 6773,
      "Ġcontract": 6774,
      "Ġcontraction": 6775,
      "ĠDisjunction": 6776,
      "Ġjoy": 6777,
      "Ġjoining": 6778,
      "Ġarrange": 6779,
      "ĠVolcanus": 6780,
      "lines": 6781,
      "scape": 6782,
      "strings": 6783,
      "ĠÎµ": 6784,
      "ĠÎ¼": 6785,
      "Ġsmart": 6786,
      "Ġsimply": 6787,
      "Ġsimilar": 6788,
      "Ġselling": 6789,
      "Ġpoll": 6790,
      "Ġpolic": 6791,
      "Ġflag": 6792,
      "Ġflash": 6793,
      "Ġfinish": 6794,
      "Ġfinanc": 6795,
      "Ġ49Â²": 6796,
      "Ġà§§à§Ńà§ª": 6797,
      "âĤģâĤĢ400": 6798,
      "ĠTherefore": 6799,
      "ĠLogic": 6800,
      "ĠLogarith": 6801,
      "ĠMultiple": 6802,
      "à¤°": 6803,
      "à¤¾": 6804,
      "Ġesp": 6805,
      "Ġentr": 6806,
      "Ġà¦¨à¦°à¦®à¦Ń": 6807,
      "à¦ıà¦¨à¦ıà¦²à¦ª": 6808,
      "Ġclos": 6809,
      "Ġcloth": 6810,
      "Ġcloud": 6811,
      "Ġcouns": 6812,
      "Ġcounts": 6813,
      "Ġswed": 6814,
      "Ġtermin": 6815,
      "Ġpublic": 6816,
      "Ġevent": 6817,
      "Ġblack": 6818,
      "Ġmonitor": 6819,
      "Ġ99Â²": 6820,
      "Ġ995Â²": 6821,
      "Ġattor": 6822,
      "Ġattend": 6823,
      "Ġattach": 6824,
      "Ġclassroom": 6825,
      "Ġclassified": 6826,
      "Ġcontinue": 6827,
      "Ġcontinues": 6828,
      "phabet": 6829,
      "words": 6830,
      "ĠÂ¬": 6831,
      "ĠÂ½": 6832,
      "âĪŀ}": 6833,
      "Ġcatalog": 6834,
      "Ġsoft": 6835,
      "Ġtanh": 6836,
      "Ġà§¨à§§à§¨": 6837,
      "Ġmedic": 6838,
      "Ġà§©à§¬à§¦": 6839,
      "Ġà§©à§¬à§«": 6840,
      "Ġà§©à§¬à§¬": 6841,
      "à¦Ĩà¦°à¦ĩà¦Ĩà¦°": 6842,
      "Ġrevolution": 6843,
      "âĤĤ324": 6844,
      "Ġadvant": 6845,
      "058": 6846,
      "3450": 6847,
      "63866": 6848,
      "ĠYou": 6849,
      "Ġafter": 6850,
      "Ġafric": 6851,
      "Ġafford": 6852,
      "Ġcenter": 6853,
      "Ġski": 6854,
      "Ġsheet": 6855,
      "Ġsignific": 6856,
      "Ġpeople": 6857,
      "anced": 6858,
      "Ġearn": 6859,
      "Ġearned": 6860,
      "Ġbelong": 6861,
      "letin": 6862,
      "Ġhighl": 6863,
      "Ġhighest": 6864,
      "Ġgives": 6865,
      "Ġvariables": 6866,
      "ĠConjunction": 6867,
      "ĠConstants": 6868,
      "ĠCongruence": 6869,
      "ĠDegree": 6870,
      "Ġalphabet": 6871,
      "criptions": 6872,
      "Ġmemor": 6873,
      "Ġmembers": 6874,
      "Ġpersonal": 6875,
      "Ġlanguages": 6876,
      "4142": 6877,
      "4142135": 6878,
      "ABC": 6879,
      "ctronic": 6880,
      "Ġeric": 6881,
      "Ġavail": 6882,
      "Ġpattern": 6883,
      "Ġportug": 6884,
      "althy": 6885,
      "Ġbarg": 6886,
      "Ġnorth": 6887,
      "Ġreceives": 6888,
      "Ġlatin": 6889,
      "Ġlabor": 6890,
      "Ġopportun": 6891,
      "Ġ6530": 6892,
      "Ġconjunction": 6893,
      "Ġconnec": 6894,
      "ĠDerivative": 6895,
      "Ġorganis": 6896,
      "Ġorganiz": 6897,
      "Ġtravel": 6898,
      "ĠLimit": 6899,
      "Ġalgorithm": 6900,
      "Ġà¦ıà¦¸à¦ĩà¦ĵà¦¤": 6901,
      "Ġaccord": 6902,
      "Ġà§§à§¯à§«à§¦": 6903,
      "Ġà§§à§¯à§«à§«": 6904,
      "Ġà§§à§¯à§«à§¨": 6905,
      "books": 6906,
      "Ġcustomer": 6907,
      "1415926535897": 6908,
      "06237": 6909,
      "afa": 6910,
      "porary": 6911,
      "tooth": 6912,
      "xxx": 6913,
      "âĢ°": 6914,
      "ĠÏĥ": 6915,
      "Ġiraq": 6916,
      "à¦Ĳà¦ļ": 6917,
      "Ġà¦Ĭà¦°": 6918,
      "Ġà¦®à§Łà¦¨": 6919,
      "Ġà¦®à§Łà¦²": 6920,
      "à¦īà¦ĩà¦ļ": 6921,
      "Ġà¦°à¦ļà§Ł": 6922,
      "ervations": 6923,
      "Ġ1989": 6924,
      "Ġcertain": 6925,
      "âĤĪ2": 6926,
      "âĤĪ64": 6927,
      "âĤī3": 6928,
      "âĤī81": 6929,
      "Ġterr": 6930,
      "Ġtempl": 6931,
      "isco": 6932,
      "Ġdiagnos": 6933,
      "ĠAlphabet": 6934,
      "Ġmapping": 6935,
      "Ġmajor": 6936,
      "Ġmille": 6937,
      "Ġmake": 6938,
      ")=âĪĽ(": 6939,
      "Ġwilliam": 6940,
      "Ġlarge": 6941,
      "Ġoccur": 6942,
      "Ġoccup": 6943,
      "Ġ999Â²": 6944,
      "à¦°à¦¬à¦Łà¦²à¦ĵà¦¯": 6945,
      "Ġproperty": 6946,
      "ĠâĪĤ^": 6947,
      "ĠâĪĩÃĹ": 6948,
      "ĠâĪĩÂ·": 6949,
      "Ġexcell": 6950,
      "Ġchris": 6951,
      "Ġdefinition": 6952,
      "Ġarticles": 6953,
      "Ġparticular": 6954,
      "Ġà§§à§¯à§®à§§": 6955,
      "Ġprevious": 6956,
      "Ġimprove": 6957,
      "Ġexpression": 6958,
      "Ġbuying": 6959,
      "Ġautomo": 6960,
      "ĠÎĶx": 6961,
      "ĠÎĶy": 6962,
      "0123": 6963,
      "2109": 6964,
      "bolic": 6965,
      "www": 6966,
      "Ġidentify": 6967,
      "à¦·à§Łà¦Ĺ": 6968,
      "Ġcreated": 6969,
      "Ġsounds": 6970,
      "Ġpopular": 6971,
      "Ġfavour": 6972,
      "Ġbusiness": 6973,
      "Ġdownload": 6974,
      "Ġ5570": 6975,
      "aska": 6976,
      "Ġrestaur": 6977,
      "Ġinitial": 6978,
      "Ġlibr": 6979,
      "Ġprofession": 6980,
      "Ġcomplete": 6981,
      "Ġadjective": 6982,
      "Ġà§§à§¯à§¦à§«": 6983,
      "Ġphotograph": 6984,
      "Ġcontaining": 6985,
      "Ġcommitte": 6986,
      "Ġbroadcast": 6987,
      "Ġelectric": 6988,
      "Ġnewslet": 6989,
      "Ġnewspap": 6990,
      "Ġlawy": 6991,
      "Ġannounce": 6992,
      "Ġincreasing": 6993,
      "5266": 6994,
      "89798": 6995,
      "9478": 6996,
      "Number": 6997,
      "Numerals": 6998,
      "aurus": 6999,
      "tops": 7000,
      "ylon": 7001,
      "Ġcalend": 7002,
      "Ġsouth": 7003,
      "Ġsynonym": 7004,
      "Ġpleas": 7005,
      "ĠâĬĤ": 7006,
      "ĠâĬĨ": 7007,
      "Ġeurop": 7008,
      "Ġbedroom": 7009,
      "Ġdraw": 7010,
      "Ġderivative": 7011,
      "arithms": 7012,
      "Ġmention": 7013,
      "Ġmagaz": 7014,
      "Ġwallpap": 7015,
      "Ġnecess": 7016,
      "Ġreplace": 7017,
      "Ġlicens": 7018,
      "Ġhousehold": 7019,
      "imbus": 7020,
      "Ġvacuum": 7021,
      "Ġversion": 7022,
      "Ġvirgin": 7023,
      "Ġthesaurus": 7024,
      "181818": 7025,
      "Ġdemonstr": 7026,
      "Ġsearch": 7027,
      "Ġnearly": 7028,
      "Ġsubtree": 7029,
      "Ġsubtrees": 7030,
      "Ġentire": 7031,
      "Ġbehav": 7032,
      "Ġbeginning": 7033,
      "Ġapproach": 7034,
      "Ġphysician": 7035,
      "Ġcontrol": 7036,
      "onstrandum": 7037,
      "Ġdescribes": 7038,
      "ĠComplementary": 7039,
      "Ġfriend": 7040,
      "Ġcorrect": 7041,
      "Ġcontribution": 7042,
      "Ġbasketball": 7043,
      "Ġmonths": 7044,
      "Ġadvertise": 7045,
      "âĨĴâĪŀ}": 7046,
      "3124": 7047,
      "92221": 7048,
      "Alpha": 7049,
      "Gamma": 7050,
      "aught": 7051,
      "bda": 7052,
      "Ġultim": 7053,
      "Ġensure": 7054,
      "Ġitems": 7055,
      "Ġ(,)": 7056,
      "Ġ(?)": 7057,
      "Ġathle": 7058,
      "Ġ-------": 7059,
      "Ġcandid": 7060,
      "Ġcopy": 7061,
      "Ġcredit": 7062,
      "Ġscho": 7063,
      "Ġpaper": 7064,
      "Ġâģµ": 7065,
      "Ġà¦ĸà¦¨à¦¨à¦Ĺ": 7066,
      "Ġbirth": 7067,
      "Ġdimension": 7068,
      "Ġdigital": 7069,
      "ĠAttention": 7070,
      "Ġmicro": 7071,
      "Ġmunafa": 7072,
      "Ġwonder": 7073,
      "Ġworkshop": 7074,
      "Ġnavig": 7075,
      "Ġinnov": 7076,
      "Ġlesbian": 7077,
      "Ġhonest": 7078,
      "Ġgeor": 7079,
      "Ġangel": 7080,
      "Ġantiqu": 7081,
      "ĠPartial": 7082,
      "Ġrapid": 7083,
      "ĠCirrus": 7084,
      "Ġtowns": 7085,
      "ĠDialogues": 7086,
      "ĠâĪĳ_{": 7087,
      "ĠThousands": 7088,
      "ĠImplies": 7089,
      "ĠNOT": 7090,
      "pervised": 7091,
      "ĠIndia": 7092,
      "Ġplatform": 7093,
      "Ġ###": 7094,
      "Ġsuperset": 7095,
      "Ġbuilt": 7096,
      "Ġchemical": 7097,
      "Ġtransformation": 7098,
      "clamation": 7099,
      "Ġameric": 7100,
      "Ġdifferent": 7101,
      "Ġcountry": 7102,
      "Ġconfirm": 7103,
      "Ġpartnership": 7104,
      "Ġvolunte": 7105,
      "Ġsymbols": 7106,
      "Ġdebtà¦£": 7107,
      "Ġhospital": 7108,
      "Ġmanufactur": 7109,
      "Hyperbolic": 7110,
      "636363": 7111,
      "727272": 7112,
      "96598": 7113,
      "Beta": 7114,
      "Butterflies": 7115,
      "Curl": 7116,
      "Calculus": 7117,
      "Divergence": 7118,
      "Electronic": 7119,
      "Equation": 7120,
      "Gradient": 7121,
      "John": 7122,
      "Lambda": 7123,
      "Logarithms": 7124,
      "Place": 7125,
      "Standard": 7126,
      "VALUE": 7127,
      "Variance": 7128,
      "burgh": 7129,
      "friend": 7130,
      "habilitation": 7131,
      "wareness": 7132,
      "|ÃĹ|": 7133,
      "Ġticket": 7134,
      "Ġà¦Ĩà¦ĩà¦ķà¦¨": 7135,
      "Ġà¦¨à¦ľà¦°à¦¦": 7136,
      "à¦īà¦ıà¦ĩà¦ļà¦ĵ": 7137,
      "Ġagricult": 7138,
      "Ġamaz": 7139,
      "Ġ118104": 7140,
      "Ġcitiz": 7141,
      "Ġfiber": 7142,
      "Ġfocus": 7143,
      "Ġfermentation": 7144,
      "Ġ37500000": 7145,
      "Ġbenefit": 7146,
      "Ġdatab": 7147,
      "Ġdiamond": 7148,
      "ĠAbsolute": 7149,
      "ĠAxiom": 7150,
      "Ġmortg": 7151,
      "abetes": 7152,
      "unctuation": 7153,
      "ĠBecause": 7154,
      "ĠProportional": 7155,
      "Ġvehic": 7156,
      "ĠCastor": 7157,
      "ĠClosed": 7158,
      "Ġisrael": 7159,
      "Ġtogether": 7160,
      "ĠSuperset": 7161,
      "âĤĤâĤĩ3": 7162,
      "ĠDemonstrandum": 7163,
      "ĠIdentically": 7164,
      "ĠFourth": 7165,
      "Ġjapan": 7166,
      "Ġjackson": 7167,
      "ĠNegation": 7168,
      "336459": 7169,
      "ĠMockingbird": 7170,
      "ĠMemory": 7171,
      "Ġaccommod": 7172,
      "ĠIndefinite": 7173,
      "Ġbeautiful": 7174,
      "Ġclauses": 7175,
      "Ġboolean": 7176,
      "Ġindepend": 7177,
      "ĠAdjacent": 7178,
      "ĠLogarithm": 7179,
      "141592653589793": 7180,
      "!=": 7181,
      "!).": 7182,
      "\".": 7183,
      "\"):": 7184,
      "#,": 7185,
      "']": 7186,
      "'m": 7187,
      "'re": 7188,
      "'),": 7189,
      "(\"": 7190,
      "()": 7191,
      "(^": 7192,
      "(âĪħ": 7193,
      "(âĪĽ": 7194,
      ")!": 7195,
      ")*": 7196,
      ")):": 7197,
      "))/(": 7198,
      ")!)": 7199,
      "+)": 7200,
      "-)": 7201,
      "-âĪļ": 7202,
      ".'": 7203,
      ".),": 7204,
      "/âĪĽ": 7205,
      "0Â²": 7206,
      "0Â³": 7207,
      "081": 7208,
      "040": 7209,
      "019": 7210,
      "0777": 7211,
      "084": 7212,
      "0831": 7213,
      "1100": 7214,
      "145": 7215,
      "132": 7216,
      "214": 7217,
      "266": 7218,
      "2âģ°": 7219,
      "2âģ¶": 7220,
      "2Â¹Â²": 7221,
      "325": 7222,
      "3125": 7223,
      "3Â¹": 7224,
      "370": 7225,
      "397": 7226,
      "3104": 7227,
      "4000": 7228,
      "499": 7229,
      "440": 7230,
      "5âģ´": 7231,
      "5000": 7232,
      "523": 7233,
      "550": 7234,
      "560": 7235,
      "5âģ°": 7236,
      "5âģ¶": 7237,
      "61": 7238,
      "6Â²": 7239,
      "633": 7240,
      "613": 7241,
      "628": 7242,
      "617": 7243,
      "65Â²": 7244,
      "700": 7245,
      "7100": 7246,
      "760": 7247,
      "7Â¹": 7248,
      "731": 7249,
      "763": 7250,
      "86": 7251,
      "87": 7252,
      "815": 7253,
      "8333": 7254,
      "80000": 7255,
      "912": 7256,
      "920": 7257,
      "960": 7258,
      "954": 7259,
      "9813": 7260,
      ":**": 7261,
      "=[": 7262,
      "=âĪļ": 7263,
      "=[(": 7264,
      "AX": 7265,
      "Ad": 7266,
      "Alish": 7267,
      "Alex": 7268,
      "Active": 7269,
      "Awareness": 7270,
      "BD": 7271,
      "Bay": 7272,
      "Base": 7273,
      "Boy": 7274,
      "CE": 7275,
      "Cl": 7276,
      "Co": 7277,
      "Cr": 7278,
      "Cent": 7279,
      "Com": 7280,
      "Cond": 7281,
      "Circ": 7282,
      "Cross": 7283,
      "Caring": 7284,
      "DB": 7285,
      "Di": 7286,
      "Dis": 7287,
      "Det": 7288,
      "Dot": 7289,
      "Dep": 7290,
      "Deriv": 7291,
      "Deo": 7292,
      "Definite": 7293,
      "Double": 7294,
      "EF": 7295,
      "EO": 7296,
      "EOR": 7297,
      "Emp": 7298,
      "Eating": 7299,
      "ENGLISH": 7300,
      "ECT": 7301,
      "FL": 7302,
      "Fi": 7303,
      "Fund": 7304,
      "GD": 7305,
      "GI": 7306,
      "GQ": 7307,
      "Gb": 7308,
      "Gir": 7309,
      "Good": 7310,
      "GCD": 7311,
      "Gills": 7312,
      "Here": 7313,
      "HEOR": 7314,
      "IP": 7315,
      "Is": 7316,
      "Imp": 7317,
      "Jam": 7318,
      "Jup": 7319,
      "LL": 7320,
      "LU": 7321,
      "Lp": 7322,
      "Lou": 7323,
      "Lim": 7324,
      "List": 7325,
      "Line": 7326,
      "Loc": 7327,
      "LANs": 7328,
      "ML": 7329,
      "MS": 7330,
      "Met": 7331,
      "Mod": 7332,
      "Math": 7333,
      "Machine": 7334,
      "Mean": 7335,
      "MAX": 7336,
      "NO": 7337,
      "Na": 7338,
      "Ne": 7339,
      "Nile": 7340,
      "OH": 7341,
      "OI": 7342,
      "Op": 7343,
      "Or": 7344,
      "OGI": 7345,
      "PQ": 7346,
      "PT": 7347,
      "Pa": 7348,
      "Perm": 7349,
      "Point": 7350,
      "Pacific": 7351,
      "QL": 7352,
      "QU": 7353,
      "RU": 7354,
      "Ro": 7355,
      "Rec": 7356,
      "Right": 7357,
      "Ref": 7358,
      "Rational": 7359,
      "ROM": 7360,
      "Random": 7361,
      "SO": 7362,
      "Sh": 7363,
      "So": 7364,
      "Sim": 7365,
      "Sol": 7366,
      "Sys": 7367,
      "SON": 7368,
      "SATION": 7369,
      "Square": 7370,
      "Slop": 7371,
      "Sci": 7372,
      "SEL": 7373,
      "Sustain": 7374,
      "SGD": 7375,
      "TP": 7376,
      "To": 7377,
      "Tr": 7378,
      "Ten": 7379,
      "Tab": 7380,
      "Tokenization": 7381,
      "Tube": 7382,
      "TRU": 7383,
      "VER": 7384,
      "Wide": 7385,
      "WANs": 7386,
      "WLED": 7387,
      "Yesterday": 7388,
      "])": 7389,
      "]*": 7390,
      "]+": 7391,
      "]<": 7392,
      "]à¥¤": 7393,
      "^âĪĴ(": 7394,
      "_(": 7395,
      "`.": 7396,
      "`).": 7397,
      "aa": 7398,
      "alo": 7399,
      "ael": 7400,
      "aut": 7401,
      "app": 7402,
      "aith": 7403,
      "aight": 7404,
      "aign": 7405,
      "aff": 7406,
      "aft": 7407,
      "affic": 7408,
      "aware": 7409,
      "atically": 7410,
      "ba": 7411,
      "bb": 7412,
      "bl": 7413,
      "bt": 7414,
      "bon": 7415,
      "bal": 7416,
      "bat": 7417,
      "bac": 7418,
      "bus": 7419,
      "bec": 7420,
      "bul": 7421,
      "bly": 7422,
      "bage": 7423,
      "bow": 7424,
      "bell": 7425,
      "bour": 7426,
      "bra": 7427,
      "bone": 7428,
      "bles": 7429,
      "bination": 7430,
      "bottle": 7431,
      "cti": 7432,
      "cing": 7433,
      "che": 7434,
      "cent": 7435,
      "cil": 7436,
      "cure": 7437,
      "cow": 7438,
      "care": 7439,
      "cies": 7440,
      "cue": 7441,
      "cient": 7442,
      "clop": 7443,
      "cape": 7444,
      "cending": 7445,
      "cover": 7446,
      "dy": 7447,
      "don": 7448,
      "ded": 7449,
      "dle": 7450,
      "del": 7451,
      "dam": 7452,
      "doc": 7453,
      "dings": 7454,
      "denti": 7455,
      "dney": 7456,
      "dnet": 7457,
      "drome": 7458,
      "ev": 7459,
      "ein": 7460,
      "eer": 7461,
      "eal": 7462,
      "ees": 7463,
      "eet": 7464,
      "eom": 7465,
      "eve": 7466,
      "ever": 7467,
      "eans": 7468,
      "eated": 7469,
      "eem": 7470,
      "elow": 7471,
      "eps": 7472,
      "eich": 7473,
      "eah": 7474,
      "fl": 7475,
      "fr": 7476,
      "fts": 7477,
      "function": 7478,
      "ford": 7479,
      "fend": 7480,
      "fast": 7481,
      "faction": 7482,
      "faces": 7483,
      "gon": 7484,
      "gen": 7485,
      "gal": 7486,
      "gent": 7487,
      "gow": 7488,
      "gare": 7489,
      "gia": 7490,
      "gary": 7491,
      "gely": 7492,
      "gles": 7493,
      "gonom": 7494,
      "grow": 7495,
      "grees": 7496,
      "gium": 7497,
      "hs": 7498,
      "hy": 7499,
      "hing": 7500,
      "hol": 7501,
      "hist": 7502,
      "hap": 7503,
      "how": 7504,
      "hak": 7505,
      "host": 7506,
      "hode": 7507,
      "hose": 7508,
      "house": 7509,
      "hotos": 7510,
      "hensive": 7511,
      "html": 7512,
      "hrome": 7513,
      "iet": 7514,
      "ios": 7515,
      "itic": 7516,
      "iour": 7517,
      "iors": 7518,
      "iences": 7519,
      "itics": 7520,
      "iency": 7521,
      "ilos": 7522,
      "iyom": 7523,
      "jet": 7524,
      "jack": 7525,
      "jection": 7526,
      "jLp": 7527,
      "kb": 7528,
      "kg": 7529,
      "kn": 7530,
      "kish": 7531,
      "kely": 7532,
      "kansas": 7533,
      "lf": 7534,
      "len": 7535,
      "lat": 7536,
      "lit": 7537,
      "lab": 7538,
      "lie": 7539,
      "lime": 7540,
      "limin": 7541,
      "lio": 7542,
      "lication": 7543,
      "liam": 7544,
      "lier": 7545,
      "lah": 7546,
      "life": 7547,
      "like": 7548,
      "lared": 7549,
      "luence": 7550,
      "lfriend": 7551,
      "mi": 7552,
      "mw": 7553,
      "men": 7554,
      "mas": 7555,
      "met": 7556,
      "mos": 7557,
      "map": 7558,
      "mens": 7559,
      "more": 7560,
      "mice": 7561,
      "most": 7562,
      "mond": 7563,
      "mended": 7564,
      "master": 7565,
      "missions": 7566,
      "migration": 7567,
      "ni": 7568,
      "nt": 7569,
      "nic": 7570,
      "not": 7571,
      "nly": 7572,
      "nif": 7573,
      "now": 7574,
      "night": 7575,
      "nals": 7576,
      "nels": 7577,
      "national": 7578,
      "nection": 7579,
      "new": 7580,
      "oen": 7581,
      "oor": 7582,
      "otion": 7583,
      "oing": 7584,
      "oom": 7585,
      "oid": 7586,
      "ove": 7587,
      "oop": 7588,
      "oons": 7589,
      "ober": 7590,
      "ooth": 7591,
      "ological": 7592,
      "obe": 7593,
      "opped": 7594,
      "oordin": 7595,
      "pm": 7596,
      "pan": 7597,
      "ped": 7598,
      "pat": 7599,
      "pet": 7600,
      "pel": 7601,
      "pts": 7602,
      "page": 7603,
      "pare": 7604,
      "pite": 7605,
      "pons": 7606,
      "post": 7607,
      "pond": 7608,
      "pose": 7609,
      "peat": 7610,
      "pension": 7611,
      "pret": 7612,
      "public": 7613,
      "rd": 7614,
      "ru": 7615,
      "rx": 7616,
      "ris": 7617,
      "rac": 7618,
      "ras": 7619,
      "ram": 7620,
      "rain": 7621,
      "ray": 7622,
      "rence": 7623,
      "rib": 7624,
      "rors": 7625,
      "rup": 7626,
      "rick": 7627,
      "rier": 7628,
      "rix": 7629,
      "rina": 7630,
      "rration": 7631,
      "rlogâĤĲM": 7632,
      "runs": 7633,
      "so": 7634,
      "son": 7635,
      "ses": 7636,
      "som": 7637,
      "sers": 7638,
      "sec": 7639,
      "stit": 7640,
      "self": 7641,
      "syn": 7642,
      "soft": 7643,
      "search": 7644,
      "subs": 7645,
      "smooth": 7646,
      "td": 7647,
      "tin": 7648,
      "tre": 7649,
      "tar": 7650,
      "tte": 7651,
      "tary": 7652,
      "tely": 7653,
      "tax": 7654,
      "tons": 7655,
      "tual": 7656,
      "tone": 7657,
      "tty": 7658,
      "town": 7659,
      "tood": 7660,
      "tcy": 7661,
      "tension": 7662,
      "ttp": 7663,
      "toms": 7664,
      "tkb": 7665,
      "uv": 7666,
      "uer": 7667,
      "uet": 7668,
      "uge": 7669,
      "uch": 7670,
      "uine": 7671,
      "uard": 7672,
      "uations": 7673,
      "uated": 7674,
      "uals": 7675,
      "utical": 7676,
      "uise": 7677,
      "uff": 7678,
      "utive": 7679,
      "ucks": 7680,
      "upper": 7681,
      "upervised": 7682,
      "vd": 7683,
      "vin": 7684,
      "van": 7685,
      "vro": 7686,
      "vas": 7687,
      "vad": 7688,
      "vant": 7689,
      "vard": 7690,
      "vels": 7691,
      "vision": 7692,
      "vival": 7693,
      "vamp": 7694,
      "viation": 7695,
      "wa": 7696,
      "wan": 7697,
      "wes": 7698,
      "wis": 7699,
      "wat": 7700,
      "went": 7701,
      "with": 7702,
      "wall": 7703,
      "what": 7704,
      "wart": 7705,
      "wear": 7706,
      "work": 7707,
      "wlet": 7708,
      "width": 7709,
      "wau": 7710,
      "wai": 7711,
      "wrote": 7712,
      "witter": 7713,
      "xual": 7714,
      "xford": 7715,
      "ya": 7716,
      "yo": 7717,
      "yon": 7718,
      "yan": 7719,
      "yed": 7720,
      "ych": 7721,
      "yst": 7722,
      "yph": 7723,
      "yles": 7724,
      "yond": 7725,
      "ybr": 7726,
      "ycling": 7727,
      "yxxx": 7728,
      "za": 7729,
      "zy": 7730,
      "zer": 7731,
      "zil": 7732,
      "zard": 7733,
      "zill": 7734,
      "zech": 7735,
      "zuel": 7736,
      "zeich": 7737,
      "|à¥¤": 7738,
      "}'": 7739,
      "};": 7740,
      "}\")": 7741,
      "®à¤ķ": 7742,
      "º)": 7743,
      "¾,": 7744,
      "ÌĤ": 7745,
      "ðŁ": 7746,
      "Ġtion": 7747,
      "Ġil": 7748,
      "Ġiv": 7749,
      "Ġion": 7750,
      "Ġà§Ģ,": 7751,
      "Ġ________": 7752,
      "Ġend": 7753,
      "Ġib": 7754,
      "Ġour": 7755,
      "Ġice": 7756,
      "Ġian": 7757,
      "Ġia": 7758,
      "ĠÎ¸": 7759,
      "Ġire": 7760,
      "Ġign": 7761,
      "Ġà§ģ,": 7762,
      "Ġong": 7763,
      "Ġome": 7764,
      "ĠQu": 7765,
      "Ġ%à¥¤": 7766,
      "Ġours": 7767,
      "Ġended": 7768,
      "Ġending": 7769,
      "Ġ...,": 7770,
      "Ġille": 7771,
      "Ġends": 7772,
      "Ġà¤ķ": 7773,
      "Ġ!=": 7774,
      "ĠðŁ": 7775,
      "Ģĺ": 7776,
      "ħĵ": 7777,
      "Ĵķ": 7778,
      "ŁĤ": 7779,
      "Ġà¦¾,": 7780,
      "à¦°à¦ŀ": 7781,
      "à¦°à¦®à¦¨": 7782,
      "à¦°à¦°à¦®": 7783,
      "à¦°à¦²à¦¤": 7784,
      "à§į.": 7785,
      "à§ĩ'": 7786,
      "à§ĩ.": 7787,
      "à§ĩ/": 7788,
      "à§ĩ;": 7789,
      "à§ĩ)à¥¤": 7790,
      "à§ĩ\",": 7791,
      "à¦¿.": 7792,
      "à¦¿;": 7793,
      "à¦¿^": 7794,
      "à¦¿à§ĩ": 7795,
      "à¦¿âĢĶ": 7796,
      "à¦¿**": 7797,
      "à¦¿\",": 7798,
      "à¦¿'à¥¤": 7799,
      "à¦¿],": 7800,
      "à¦¨à¦¤à¦°": 7801,
      "à¦¨à¦°à¦¤": 7802,
      "à¦¨à¦ľà¦¨": 7803,
      "à¦¨à¦ľà¦¨à¦ķ": 7804,
      "à¦¨à¦īà¦ĩà¦ļ": 7805,
      "à¦¤à¦¯": 7806,
      "à¦¤à¦¶": 7807,
      "à¦¤à¦ĩ": 7808,
      "à¦¤à¦¹": 7809,
      "à¦¤à¦¥": 7810,
      "à¦¤à¦ĵ": 7811,
      "à¦¤à¦¸à¦®": 7812,
      "à¦¯à¦ľ": 7813,
      "à¦¯à¦¤à¦¬": 7814,
      "à¦¯à¦°à¦¸": 7815,
      "à¦¯à¦®à¦¤": 7816,
      "à¦¯à¦¯à¦¨": 7817,
      "à¦¯à¦ªà¦¤": 7818,
      "à¦¯à¦ªà¦Ł": 7819,
      "à¦¯à¦Ĺà¦¤à¦Ń": 7820,
      "à¦ķà¦¹": 7821,
      "à¦ķà¦ļ": 7822,
      "à¦ķà¦°à¦¤": 7823,
      "à¦ķà¦ł": 7824,
      "à¦ķà¦Ļ": 7825,
      "à¦ķà¦°à¦¦": 7826,
      "à¦ķà¦®à¦¤": 7827,
      "à¦ķà¦¨à¦¸": 7828,
      "à¦ķà¦¨à¦ķ": 7829,
      "à¦ķà¦¨à¦¯": 7830,
      "à¦¬à¦®": 7831,
      "à¦¬à¦§": 7832,
      "à¦¬à¦°à¦¶": 7833,
      "à¦¬à¦ĵ": 7834,
      "à¦¬à¦°à¦ķ": 7835,
      "à¦¬à¦¤à¦®": 7836,
      "à¦¬à¦¬à¦¸": 7837,
      "à¦²à¦§": 7838,
      "à¦²à¦¥": 7839,
      "à¦²à¦ĵ": 7840,
      "à¦²à¦Łà¦Ĺ": 7841,
      "à¦²à¦Łà¦ķ": 7842,
      "à¦²à¦¸à¦ķ": 7843,
      "à¦²à¦ľà¦¯": 7844,
      "à¦²à¦¶à¦¬": 7845,
      "Ġà¦ķà¦ļ": 7846,
      "Ġà¦ķà¦¬à¦°": 7847,
      "Ġà¦ķà¦¤à¦¬": 7848,
      "Ġà¦ķà¦Łà¦«": 7849,
      "à¦®à¦ĵ": 7850,
      "à¦®à¦°à¦ķ": 7851,
      "à¦®à¦®à¦¨": 7852,
      "à¦®à¦Ļ": 7853,
      "à¦®à¦ĺ": 7854,
      "à¦®à¦¶à¦ķ": 7855,
      "à¦®à¦Ŀ": 7856,
      "à¦®à¦¹à¦¤": 7857,
      "à¦®à¦¸à¦²": 7858,
      "Ġà¦¸à¦¡": 7859,
      "Ġà¦¸à¦¬à¦²": 7860,
      "Ġà¦¸à¦¦à¦¯": 7861,
      "à¥į": 7862,
      "à¦Łà¦¹": 7863,
      "à¦Łà¦ĵ": 7864,
      "à¦Łà¦°à¦ķ": 7865,
      "à¦Łà¦ľà¦Ĺ": 7866,
      "à¦Łà¦°à¦¬": 7867,
      "à¦Łà¦ĵà§Ł": 7868,
      "à¦Łà¦¨à¦Ĺ": 7869,
      "à¦Łà¦²à¦¸": 7870,
      "à¦Łà¦§à¦°": 7871,
      "à§ģ\"": 7872,
      "à§ģ'": 7873,
      "à§ģ_": 7874,
      "à§ģ),": 7875,
      "à¦¼.": 7876,
      "à¦¼à¦¿à¥¤": 7877,
      "à¦¼'à¥¤": 7878,
      "à¦ªà¦¤à¦°": 7879,
      "à¦ªà¦¥": 7880,
      "à¦ªà¦ŀ": 7881,
      "à¦ªà¦ł": 7882,
      "à¦ªà¦¤à¦¨": 7883,
      "à¦ªà¦ķà¦°à¦£": 7884,
      "à¦ªà¦¦à¦ķ": 7885,
      "à¦ªà¦£à¦¤": 7886,
      "à¦ªà¦ķà¦°à¦£à¦¯": 7887,
      "à¦ªà¦²à¦®": 7888,
      "Ġà¦¬à¦£": 7889,
      "Ġà¦¬à¦°à¦£": 7890,
      "à¦¶à¦ĸ": 7891,
      "à¦¶à¦Ļ": 7892,
      "à¦¶à¦¦à¦Ł": 7893,
      "à¦¶à¦¤à¦²": 7894,
      "Ġà¦ıà¦¦": 7895,
      "Ġà¦ıà¦¥": 7896,
      "Ġà¦ıà¦Ľ": 7897,
      "Ġà¦ıà¦ľà¦¨": 7898,
      "Ġà¦ıà¦ŀ": 7899,
      "Ġà¦ıà¦²à¦Ĺ": 7900,
      "Ġà¦ªà¦¨": 7901,
      "Ġà¦ªà¦®": 7902,
      "Ġà¦ªà¦Ł": 7903,
      "Ġà¦ªà¦Ļ": 7904,
      "Ġà¦ªà¦²à¦ķ": 7905,
      "Ġà¦ªà¦¥à¦¨": 7906,
      "Ġà¦ªà¦¥à¦ķ": 7907,
      "Ġà¦ªà¦²à¦Ĺ": 7908,
      "Ġà¦ªà¦²à¦®": 7909,
      "Ġà¦ªà¦ªà¦²": 7910,
      "à¦¦à¦¤": 7911,
      "à¦¦à¦¨à¦Ł": 7912,
      "à¦¦à¦¶à¦ķ": 7913,
      "à¦¦à¦¯à¦¨": 7914,
      "à¦¦à¦ªà¦¤": 7915,
      "à¦¦à¦Ĺà¦¤à¦Ń": 7916,
      "à¦¸à¦ĩ": 7917,
      "à¦¸à¦ł": 7918,
      "à¦¸à¦Ĩ": 7919,
      "à¦¸à¦ķà¦Ń": 7920,
      "à¦¸à¦¯à¦¨": 7921,
      "à¦¸à¦ĵà§Ł": 7922,
      "à¦¸à¦ıà¦²": 7923,
      "à¦¸à¦ıà¦ıà¦ıà¦ıà¦ıà¦ıà¦ıà¦ıà¦ıà¦ıà¦ıà¦ıà¦ıà¦ıà¦ıà¦ıà¦ıà¦ıà¦ıà¦ıà¦ıà¦ıà¦ıà¦ıà¦ıà¦ıà¦ıà¦ıà¦ıà¦ıà¦ıà¦ıà¦ıà¦ıà¦ıà¦ıà¦ıà¦ıà¦ıà¦ıà¦ıà¦ıà¦ıà¦ıà¦ıà¦ıà¦ıà¦ıà¦ıà¦ıà¦ıà¦ıà¦ıà¦ıà¦ıà¦ıà¦ıà¦ıà¦ıà¦ıà¦ıà¦ıà¦ıà¦ıà¦ıà¦ıà¦ıà¦ıà¦ıà¦ıà¦ıà¦ıà¦ıà¦ıà¦ıà¦ıà¦ıà¦ıà¦ıà¦ıà¦ıà¦ıà¦ıà¦ıà¦ıà¦ıà¦ıà¦ıà¦ıà¦ıà¦ıà¦ıà¦ıà¦ıà¦ıà¦ıà¦ıà¦ıà¦ıà¦ıà¦ıà¦ıà¦ıà¦ıà¦ıà¦ıà¦ıà¦ıà¦ıà¦ıà¦ıà¦ıà¦ıà¦ıà¦ıà¦ıà¦ıà¦ıà¦ıà¦ıà¦ıà¦ıà¦ıà¦ıà¦ıà¦ıà¦ıà¦ı": 7924,
      "à¦¸à¤ķ": 7925,
      "à¦¸à¦ıà¦®à¦Ĩà¦°": 7926,
      "à¦Ĥ'": 7927,
      "à¦Ĥ'à¥¤": 7928,
      "à§Ģ'": 7929,
      "à§Ģ.": 7930,
      "à§Ģ_": 7931,
      "à§Ģ),": 7932,
      "à¦Ĺà¦ĩ": 7933,
      "à¦Ĺà¦¹": 7934,
      "à¦Ĺà¦ĵ": 7935,
      "à¦Ĺà¦°à¦ķ": 7936,
      "à¦Ĺà¦ŀ": 7937,
      "à¦Ĺà§İ": 7938,
      "à¦Ĺà§ľ": 7939,
      "à¦Ĺà¦¨à¦ķ": 7940,
      "à¦Ĺà¦®à¦¯": 7941,
      "à¦Ĺà¦ľà¦¨à¦ķ": 7942,
      "à¦£à¦ľ": 7943,
      "à¦£à¦ĺ": 7944,
      "à¦£à¦Ĺà¦¤": 7945,
      "à¦£à¦®à¦¯": 7946,
      "à¦·à¦¨": 7947,
      "à¦·à¦¸": 7948,
      "à¦·à¦°à¦£": 7949,
      "à¦·à¦°à¦Ł": 7950,
      "à¦·à¦¤à¦®": 7951,
      "à¦·à¦°à¦Ĺ": 7952,
      "à¦·à§Łà¦ķ": 7953,
      "à¦·à¦²à¦§": 7954,
      "Ġà¦ħà¦¯à¦¤": 7955,
      "Ġà¦ħà¦²à¦¸": 7956,
      "Ġà¦ħà¦Łà¦²": 7957,
      "Ġà¦ħà¦¯à¦¥": 7958,
      "Ġà¦ħà¦¹à¦®": 7959,
      "Ġà¦®à¦ķ": 7960,
      "Ġà¦®à¦Ĺ": 7961,
      "Ġà¦®à¦ĸ": 7962,
      "Ġà¦®à¦°à¦£": 7963,
      "Ġà¦®à¦«": 7964,
      "Ġà¦®à¦²à¦®": 7965,
      "à¦§à¦²": 7966,
      "à¦§à¦¹": 7967,
      "à¦§à¦ķà¦¤": 7968,
      "Ġà¦¤à¦¤à¦¬": 7969,
      "Ġà¦¤à¦²à¦¦": 7970,
      "Ġà¦¤à¦¤à¦ķ": 7971,
      "Ġà¦Ĩà¦¨à¦¬": 7972,
      "Ġà¦Ĩà¦¹à¦°à¦£": 7973,
      "Ġà¦Ĩà¦ªà¦¤": 7974,
      "Ġà¦Ĩà¦ĩà¦ľ": 7975,
      "Ġà¦Ĩà¦ªà¦Ĺ": 7976,
      "Ġà¦Ĩà¦Łà¦²": 7977,
      "Ġà¦¹à¦Ł": 7978,
      "Ġà¦¹à¦ĩ": 7979,
      "Ġà¦¹à¦ĵ": 7980,
      "Ġà¦¹à¦°à¦£": 7981,
      "Ġà¦¹à¦ĩà¦¨": 7982,
      "Ġà¦¹à¦ķà¦²": 7983,
      "Ġà¦¹à¦ľà¦®": 7984,
      "Ġà¦¦à¦¨": 7985,
      "Ġà¦¦à¦¸": 7986,
      "Ġà¦¦à¦ĩ": 7987,
      "Ġà¦¦à¦®à¦¨": 7988,
      "Ġà¦¨à¦ĸ": 7989,
      "Ġà¦¨à¦¡": 7990,
      "Ġà¦¨à¦ķà¦²": 7991,
      "Ġà¦¨à¦®à¦¸": 7992,
      "Ġà¦¨à¦ĵà¦Ĺ": 7993,
      "à¦ľà¦ª": 7994,
      "à¦ľà¦¤à¦¨": 7995,
      "à¦ľà¦Ĺà¦¤": 7996,
      "à¦ľà¦ķà¦°": 7997,
      "à¦ľà¦ķà¦Ł": 7998,
      "à¦¤à¦°à¦®": 7999,
      "à¦¤à¦°à¦¦à¦°": 8000,
      "à¦¤à¦°à¦£à¦¯": 8001,
      "à¦īà¦¯": 8002,
      "à¦īà¦ľà¦Ĺ": 8003,
      "à¦īà¦ĩà¦²": 8004,
      "à¦īà¦¨à¦²": 8005,
      "à¦īà¦¸à¦¨": 8006,
      "à¦īà¦ıà¦²": 8007,
      "à¦īà¦²à¦®": 8008,
      "à¦īà¦¬à¦Ĺ": 8009,
      "à¦īà¦ªà¦²à¦®": 8010,
      "à¦ĩà¦ļ": 8011,
      "à¦ĩà¦Ľ": 8012,
      "à¦ĩà¦ľà¦¨": 8013,
      "à¦ĩà¦²à¦ķ": 8014,
      "à¦ĩà¦ķà¦°à¦£": 8015,
      "à¦ĩà¦īà¦¨": 8016,
      "à¦°à¦¶à¦®à¦¨": 8017,
      "à¦ĸà¦°": 8018,
      "à¦ĸà¦Ł": 8019,
      "à¦ĸà¦ª": 8020,
      "à¦ĸà¦¸": 8021,
      "à¦ĸà¦ķà¦°": 8022,
      "à¦ĸà¦°à¦ļ": 8023,
      "à¦ĸà¦²à¦Ĺ": 8024,
      "à¦Ńà¦Ł": 8025,
      "à¦Ńà¦°à¦ķ": 8026,
      "à§Łà¦¨": 8027,
      "Ġà¦ıà¦ķà¦¯": 8028,
      "Ġà¦ıà¦ķà¦ľ": 8029,
      "Ġà¦ıà¦ķà¦Ń": 8030,
      "Ġà¦ıà¦ķà¦ªà¦¦": 8031,
      "Ġà¦ıà¦ķà¦¶à¦¤": 8032,
      "Ġà¦¯à¦®": 8033,
      "Ġà¦¯à¦¤à¦¬": 8034,
      "Ġà¦īà¦¯": 8035,
      "Ġà¦īà¦Ł": 8036,
      "Ġà¦īà¦ĩà¦²": 8037,
      "Ġà¦īà§ľ": 8038,
      "Ġà¦īà¦ĩà¦¸": 8039,
      "à¦¹à¦¯": 8040,
      "à¦¹à¦Ł": 8041,
      "à¦¹à¦ª": 8042,
      "à¦¹à§İ": 8043,
      "à¦¹à¦°à¦®": 8044,
      "à¦¹à¦£à¦ķ": 8045,
      "à¦¹à¦ľà¦¨à¦ķ": 8046,
      "à¦¥à¦Ł": 8047,
      "à¦¥à¦ª": 8048,
      "à¦¥à¦Ĺ": 8049,
      "à¦¥à¦Ń": 8050,
      "à¦¥à¦¹": 8051,
      "à¦¥à¦Ĺà¦¤": 8052,
      "à¦¥à¦ķà¦°": 8053,
      "à¦¥à¦²à¦Ĺ": 8054,
      "Ġà¦ľà¦¸à¦¨": 8055,
      "Ġà¦ľà¦ĺà¦¨": 8056,
      "Ġà¦ľà¦Ĺà§İ": 8057,
      "Ġxl": 8058,
      "Ġxp": 8059,
      "Ġxbo": 8060,
      "Ġxml": 8061,
      "Ġxhtml": 8062,
      "à¦ļà¦¡": 8063,
      "à¦ļà¦°à¦£": 8064,
      "à¦ļà¦²à¦ķ": 8065,
      "à¦ļà¦²à¦Ĺ": 8066,
      "Ġà¦¸à¦®à¦Ĺ": 8067,
      "Ġà¦¸à¦®à¦Ĩà¦¯": 8068,
      "à¦Ľà¦ķ": 8069,
      "à¦Ľà¦¬": 8070,
      "à¦Ľà¦ªà¦ķ": 8071,
      "à¦¼à¦¾\"": 8072,
      "à¦¼à¦¾à¦Ĥ": 8073,
      "à¦¼à¦¾âĢĶ": 8074,
      "à§ĩà¥¤-": 8075,
      "Ġà¦Ńà¦¦": 8076,
      "Ġà¦Ńà¦°à¦ķ": 8077,
      "Ġà¦°à¦¹": 8078,
      "Ġà¦°à¦ĩà¦²": 8079,
      "Ġà¦°à¦¬à¦¸": 8080,
      "Ġà¦°à¦ļà¦¯": 8081,
      "Ġà¦°à¦¸à¦ķ": 8082,
      "Ġà¦°à¦®à¦ľ": 8083,
      "à¦¼à§ĩ...": 8084,
      "à¦ıà¦¯": 8085,
      "à¦ıà¦¨à¦¬": 8086,
      "à¦ıà¦¸à¦ıà¦ķ": 8087,
      "à¦ıà¦¨à¦ķ": 8088,
      "à¦ıà¦²à¦Ł": 8089,
      "à¦ıà¦²à¦¸": 8090,
      "à¦¡à¦¯": 8091,
      "à¦¡à¦¶": 8092,
      "à¦¡à¦ľ": 8093,
      "à¦¡à¦¡": 8094,
      "à¦¡à¦«": 8095,
      "à¦¡à¦ĵà§Ł": 8096,
      "à¦¡à¦²à¦Ĺ": 8097,
      "à¦¡à¦īà¦ĩà¦ļ": 8098,
      "Ġà¦Ĺà¦¯": 8099,
      "Ġà¦Ĺà¦Ĺ": 8100,
      "Ġà¦Ĺà¦¹": 8101,
      "Ġà¦Ĺà¦Ĺà¦²": 8102,
      "Ġà¦Ĺà§ľ": 8103,
      "à¦ĵà¦¤": 8104,
      "à¦ĵà¦ıà¦¸": 8105,
      "Ġà¦Ĩà¦®à¦²": 8106,
      "Ġ('": 8107,
      "Ġ(Â°": 8108,
      "Ġ(\")": 8109,
      "Ġ(âĪĳ": 8110,
      "Ġ(')": 8111,
      "Ġ(!).": 8112,
      "Ġ(#,": 8113,
      "Ġ(.),": 8114,
      "Ġà¦²à¦ŀ": 8115,
      "à¦°à¦£à¦®": 8116,
      "à¦°à¦£à¦¸": 8117,
      "à¦°à¦£à¦¹": 8118,
      "Ġà¦ĵà¦°": 8119,
      "Ġà¦ĵà§ľ": 8120,
      "Ġà¦ĵà¦²à¦®": 8121,
      "Ġà¦ļà¦²à¦¬": 8122,
      "Ġà¦ļà¦®à¦ķ": 8123,
      "Ġà¦ļà¦Łà¦ķ": 8124,
      "ini": 8125,
      "inet": 8126,
      "inos": 8127,
      "inion": 8128,
      "inch": 8129,
      "inian": 8130,
      "inations": 8131,
      "incess": 8132,
      "inner": 8133,
      "inery": 8134,
      "inyl": 8135,
      "inburgh": 8136,
      "Ġaa": 8137,
      "Ġae": 8138,
      "Ġah": 8139,
      "Ġai": 8140,
      "Ġau": 8141,
      "Ġaz": 8142,
      "Ġace": 8143,
      "Ġaol": 8144,
      "Ġage": 8145,
      "Ġave": 8146,
      "Ġaust": 8147,
      "Ġams": 8148,
      "Ġaven": 8149,
      "Ġaware": 8150,
      "Ġactions": 8151,
      "Ġaway": 8152,
      "Ġaâģ¿": 8153,
      "Ġahead": 8154,
      "Ġauction": 8155,
      "Ġauctions": 8156,
      "Ġaaron": 8157,
      "Ġawareness": 8158,
      "Ġawes": 8159,
      "Ġà¦ħà¦§à¦°à¦ª": 8160,
      "Ġà¦ľà¦¨à¦Ĺ": 8161,
      "Ġà¦ľà¦¨à¦¡": 8162,
      "Ġà¦ľà¦¨à¦®à¦¤": 8163,
      "erk": 8164,
      "erts": 8165,
      "eria": 8166,
      "erning": 8167,
      "erty": 8168,
      "erative": 8169,
      "erpt": 8170,
      "erbottle": 8171,
      "oni": 8172,
      "onus": 8173,
      "onts": 8174,
      "onsin": 8175,
      "onics": 8176,
      "onents": 8177,
      "onials": 8178,
      "onto": 8179,
      "onna": 8180,
      "onucle": 8181,
      "onimbus": 8182,
      "Ġ-(": 8183,
      "Ġ-âĪļ": 8184,
      "Ġà¦ħà¦¨à¦§": 8185,
      "tian": 8186,
      "tition": 8187,
      "tige": 8188,
      "tider": 8189,
      "tives": 8190,
      "tise": 8191,
      "till": 8192,
      "tify": 8193,
      "tified": 8194,
      "tigation": 8195,
      "Ġ1Â²": 8196,
      "Ġ115": 8197,
      "Ġ160": 8198,
      "Ġ190": 8199,
      "Ġ13Â²": 8200,
      "Ġ14Â²": 8201,
      "Ġà¦«à¦ķ": 8202,
      "Ġà¦«à¦²à¦ķ": 8203,
      "Ġà¦«à¦ľà¦°": 8204,
      "lore": 8205,
      "lour": 8206,
      "lots": 8207,
      "loper": 8208,
      "look": 8209,
      "loads": 8210,
      "Ġca": 8211,
      "Ġcb": 8212,
      "Ġcc": 8213,
      "Ġcd": 8214,
      "Ġcf": 8215,
      "Ġcm": 8216,
      "Ġcs": 8217,
      "Ġct": 8218,
      "Ġcv": 8219,
      "Ġcab": 8220,
      "Ġcur": 8221,
      "Ġcad": 8222,
      "Ġcod": 8223,
      "Ġcate": 8224,
      "Ġcub": 8225,
      "Ġcens": 8226,
      "Ġcss": 8227,
      "Ġcst": 8228,
      "Ġcord": 8229,
      "Ġcial": 8230,
      "Ġcore": 8231,
      "Ġcine": 8232,
      "Ġcard": 8233,
      "Ġcass": 8234,
      "Ġcable": 8235,
      "Ġcem": 8236,
      "Ġcrop": 8237,
      "Ġcup": 8238,
      "Ġcities": 8239,
      "Ġcents": 8240,
      "Ġcath": 8241,
      "Ġcash": 8242,
      "Ġcute": 8243,
      "Ġcours": 8244,
      "Ġcited": 8245,
      "Ġcoding": 8246,
      "Ġcause": 8247,
      "Ġcinc": 8248,
      "Ġcases": 8249,
      "Ġcaf": 8250,
      "Ġcables": 8251,
      "Ġcached": 8252,
      "Ġceo": 8253,
      "Ġcrow": 8254,
      "Ġcards": 8255,
      "Ġcnet": 8256,
      "Ġcodes": 8257,
      "Ġcateg": 8258,
      "Ġcake": 8259,
      "Ġcreek": 8260,
      "Ġcds": 8261,
      "Ġcache": 8262,
      "Ġcvs": 8263,
      "Ġcisco": 8264,
      "Ġcaught": 8265,
      "Ġczech": 8266,
      "Ġà§§Â²": 8267,
      "Ġsb": 8268,
      "Ġsd": 8269,
      "Ġsf": 8270,
      "Ġsi": 8271,
      "Ġss": 8272,
      "Ġsor": 8273,
      "Ġsan": 8274,
      "Ġsar": 8275,
      "Ġsac": 8276,
      "Ġsom": 8277,
      "Ġsad": 8278,
      "Ġsir": 8279,
      "Ġstic": 8280,
      "Ġsess": 8281,
      "Ġsand": 8282,
      "Ġsss": 8283,
      "Ġsure": 8284,
      "Ġsend": 8285,
      "Ġsiz": 8286,
      "Ġsight": 8287,
      "Ġside": 8288,
      "Ġsie": 8289,
      "Ġsample": 8290,
      "Ġsons": 8291,
      "Ġsund": 8292,
      "Ġsong": 8293,
      "Ġsms": 8294,
      "Ġsick": 8295,
      "Ġself": 8296,
      "Ġsolve": 8297,
      "Ġsony": 8298,
      "Ġstem": 8299,
      "Ġsier": 8300,
      "Ġsurface": 8301,
      "Ġstep": 8302,
      "Ġsays": 8303,
      "Ġsix": 8304,
      "Ġsense": 8305,
      "Ġsize": 8306,
      "Ġsized": 8307,
      "Ġsri": 8308,
      "Ġsampl": 8309,
      "Ġsites": 8310,
      "Ġsams": 8311,
      "Ġsoci": 8312,
      "Ġsamples": 8313,
      "Ġsale": 8314,
      "Ġsigma": 8315,
      "Ġsending": 8316,
      "Ġsectors": 8317,
      "Ġslot": 8318,
      "Ġsister": 8319,
      "Ġsession": 8320,
      "Ġsongs": 8321,
      "Ġsector": 8322,
      "Ġsource": 8323,
      "Ġsql": 8324,
      "Ġssl": 8325,
      "Ġsaint": 8326,
      "Ġsanta": 8327,
      "Ġsources": 8328,
      "Ġsustain": 8329,
      "Ġsought": 8330,
      "Ġsmooth": 8331,
      "Ġsnow": 8332,
      "Ġstill": 8333,
      "Ġslots": 8334,
      "à¦°à¦ķà¦¤": 8335,
      "à¦°à¦ķà¦ķ": 8336,
      "ena": 8337,
      "enes": 8338,
      "enge": 8339,
      "enly": 8340,
      "ench": 8341,
      "enue": 8342,
      "enry": 8343,
      "encies": 8344,
      "ennif": 8345,
      "Ġ210": 8346,
      "Ġ2000": 8347,
      "Ġ250": 8348,
      "Ġ2Â¹": 8349,
      "Ġ217": 8350,
      "à¦ªà¦¨à¦ľ": 8351,
      "à¦°à¦¤à¦¤": 8352,
      "à¦°à¦¤à¦²": 8353,
      "Ġà¦Ľà§Ł": 8354,
      "Ġà¦Ľà¦Łà¦«": 8355,
      "rek": 8356,
      "rew": 8357,
      "reed": 8358,
      "reation": 8359,
      "rets": 8360,
      "reate": 8361,
      "rete": 8362,
      "rement": 8363,
      "rest": 8364,
      "rease": 8365,
      "recom": 8366,
      "reads": 8367,
      "reci": 8368,
      "rejected": 8369,
      "recision": 8370,
      "refresh": 8371,
      "regon": 8372,
      "rehensive": 8373,
      "repeat": 8374,
      "Ġta": 8375,
      "Ġtd": 8376,
      "Ġtm": 8377,
      "Ġtn": 8378,
      "Ġts": 8379,
      "Ġtt": 8380,
      "Ġtu": 8381,
      "Ġtv": 8382,
      "Ġtx": 8383,
      "Ġtor": 8384,
      "Ġtes": 8385,
      "Ġtou": 8386,
      "Ġtel": 8387,
      "Ġtos": 8388,
      "Ġtay": 8389,
      "Ġtend": 8390,
      "Ġtort": 8391,
      "Ġtue": 8392,
      "Ġtons": 8393,
      "Ġtail": 8394,
      "Ġtone": 8395,
      "Ġtrop": 8396,
      "Ġtold": 8397,
      "Ġtough": 8398,
      "Ġtues": 8399,
      "Ġtony": 8400,
      "Ġtours": 8401,
      "Ġtests": 8402,
      "Ġtables": 8403,
      "Ġtape": 8404,
      "Ġtones": 8405,
      "Ġtask": 8406,
      "Ġtamp": 8407,
      "Ġtoll": 8408,
      "Ġtube": 8409,
      "Ġtrees": 8410,
      "Ġtested": 8411,
      "Ġtai": 8412,
      "Ġtune": 8413,
      "Ġtvs": 8414,
      "Ġtrem": 8415,
      "Ġtaught": 8416,
      "Ġtrek": 8417,
      "002": 8418,
      "009813": 8419,
      "logy": 8420,
      "âĪĴ?": 8421,
      "à¦¯à¦¬à¦¯": 8422,
      "à¦¯à¦¬à¦ĩ": 8423,
      "Ġpg": 8424,
      "Ġpp": 8425,
      "Ġpt": 8426,
      "Ġpin": 8427,
      "Ġpit": 8428,
      "Ġpet": 8429,
      "Ġpad": 8430,
      "Ġpod": 8431,
      "Ġpion": 8432,
      "Ġpage": 8433,
      "Ġpure": 8434,
      "Ġpst": 8435,
      "Ġpine": 8436,
      "Ġpiz": 8437,
      "Ġpour": 8438,
      "Ġpok": 8439,
      "Ġpian": 8440,
      "Ġpak": 8441,
      "Ġpie": 8442,
      "Ġpoc": 8443,
      "Ġpace": 8444,
      "Ġpenti": 8445,
      "Ġpear": 8446,
      "Ġpercent": 8447,
      "Ġpup": 8448,
      "Ġpics": 8449,
      "Ġpeter": 8450,
      "Ġpath": 8451,
      "Ġpants": 8452,
      "Ġpier": 8453,
      "Ġpix": 8454,
      "Ġpages": 8455,
      "Ġpink": 8456,
      "Ġports": 8457,
      "Ġposter": 8458,
      "Ġpull": 8459,
      "Ġpets": 8460,
      "Ġpension": 8461,
      "Ġpythag": 8462,
      "Ġpci": 8463,
      "Ġpuzz": 8464,
      "Ġpacks": 8465,
      "Ġpending": 8466,
      "Ġplot": 8467,
      "Ġpump": 8468,
      "Ġpunk": 8469,
      "Ġpinn": 8470,
      "Ġpacific": 8471,
      "Ġpush": 8472,
      "Ġpanty": 8473,
      "Ġpunctuation": 8474,
      "Ġpuer": 8475,
      "à¦«à¦¯": 8476,
      "à¦«à¦¸": 8477,
      "à¦«à¦¡": 8478,
      "à¦ľà¦¨à¦Ł": 8479,
      "à¦ľà¦¨à¦¦": 8480,
      "à¦ľà¦¨à¦¸": 8481,
      "Ġà¦ĺà¦¨à¦®": 8482,
      "ĠâĢĺ": 8483,
      "Ġâħĵ": 8484,
      "ĠâŁĤ": 8485,
      "à¦ŀà¦¦": 8486,
      "à¦¬à¦¨à¦®": 8487,
      "à¦¬à¦¨à¦Ĺ": 8488,
      "à¦¬à¦¨à¦§": 8489,
      "Ġà¦ĩà¦¶": 8490,
      "Ġà¦ĩà¦Ĺ": 8491,
      "Ġà¦ĩà¦ľ": 8492,
      "Ġà¦ĩà¦īà¦ľ": 8493,
      "Ġà¦ĩà¦īà¦¡": 8494,
      "Ġà¦ĩà¦ĵà¦°": 8495,
      "Ġà¦ĩà¦ĵà¦ıà¦¸": 8496,
      "orn": 8497,
      "oric": 8498,
      "oras": 8499,
      "orce": 8500,
      "orol": 8501,
      "orter": 8502,
      "orage": 8503,
      "oria": 8504,
      "orpor": 8505,
      "orrow": 8506,
      "ornia": 8507,
      "ana": 8508,
      "anent": 8509,
      "antic": 8510,
      "anies": 8511,
      "anish": 8512,
      "anches": 8513,
      "anagr": 8514,
      "anistan": 8515,
      "ald": 8516,
      "aly": 8517,
      "alia": 8518,
      "allow": 8519,
      "alph": 8520,
      "alty": 8521,
      "alays": 8522,
      "alize": 8523,
      "alink": 8524,
      "à¦¼à¥¤\"": 8525,
      "à¦ıà¦®à¦¬": 8526,
      "Ġà¦¸à¦°à¦¬": 8527,
      "esh": 8528,
      "esus": 8529,
      "estiv": 8530,
      "esides": 8531,
      "estern": 8532,
      "esale": 8533,
      "esidual": 8534,
      "escent": 8535,
      "à¦łà¦ķ": 8536,
      "à¦łà¦ª": 8537,
      "à¦łà¦Ĺ": 8538,
      "à¦łà¦ķà¦¦": 8539,
      "à¦¬à¦°à¦Ł": 8540,
      "à¦¬à¦°à¦Ĺ": 8541,
      "à¦ıà¦®à¦ıà¦®à¦ıà¦®": 8542,
      "à¦ĥ-": 8543,
      "Ġfc": 8544,
      "Ġff": 8545,
      "Ġfi": 8546,
      "Ġfm": 8547,
      "Ġft": 8548,
      "Ġfw": 8549,
      "Ġfy": 8550,
      "Ġfan": 8551,
      "Ġfis": 8552,
      "Ġfar": 8553,
      "Ġfat": 8554,
      "Ġfle": 8555,
      "Ġfic": 8556,
      "Ġfab": 8557,
      "Ġfly": 8558,
      "Ġfif": 8559,
      "Ġfoun": 8560,
      "Ġfell": 8561,
      "Ġfine": 8562,
      "Ġfurn": 8563,
      "Ġfans": 8564,
      "Ġface": 8565,
      "Ġfits": 8566,
      "Ġfax": 8567,
      "Ġfem": 8568,
      "Ġfear": 8569,
      "Ġfive": 8570,
      "Ġfred": 8571,
      "Ġfile": 8572,
      "Ġfash": 8573,
      "Ġfame": 8574,
      "Ġfoster": 8575,
      "Ġfoto": 8576,
      "Ġfull": 8577,
      "Ġfisc": 8578,
      "Ġfather": 8579,
      "Ġfox": 8580,
      "Ġfont": 8581,
      "Ġfaster": 8582,
      "Ġfotos": 8583,
      "Ġfresh": 8584,
      "Ġfuel": 8585,
      "Ġfusion": 8586,
      "Ġflying": 8587,
      "Ġfault": 8588,
      "Ġftp": 8589,
      "Ġfinger": 8590,
      "Ġfully": 8591,
      "Ġfuture": 8592,
      "Ġfraud": 8593,
      "Ġfaith": 8594,
      "Ġfonts": 8595,
      "Ġfestiv": 8596,
      "Ġà¦ĸà¦°": 8597,
      "Ġà¦ĸà¦ľà¦¨à¦ķ": 8598,
      "isis": 8599,
      "isure": 8600,
      "isition": 8601,
      "isode": 8602,
      "isms": 8603,
      "isory": 8604,
      "istics": 8605,
      "isdom": 8606,
      "isdiction": 8607,
      "Ġà¦§à¦¡": 8608,
      "à¦¾à¥¤-": 8609,
      "à¦ĩà¦¨à¦¬": 8610,
      "à¦ĩà¦¨à¦²": 8611,
      "Ġà¦¡à¦¬": 8612,
      "Ġ34": 8613,
      "Ġ38": 8614,
      "Ġ324": 8615,
      "Ġ3125": 8616,
      "Ġ378": 8617,
      "Ġà¦īà¦ªà¦¦": 8618,
      "Ġà¦īà¦ªà¦ľ": 8619,
      "Ġà¦īà¦ªà¦²à¦Ń": 8620,
      "Ġea": 8621,
      "Ġee": 8622,
      "Ġef": 8623,
      "Ġeur": 8624,
      "Ġeve": 8625,
      "Ġech": 8626,
      "Ġease": 8627,
      "Ġeag": 8628,
      "Ġeight": 8629,
      "Ġeast": 8630,
      "Ġether": 8631,
      "Ġearr": 8632,
      "Ġeating": 8633,
      "Ġeither": 8634,
      "Ġepson": 8635,
      "Ġepsilon": 8636,
      "Ġecomm": 8637,
      "à¦®à¦¨à¦Ł": 8638,
      "à§İà¦¬": 8639,
      "à¦Ļà¦¤": 8640,
      "à¦Ļà¦¬": 8641,
      "à¦Ļà¦²": 8642,
      "Ġbb": 8643,
      "Ġbi": 8644,
      "Ġbs": 8645,
      "Ġbt": 8646,
      "Ġbin": 8647,
      "Ġben": 8648,
      "Ġbit": 8649,
      "Ġbil": 8650,
      "Ġbad": 8651,
      "Ġbod": 8652,
      "Ġbay": 8653,
      "Ġbure": 8654,
      "Ġbow": 8655,
      "Ġbell": 8656,
      "Ġbib": 8657,
      "Ġbiz": 8658,
      "Ġball": 8659,
      "Ġbest": 8660,
      "Ġbass": 8661,
      "Ġbak": 8662,
      "Ġbish": 8663,
      "Ġbbc": 8664,
      "Ġbits": 8665,
      "Ġbra": 8666,
      "Ġbrea": 8667,
      "Ġbang": 8668,
      "Ġblow": 8669,
      "Ġbost": 8670,
      "Ġbone": 8671,
      "Ġbind": 8672,
      "Ġbold": 8673,
      "Ġboss": 8674,
      "Ġbars": 8675,
      "Ġbible": 8676,
      "Ġbands": 8677,
      "Ġbests": 8678,
      "Ġbedding": 8679,
      "Ġbike": 8680,
      "Ġbody": 8681,
      "Ġbills": 8682,
      "Ġborder": 8683,
      "Ġbache": 8684,
      "Ġbunch": 8685,
      "Ġbott": 8686,
      "Ġbottle": 8687,
      "Ġbought": 8688,
      "Ġbmw": 8689,
      "Ġbonus": 8690,
      "Ġborn": 8691,
      "Ġbesides": 8692,
      "Ġdb": 8693,
      "Ġdc": 8694,
      "Ġdd": 8695,
      "Ġdj": 8696,
      "Ġds": 8697,
      "Ġder": 8698,
      "Ġdro": 8699,
      "Ġdot": 8700,
      "Ġdos": 8701,
      "Ġdid": 8702,
      "Ġdad": 8703,
      "Ġdod": 8704,
      "Ġdate": 8705,
      "Ġday": 8706,
      "Ġdub": 8707,
      "Ġdens": 8708,
      "Ġdell": 8709,
      "Ġdial": 8710,
      "Ġdance": 8711,
      "Ġdall": 8712,
      "Ġdies": 8713,
      "Ġdak": 8714,
      "Ġdated": 8715,
      "Ġdue": 8716,
      "Ġdail": 8717,
      "Ġdust": 8718,
      "Ġdual": 8719,
      "Ġdone": 8720,
      "Ġdistance": 8721,
      "Ġdrop": 8722,
      "Ġdry": 8723,
      "Ġdress": 8724,
      "Ġdied": 8725,
      "Ġdates": 8726,
      "Ġdental": 8727,
      "Ġdose": 8728,
      "Ġduring": 8729,
      "Ġdanc": 8730,
      "Ġdating": 8731,
      "Ġdiameter": 8732,
      "Ġdave": 8733,
      "Ġdata": 8734,
      "Ġdining": 8735,
      "Ġdialog": 8736,
      "Ġdaugh": 8737,
      "Ġdna": 8738,
      "Ġdomes": 8739,
      "Ġdsl": 8740,
      "Ġdinner": 8741,
      "Ġlogo": 8742,
      "Ġlogin": 8743,
      "Ġlogos": 8744,
      "Ġlogical": 8745,
      "Ġlogged": 8746,
      "Ġà§¨Â²": 8747,
      "ÃĹâĪļ": 8748,
      "à¦¤à¦¨à¦Ł": 8749,
      "à¦¤à¦¨à¦Ń": 8750,
      "Ġà¦ħà¦¬à¦Ĺà¦¤": 8751,
      "edy": 8752,
      "edes": 8753,
      "edom": 8754,
      "edded": 8755,
      "ĠAcc": 8756,
      "ĠArtificial": 8757,
      "ĠAccess": 8758,
      "ĠAgent": 8759,
      "arp": 8760,
      "aren": 8761,
      "aration": 8762,
      "arge": 8763,
      "arage": 8764,
      "arles": 8765,
      "arrow": 8766,
      "arison": 8767,
      "arently": 8768,
      "Ġà¦ıà¦°à¦Ń": 8769,
      "ington": 8770,
      "atar": 8771,
      "atut": 8772,
      "atocumulus": 8773,
      "atrina": 8774,
      "Ġmb": 8775,
      "Ġmd": 8776,
      "Ġmi": 8777,
      "Ġmm": 8778,
      "Ġmn": 8779,
      "Ġmr": 8780,
      "Ġmt": 8781,
      "Ġmy": 8782,
      "Ġmur": 8783,
      "Ġmul": 8784,
      "Ġmos": 8785,
      "Ġmut": 8786,
      "Ġmist": 8787,
      "Ġmir": 8788,
      "Ġmens": 8789,
      "Ġmine": 8790,
      "Ġmall": 8791,
      "Ġmice": 8792,
      "Ġmight": 8793,
      "Ġmast": 8794,
      "Ġmart": 8795,
      "Ġmits": 8796,
      "Ġmang": 8797,
      "Ġmons": 8798,
      "Ġmone": 8799,
      "Ġmode": 8800,
      "Ġmph": 8801,
      "Ġmond": 8802,
      "Ġmeter": 8803,
      "Ġmurr": 8804,
      "Ġmath": 8805,
      "Ġmile": 8806,
      "Ġmental": 8807,
      "Ġmiam": 8808,
      "Ġmeters": 8809,
      "Ġmother": 8810,
      "Ġmillions": 8811,
      "Ġmachine": 8812,
      "Ġmission": 8813,
      "Ġmxx": 8814,
      "Ġmike": 8815,
      "Ġmale": 8816,
      "Ġmask": 8817,
      "Ġmills": 8818,
      "Ġmaster": 8819,
      "Ġmhz": 8820,
      "Ġmrs": 8821,
      "Ġmigration": 8822,
      "Ġmouth": 8823,
      "Ġmuch": 8824,
      "Ġmalays": 8825,
      "Ġmesh": 8826,
      "Ġà¦Łà¦¨": 8827,
      "Ġà¦Łà¦ķ": 8828,
      "Ġà¦Łà¦¬": 8829,
      "à¦²à¦ķà¦ķ": 8830,
      "à¦²à¦ķà¦Ĺ": 8831,
      "à¦²à¦ķà¦°à¦£": 8832,
      "Ġà¦ıà¦ĩà¦Ĺ": 8833,
      "Ġà¦ıà¦ĩà¦¸à¦¬": 8834,
      "à¦ķà¦°à¦£à¦Ĺ": 8835,
      "Ġ01": 8836,
      "à§¦à§®": 8837,
      "à§¦à§Ń": 8838,
      "à¦·à¦£à¦¯": 8839,
      "à¦·à¦£à¦¸": 8840,
      "Ġà¦¬à¦°à¦ĸ": 8841,
      "roit": 8842,
      "root": 8843,
      "road": 8844,
      "roke": 8845,
      "roup": 8846,
      "rostr": 8847,
      "roll": 8848,
      "roduction": 8849,
      "rogative": 8850,
      "robat": 8851,
      "rotkb": 8852,
      "royed": 8853,
      ")=âĪļ[": 8854,
      "Ġ53": 8855,
      "Ġ59": 8856,
      "Ġ5âģ´": 8857,
      "Ġ567": 8858,
      "Ġ5âģ·": 8859,
      "Ġ595": 8860,
      "Ġ5700": 8861,
      "lection": 8862,
      "leans": 8863,
      "lecul": 8864,
      "lements": 8865,
      "left": 8866,
      "lebr": 8867,
      "level": 8868,
      "à¦¿à¦Ĥ.": 8869,
      "à¦¿à¦Ĥ:": 8870,
      "à¦¿à¦Ĥà¦ĥ**": 8871,
      "à¦¿à¦Ĥ**-": 8872,
      "Ġà§©Â²": 8873,
      "Ġà§©à§§": 8874,
      "Ġà§©à§¯": 8875,
      "Ġà§©à§§à§©": 8876,
      "à¦¾à¦ģ/": 8877,
      "itan": 8878,
      "itar": 8879,
      "itat": 8880,
      "itam": 8881,
      "itate": 8882,
      "itage": 8883,
      "iture": 8884,
      "itect": 8885,
      "itary": 8886,
      "itely": 8887,
      "itals": 8888,
      "itory": 8889,
      "itness": 8890,
      "ittle": 8891,
      "à¦¼à¦¿\"": 8892,
      "à¦¼à¦¿)": 8893,
      "ĠĠčĊ": 8894,
      "Ġ44": 8895,
      "Ġ46": 8896,
      "Ġ47": 8897,
      "ico": 8898,
      "icul": 8899,
      "icate": 8900,
      "icial": 8901,
      "icag": 8902,
      "icide": 8903,
      "icated": 8904,
      "icious": 8905,
      "icane": 8906,
      "icipal": 8907,
      "::::::::::": 8908,
      "à¦Ĩà¦²": 8909,
      "à¦Ĩà¦¸": 8910,
      "à¦Ĩà¦¹": 8911,
      "à¦Ĩà¦ŀ": 8912,
      "à¦Ĩà¦¸à¦¬": 8913,
      "à¦Ĩà¦°à¦ľ": 8914,
      "à¦Ĩà¦¨à¦¨": 8915,
      "à¦Ĩà¦°à¦¬": 8916,
      "à¦Ĩà¦²à¦Ĺ": 8917,
      "à¦Ĩà¦ľà¦ķ": 8918,
      "à¦Ĩà¦°à¦ĵ": 8919,
      "à¦Ĩà¦¸à¦²": 8920,
      "à¦Ĩà¦¸à¦¸": 8921,
      "ouver": 8922,
      "oust": 8923,
      "oulder": 8924,
      "à¦ĺà¦²": 8925,
      "à¦ĺà¦¶": 8926,
      "à¦ĺà¦¤à¦°": 8927,
      "à¦ĺà¦°à¦Ł": 8928,
      "held": 8929,
      "healthy": 8930,
      "âģº)": 8931,
      "Ġ+=": 8932,
      "à¦¯à¦ķà¦°à¦¤": 8933,
      "Ġà¦ĩà¦¨à¦ķ": 8934,
      "Ġà¦ĩà¦¨à¦Ł": 8935,
      "Ġà¦ĩà¦¨à¦Ń": 8936,
      "ento": 8937,
      "enter": 8938,
      "entine": 8939,
      "enterm": 8940,
      "entory": 8941,
      "entures": 8942,
      "entina": 8943,
      "entration": 8944,
      "Ġà¦Ĩà¦°à¦ĩà¦Ĩ": 8945,
      "à¦ıà¦®à¦ıà¦®à¦ıà¦®à¦ıà¦®à¦ıà¦®à¦ıà¦®à¦ıà¦®": 8946,
      "Ġà§®à§¦": 8947,
      "Ġà§®à§¬à§¦": 8948,
      "Ġwi": 8949,
      "Ġwv": 8950,
      "Ġwing": 8951,
      "Ġwent": 8952,
      "Ġwet": 8953,
      "Ġwel": 8954,
      "Ġwid": 8955,
      "Ġwage": 8956,
      "Ġwow": 8957,
      "Ġwine": 8958,
      "Ġward": 8959,
      "Ġwiz": 8960,
      "Ġwest": 8961,
      "Ġware": 8962,
      "Ġwide": 8963,
      "Ġwings": 8964,
      "Ġwav": 8965,
      "Ġwise": 8966,
      "Ġwars": 8967,
      "Ġwere": 8968,
      "Ġwelf": 8969,
      "Ġwants": 8970,
      "Ġways": 8971,
      "Ġwarm": 8972,
      "Ġwedding": 8973,
      "Ġwidth": 8974,
      "Ġwinter": 8975,
      "Ġwisc": 8976,
      "Ġwife": 8977,
      "Ġwave": 8978,
      "Ġwww": 8979,
      "Ġwins": 8980,
      "Ġwake": 8981,
      "Ġwils": 8982,
      "Ġwyom": 8983,
      "Ġwrote": 8984,
      "Ġwolf": 8985,
      "Ġwrest": 8986,
      "Ġwestern": 8987,
      "Ġwisdom": 8988,
      "Ġwitness": 8989,
      "à¦°à¦®à¦ķ": 8990,
      "à¦°à¦®à¦Ł": 8991,
      "à¦¦à¦®à¦ķ": 8992,
      "Ġà¦²à¦Ĺà¦ķ": 8993,
      "Ġà¦²à¦Ĺà¦Ĺ": 8994,
      "___": 8995,
      "Ġna": 8996,
      "Ġnc": 8997,
      "Ġnd": 8998,
      "Ġng": 8999,
      "Ġnj": 9000,
      "Ġnl": 9001,
      "Ġnm": 9002,
      "Ġnr": 9003,
      "Ġns": 9004,
      "Ġnt": 9005,
[...]
