{
  "version": "1.0",
  "truncation": null,
  "padding": null,
  "added_tokens": [
    {
      "id": 0,
      "content": "<PAD>",
      "single_word": false,
      "lstrip": false,
      "rstrip": false,
      "normalized": false,
      "special": true
    },
    {
      "id": 1,
      "content": "<UNK>",
      "single_word": false,
      "lstrip": false,
      "rstrip": false,
      "normalized": false,
      "special": true
    },
    {
      "id": 2,
      "content": "<BOS>",
      "single_word": false,
      "lstrip": false,
      "rstrip": false,
      "normalized": false,
      "special": true
    },
    {
      "id": 3,
      "content": "<EOS>",
      "single_word": false,
      "lstrip": false,
      "rstrip": false,
      "normalized": false,
      "special": true
    },
    {
      "id": 4,
      "content": "<|system|>",
      "single_word": false,
      "lstrip": false,
      "rstrip": false,
      "normalized": false,
      "special": true
    },
    {
      "id": 5,
      "content": "<|user|>",
      "single_word": false,
      "lstrip": false,
      "rstrip": false,
      "normalized": false,
      "special": true
    },
    {
      "id": 6,
      "content": "<|assistant|>",
      "single_word": false,
      "lstrip": false,
      "rstrip": false,
      "normalized": false,
      "special": true
    },
    {
      "id": 7,
      "content": "<|math|>",
      "single_word": false,
      "lstrip": false,
      "rstrip": false,
      "normalized": false,
      "special": true
    }
  ],
  "normalizer": null,
  "pre_tokenizer": {
    "type": "ByteLevel",
    "add_prefix_space": false,
    "trim_offsets": true,
    "use_regex": false
  },
  "post_processor": null,
  "decoder": {
    "type": "ByteLevel",
    "add_prefix_space": true,
    "trim_offsets": true,
    "use_regex": true
  },
  "model": {
    "type": "BPE",
    "dropout": null,
    "unk_token": "<UNK>",
    "continuing_subword_prefix": null,
    "end_of_word_suffix": null,
    "fuse_unk": false,
    "byte_fallback": false,
    "ignore_merges": false,
    "vocab": {
      "<PAD>": 0,
      "<UNK>": 1,
      "<BOS>": 2,
      "<EOS>": 3,
      "<|system|>": 4,
      "<|user|>": 5,
      "<|assistant|>": 6,
      "<|math|>": 7,
      "!": 8,
      "\"": 9,
      "#": 10,
      "$": 11,
      "%": 12,
      "&": 13,
      "'": 14,
      "(": 15,
      ")": 16,
      "*": 17,
      "+": 18,
      ",": 19,
      "-": 20,
      ".": 21,
      "/": 22,
      "0": 23,
      "1": 24,
      "2": 25,
      "3": 26,
      "4": 27,
      "5": 28,
      "6": 29,
      "7": 30,
      "8": 31,
      "9": 32,
      ":": 33,
      ";": 34,
      "<": 35,
      "=": 36,
      ">": 37,
      "?": 38,
      "@": 39,
      "A": 40,
      "B": 41,
      "C": 42,
      "D": 43,
      "E": 44,
      "F": 45,
      "G": 46,
      "H": 47,
      "I": 48,
      "J": 49,
      "K": 50,
      "L": 51,
      "M": 52,
      "N": 53,
      "O": 54,
      "P": 55,
      "Q": 56,
      "R": 57,
      "S": 58,
      "T": 59,
      "U": 60,
      "V": 61,
      "W": 62,
      "X": 63,
      "Y": 64,
      "Z": 65,
      "[": 66,
      "\\": 67,
      "]": 68,
      "^": 69,
      "_": 70,
      "`": 71,
      "a": 72,
      "b": 73,
      "c": 74,
      "d": 75,
      "e": 76,
      "f": 77,
      "g": 78,
      "h": 79,
      "i": 80,
      "j": 81,
      "k": 82,
      "l": 83,
      "m": 84,
      "n": 85,
      "o": 86,
      "p": 87,
      "q": 88,
      "r": 89,
      "s": 90,
      "t": 91,
      "u": 92,
      "v": 93,
      "w": 94,
      "x": 95,
      "y": 96,
      "z": 97,
      "{": 98,
      "|": 99,
      "}": 100,
      "¡": 101,
      "¢": 102,
      "£": 103,
      "¤": 104,
      "¥": 105,
      "¦": 106,
      "§": 107,
      "¨": 108,
      "©": 109,
      "ª": 110,
      "«": 111,
      "¬": 112,
      "®": 113,
      "¯": 114,
      "°": 115,
      "±": 116,
      "²": 117,
      "³": 118,
      "´": 119,
      "µ": 120,
      "¶": 121,
      "·": 122,
      "¸": 123,
      "¹": 124,
      "º": 125,
      "»": 126,
      "¼": 127,
      "½": 128,
      "¾": 129,
      "¿": 130,
      "Â": 131,
      "Ã": 132,
      "Ì": 133,
      "Ï": 134,
      "à": 135,
      "á": 136,
      "â": 137,
      "ð": 138,
      "Ċ": 139,
      "č": 140,
      "Ġ": 141,
      "Ģ": 142,
      "ģ": 143,
      "Ĥ": 144,
      "ĥ": 145,
      "Ħ": 146,
      "ħ": 147,
      "Ĩ": 148,
      "ĩ": 149,
      "Ī": 150,
      "ī": 151,
      "Ĭ": 152,
      "ĭ": 153,
      "Į": 154,
      "į": 155,
      "İ": 156,
      "ı": 157,
      "Ĳ": 158,
      "Ĵ": 159,
      "ĵ": 160,
      "Ķ": 161,
      "ķ": 162,
      "ĸ": 163,
      "Ĺ": 164,
      "ĺ": 165,
      "Ļ": 166,
      "ļ": 167,
      "Ľ": 168,
      "ľ": 169,
      "Ŀ": 170,
      "ŀ": 171,
      "Ł": 172,
      "ł": 173,
      "Ń": 174,
      "à¦": 175,
      "à§": 176,
      "Ġà¦": 177,
      "à¦¾": 178,
      "à¦°": 179,
      "à§ĩ": 180,
      "à§į": 181,
      "on": 182,
      "à¦¨": 183,
      "à¦¿": 184,
      "à§įà¦": 185,
      "Ġà¦ķ": 186,
      "à¥": 187,
      "à¥¤": 188,
      "à¦¾à¦": 189,
      "er": 190,
      "à§ģ": 191,
      "ion": 192,
      "à¦¬": 193,
      "Ġc": 194,
      "re": 195,
      "à¦ı": 196,
      "le": 197,
      "tion": 198,
      "Ġà¦¬": 199,
      "à¦ķ": 200,
      "st": 201,
      "Ġp": 202,
      "Ġà¦ķà¦°": 203,
      "-à¦ı": 204,
      "à§ĩĠà¦": 205,
      "à§ģà¦¨": 206,
      "čĊ": 207,
      "en": 208,
      "à¥¤Ġ": 209,
      "Ġpr": 210,
      "à§ĩĠ": 211,
      "li": 212,
      "à§įà¦¯": 213,
      "or": 214,
      "à¦¿à¦": 215,
      "à¦¾à¦°": 216,
      "Ġpro": 217,
      "Ġâ": 218,
      "à¦®": 219,
      "à¦²": 220,
      "Ġcon": 221,
      "à§Ł": 222,
      "-à¦ıà¦°": 223,
      "es": 224,
      "ĨĴ": 225,
      "ĠâĨĴ": 226,
      "à§ĩà¦": 227,
      "Ġà¦¨": 228,
      "Ġs": 229,
      "Ġà¦¹": 230,
      "bu": 231,
      "à¦Ł": 232,
      "Ġà¦¦": 233,
      "à¦¬à¦": 234,
      "à§ĭ": 235,
      "ge": 236,
      "te": 237,
      "ess": 238,
      "in": 239,
      "fi": 240,
      "ar": 241,
      ",Ġ": 242,
      "Ġà¦ı": 243,
      "Ġà¦ķà¦°à§ģà¦¨": 244,
      "à¥¤ĠčĊ": 245,
      "de": 246,
      "ation": 247,
      "an": 248,
      "der": 249,
      "Ġm": 250,
      "ac": 251,
      "ent": 252,
      "à§įà¦°": 253,
      "Ġà¦¸": 254,
      "à¦¤": 255,
      "à§Ģ": 256,
      "à¦Łà¦¿": 257,
      "à¦ª": 258,
      "à§įà¦¤": 259,
      "uc": 260,
      "tr": 261,
      "à¦¾à¦¨": 262,
      "Ġà¦¹à¦²": 263,
      "al": 264,
      "à§¦": 265,
      "order": 266,
      "ec": 267,
      "is": 268,
      "Ġà¦ª": 269,
      "age": 270,
      "ce": 271,
      "uct": 272,
      "ver": 273,
      "Ńà¦¾à¦": 274,
      "ĠâĨĴĠ": 275,
      "ble": 276,
      "à§ĩà¦ĸ": 277,
      "dĠ": 278,
      "à§įà¦°à¦": 279,
      "à§ĩà¦¨": 280,
      "qu": 281,
      "duct": 282,
      "Ġproduct": 283,
      "à¦¬à¦Ĥ": 284,
      "at": 285,
      "Ġà¦ıà¦¬à¦Ĥ": 286,
      "Ġà¦¨à¦¾": 287,
      "Ġà¦¬à¦¾": 288,
      "buy": 289,
      "à¥¤Ġà¦": 290,
      "ob": 291,
      "Ġà¦¹à¦²à§ĩĠ": 292,
      "Ġà¦¦à§ĩà¦ĸ": 293,
      "lea": 294,
      "tri": 295,
      "Ġà¦¬à§įà¦¯": 296,
      "à¦ķà¦Łà¦¿": 297,
      "Ġà¦¬à§įà¦¯à¦¬à¦": 298,
      "im": 299,
      "à§ģà¦": 300,
      "ne": 301,
      "Ġf": 302,
      "¥à¦®": 303,
      "à§įà¦°à¦¥à¦®": 304,
      "Ġac": 305,
      "à§ĩà¦°": 306,
      "om": 307,
      "ing": 308,
      "Ġbuy": 309,
      "à¦¿à¦¨": 310,
      "à¥¤čĊ": 311,
      "à¦¿à§Ł": 312,
      "of": 313,
      "test": 314,
      "Ġre": 315,
      "à§įà¦·": 316,
      "Ġà¦¬à¦¾à¦": 317,
      "ale": 318,
      "ur": 319,
      "Ġà¦ķà¦°à¦¬": 320,
      "âĢ": 321,
      "Ġde": 322,
      "Ġh": 323,
      "ali": 324,
      "liver": 325,
      "à§ĩà¦¨Ġà¦¨à¦¾": 326,
      "bution": 327,
      "tribution": 328,
      "ļà¦¾à¦": 329,
      "Ġà¦ħ": 330,
      "à§ĩà¦ķ": 331,
      "Ġcontribution": 332,
      "Ġbuyer": 333,
      "Ġst": 334,
      "able": 335,
      "ve": 336,
      "Ġà¦Ĩ": 337,
      "Ġà¦ķà¦®": 338,
      "quali": 339,
      "Ġco": 340,
      "tent": 341,
      "fit": 342,
      "Ġà§": 343,
      "ment": 344,
      "Ġtest": 345,
      "vi": 346,
      "oo": 347,
      "?čĊ": 348,
      "à¦¤à§ĩĠà¦": 349,
      "Ńà¦¾à¦¬": 350,
      "essage": 351,
      "are": 352,
      "edĠ": 353,
      "Ġà¦Ńà¦¾à¦": 354,
      "Ġà¦ķà§Ģ": 355,
      "pp": 356,
      "à§¦à§¦": 357,
      "à¦¾à§Ł": 358,
      "Ġà¦¬à§įà¦¯à¦¬à¦¹": 359,
      "à¦ķà§įà¦·": 360,
      "Ġà¦¬à§įà¦¯à¦¬à¦¹à¦¾à¦°": 361,
      "jec": 362,
      "objec": 363,
      "objection": 364,
      "Ġà¦ķà¦°à§ģà¦¨à¥¤ĠčĊ": 365,
      "deliver": 366,
      "-à¦ķ": 367,
      "lead": 368,
      "à§ĩà¦¬": 369,
      "à¦°à§įà¦": 370,
      "ness": 371,
      "Ġà¦ķà¦°à¦¬à§ĩà¦¨Ġà¦¨à¦¾": 372,
      "ust": 373,
      "se": 374,
      "Ġà¦ªà¦°": 375,
      "get": 376,
      "ol": 377,
      "à¦£": 378,
      "ook": 379,
      "Ġà¦ĵ": 380,
      "Ġprofit": 381,
      "à¦Ńà¦¾à¦¬": 382,
      "Ġmessage": 383,
      "à¦¿à¦·": 384,
      "ew": 385,
      "view": 386,
      "ingĠ": 387,
      "eat": 388,
      "ty": 389,
      "ure": 390,
      "à¦Ĺ": 391,
      "ļà¦¾à¦ĩ": 392,
      "²à§ĭ": 393,
      "ng": 394,
      "ling": 395,
      "Ġà¦¦à§ĩà¦ĸà§ģà¦¨": 396,
      "à¥¤Ġà¦ķà§Ģ": 397,
      "Ġsale": 398,
      "ra": 399,
      "ence": 400,
      "Ġà¦ħà¦¨": 401,
      "Ġà¦Ńà¦¾à¦²à§ĭ": 402,
      "vers": 403,
      "ll": 404,
      "blem": 405,
      "fer": 406,
      "ed": 407,
      "à¦ıà¦ķà¦Łà¦¿": 408,
      "and": 409,
      "ľà¦¨": 410,
      "ic": 411,
      "Ġcost": 412,
      "à¦¿à§Łà§ĩĠà¦": 413,
      "-à¦ıà¦°Ġà¦ķ": 414,
      "ive": 415,
      "à¦Ľ": 416,
      "Ġcontent": 417,
      "cre": 418,
      "Ġsp": 419,
      "PI": 420,
      "ĠK": 421,
      "ĠKPI": 422,
      "à§ģĠ": 423,
      "ative": 424,
      "Ġproblem": 425,
      "²à¦ķà§įà¦·": 426,
      "²à¦ķà§įà¦·à§įà¦¯": 427,
      "¯à¦": 428,
      ":Ġ": 429,
      "Ġà¦¸à¦®": 430,
      "Ġà¦¶": 431,
      "offer": 432,
      ",Ġdeliver": 433,
      "nel": 434,
      "à§¨": 435,
      "edĠorder": 436,
      "à¦ķà¦": 437,
      "à§ľ": 438,
      "à¦ªà§įà¦°à¦¥à¦®": 439,
      "ware": 440,
      "wareness": 441,
      "qualifi": 442,
      "Ġà¦ªà§įà¦°à¦¥à¦®": 443,
      "à§ĩĠà¦¬": 444,
      "si": 445,
      "ĸà§ģà¦¨": 446,
      "ach": 447,
      "ĠcontributionĠprofit": 448,
      "à¦¿à¦¤": 449,
      "ance": 450,
      "-à¦ķà§ĩĠ": 451,
      "xt": 452,
      "Ġproof": 453,
      "gu": 454,
      "°à¦¾à¦": 455,
      "isi": 456,
      "Ġconvers": 457,
      "lic": 458,
      "à¦¿à¦ķ": 459,
      "cess": 460,
      "à¦¾à¦ª": 461,
      "ĠtestĠà¦ķà¦°à§ģà¦¨": 462,
      "à¥¤Ġà¦ķà§Ģà¦Ńà¦¾à¦¬": 463,
      "/c": 464,
      "be": 465,
      "upp": 466,
      "fic": 467,
      "dĠg": 468,
      "leadĠg": 469,
      "Ġà¦ľà¦¨": 470,
      "Ġà¦ľà¦¨à§įà¦¯": 471,
      "à¦¸": 472,
      "à§įà¦¬": 473,
      "ow": 474,
      "ori": 475,
      "ch": 476,
      "Ġà¦¦à¦¿à¦¨": 477,
      "ific": 478,
      "ecific": 479,
      "di": 480,
      "Ġà¦ıà¦ķà¦Łà¦¿": 481,
      "°à¦¾à¦ĸà§ģà¦¨": 482,
      "à¦ªà¦°": 483,
      "à¦¾à¦ķ": 484,
      "ke": 485,
      "Ġbuyer-à¦ıà¦°": 486,
      "ag": 487,
      "²à¦¿à¦": 488,
      "Ġà¦ķà¦¿à¦¨": 489,
      "ter": 490,
      ",Ġre": 491,
      "Ġmar": 492,
      "à§įà¦¨": 493,
      "à¦¾à¦¨à§ĭ": 494,
      "Ġà¦ħà¦¨à§ģà¦": 495,
      "gin": 496,
      "Ġe": 497,
      "lick": 498,
      "¯à¦¾à§Ł": 499,
      "Ġà¦ķà¦¿à¦¨à§įà¦¤": 500,
      "arget": 501,
      "ªà¦¾à¦°": 502,
      "Ġhand": 503,
      "ase": 504,
      "la": 505,
      "Ġà¦®": 506,
      "à¦ķà¦ĩ": 507,
      "Ġmargin": 508,
      "à§ģà¦°": 509,
      "er-à¦ıà¦°": 510,
      "¯à¦¼": 511,
      "à¦¾à¦ľ": 512,
      "Ġà¦ħà¦¨à§ģà¦¯à¦¾à§Ł": 513,
      "Ġà¦ħà¦¨à§ģà¦¯à¦¾à§Łà§Ģ": 514,
      "Ġsales": 515,
      "Ġconte": 516,
      "Ġcontext": 517,
      "Awareness": 518,
      "uppor": 519,
      "objectionĠhand": 520,
      "objectionĠhandling": 521,
      "à¦¿à¦¸": 522,
      "CT": 523,
      "sol": 524,
      "à¦¤à§ĩĠà¦ªà¦¾à¦°": 525,
      "ake": 526,
      "Ġdec": 527,
      "un": 528,
      "à¦¾à¦¤": 529,
      "eng": 530,
      "Ġà¦¨à§Ł": 531,
      "Ġà¦¬à§įà¦¯à¦¬à¦¸": 532,
      "ĠcontributionĠmargin": 533,
      "à§Ĥ": 534,
      "à§ĭà¦Ł": 535,
      "Ġproducts": 536,
      "il": 537,
      "à¥¤Ġà¦²à¦ķà§įà¦·à§įà¦¯": 538,
      "-c": 539,
      "Ġà¦¹à¦¿à¦¸": 540,
      "th": 541,
      "tur": 542,
      "turn": 543,
      "à§ģà¦¨à¥¤Ġ": 544,
      "Ġà¦¦à¦¿à§Łà§ĩĠà¦": 545,
      "/a": 546,
      ";Ġ": 547,
      "Ġproduct/": 548,
      "à¦¾à¦¨à¥¤": 549,
      "à¦Ľà¦¿": 550,
      "/view": 551,
      "ĠâĨĴĠproduct/": 552,
      "Ġà¦¦à§ĩà¦ĸà§ģà¦¨à¥¤ĠčĊ": 553,
      "à¦ıà¦ķà¦Łà¦¿Ġm": 554,
      "Ġstage": 555,
      "à§ĩà¦Ł": 556,
      "Ġ+": 557,
      "quisi": 558,
      "quisition": 559,
      "Ġacquisition": 560,
      "²à¦¿à¦ĸ": 561,
      "à¦¾à¦¤à§ĩĠà¦": 562,
      "¸à§įà¦¤": 563,
      "Ġspecific": 564,
      "Ġaccess": 565,
      "ories": 566,
      "Ġaccessories": 567,
      "à§ĭà¦¨": 568,
      "ustom": 569,
      "ision": 570,
      "Ġdecision": 571,
      "Ġà¦¬à¦¾à¦¸à§įà¦¤": 572,
      "reach": 573,
      "Ġà¦¬à¦¾à¦¸à§įà¦¤à¦¬": 574,
      "Ġpur": 575,
      "chase": 576,
      "Ġpurchase": 577,
      "à§ģà¦§": 578,
      "peat": 579,
      "peatĠpurchase": 580,
      "ustomer": 581,
      "à¦¿à¦·à§įà¦": 582,
      "per": 583,
      "ution": 584,
      "quality": 585,
      "ial": 586,
      "solution": 587,
      "llation": 588,
      "ancellation": 589,
      ",Ġf": 590,
      "str": 591,
      "Ġà¦Ńà¦¾à¦²à§ĭĠà¦ķà¦¿à¦¨à§įà¦¤": 592,
      "mon": 593,
      "stration": 594,
      "monstration": 595,
      "guar": 596,
      "Con": 597,
      "ureĠ": 598,
      "Ġquality": 599,
      "Ġà¦¬à§įà¦¯à¦¬à¦¹à¦¾à¦°Ġà¦ķà¦°à¦¬à§ĩà¦¨Ġà¦¨à¦¾": 600,
      ",Ġfake": 601,
      "Ġguar": 602,
      "ile": 603,
      "obile": 604,
      "Ġor": 605,
      "à§ĩà¦¬à§ĩĠà¦": 606,
      "Ġà§©": 607,
      "ari": 608,
      "à¦¦": 609,
      "Ġà¦¹à¦¿à¦¸à§ĩà¦¬à§ĩĠà¦": 610,
      "Ġà¦Ĩà¦Ĺ": 611,
      "Ġcre": 612,
      "Ġcreative": 613,
      "ore": 614,
      "fore": 615,
      "Ľà§ĭà¦Ł": 616,
      "Ġpri": 617,
      "Ġà¦ī": 618,
      "ableĠ": 619,
      "Ġà¦¨à¦¿à§Ł": 620,
      "à¦¾à¦²": 621,
      "Ġclick": 622,
      "à¦¾à¦¶": 623,
      "à¦¾à¦¹": 624,
      "trust": 625,
      "Ġdemonstration": 626,
      "ĠtestĠà¦ķà¦°à§ģà¦¨à¥¤Ġ": 627,
      "à§«": 628,
      "Ġà¦ķà¦°à¦¤à§ĩĠà¦": 629,
      "à¦¬à¦¾à¦°": 630,
      "Ġà¦¸à¦": 631,
      "-à¦ıà¦°Ġà¦ľà¦¨à§įà¦¯": 632,
      "Ġà¦¤": 633,
      "ten": 634,
      "à¦¾à¦°à¦£": 635,
      "à¦¿à¦¦": 636,
      "Ġconversion": 637,
      "agement": 638,
      "engagement": 639,
      "Ġoffer": 640,
      "à§įà¦¡": 641,
      "omp": 642,
      "gle": 643,
      "op": 644,
      ",à§¦à§¦": 645,
      "à¦¿à¦°à§įà¦": 646,
      "Ġà¦¬à¦¾à¦¨": 647,
      "target": 648,
      "ue": 649,
      "Ġà¦ķà¦®Ġà¦¹à¦²à§ĩĠ": 650,
      "list": 651,
      "Ġà¦ķà§Ł": 652,
      "Ġà¦¬à¦²": 653,
      "ns": 654,
      "ingĠbe": 655,
      "Ġà¦¸à¦®à§įà¦": 656,
      "-à¦ķà§ĩĠtarget": 657,
      "Ġà¦ķà§Łà§ĩà¦ķ": 658,
      "à¦¿à¦·à§įà¦ķ": 659,
      "Ġà¦¶à§ģà¦§": 660,
      "Ġà¦ļà¦¾à¦": 661,
      "Ġw": 662,
      "oal": 663,
      "à¦¿à¦·à§įà¦ķà¦¾à¦°": 664,
      "Ġà¦¶à§ģà¦§à§ģĠ": 665,
      "ļà¦¾à¦ĩà¥¤Ġà¦²à¦ķà§įà¦·à§įà¦¯": 666,
      "Ġà¦ķà¦°à¦¤à§ĩĠà¦ļà¦¾à¦ĩ": 667,
      "it": 668,
      "Ġan": 669,
      "à§Ń": 670,
      "Ġà¦ķà¦°à§ĩĠ": 671,
      "Ġà¦¬à§įà¦¯à¦¬à¦¹à¦¾à¦°Ġà¦ķà¦°à§ģà¦¨": 672,
      "Ġv": 673,
      "Ġà§§": 674,
      "à§ĩà¦¨à§įà¦¡": 675,
      "à¦Łà¦¿Ġà¦ªà¦°": 676,
      "Ġi": 677,
      "Ġà¦¬à¦¾à§ľ": 678,
      ",Ġp": 679,
      "Ġstr": 680,
      "à¥¤Ġà¦ı": 681,
      "ted": 682,
      "à§ĩĠà¦²à¦¿à¦ĸ": 683,
      "à§ĩà¦ķà§ĩà¦¨à§įà¦¡": 684,
      ":ĠH": 685,
      "à§ĩĠà¦¬à¦¿à¦·": 686,
      "a-à¦ıà¦°": 687,
      "à¦Łà¦¿Ġh": 688,
      "âĢĵ": 689,
      "iction": 690,
      "Ġà¦¸à§ĩà¦ķà§ĩà¦¨à§įà¦¡": 691,
      "rst": 692,
      "first": 693,
      "Ġfr": 694,
      "Ġà¦¬à¦¾à¦Ľ": 695,
      "Ġcla": 696,
      "Ġà¦ķà¦®à¦¾à¦¨à§ĭ": 697,
      "à§ĩĠà¦²à¦¿à¦ĸà¦¬": 698,
      "Ġà¦¨à§Ł;": 699,
      "Ġà¦¬à¦¾à¦¨à¦¾à¦¤à§ĩĠà¦": 700,
      "Ġide": 701,
      "fter": 702,
      "à¦ıà¦ķà¦ĩ": 703,
      "Ġà¦¦à§ĩà¦ĸà¦¾à¦¨à¥¤": 704,
      "à¦Łà¦¿Ġà¦ªà¦°à¦¿à¦·à§įà¦ķà¦¾à¦°": 705,
      "à§ĩĠà¦¬à¦¿à¦·à§Ł": 706,
      "-first": 707,
      "/lead": 708,
      "/à¦ªà§įà¦°à¦¥à¦®": 709,
      ";Ġsales": 710,
      "Aà¥¤ĠčĊ": 711,
      "Uns": 712,
      "onial": 713,
      "reĠide": 714,
      "-à¦ıĠf": 715,
      "en/à¦ªà§įà¦°à¦¥à¦®": 716,
      "à¥¤ĠCon": 717,
      "Ġconcre": 718,
      "ĠâĨĴĠspecific": 719,
      "ĠâĨĴĠconcre": 720,
      "Ġscre": 721,
      "teĠproof": 722,
      "Ġmis": 723,
      "order,Ġdeliver": 724,
      "ucture": 725,
      "ĠâĨĴĠobjectionĠhandling": 726,
      "ĠâĨĴĠCT": 727,
      "Ġà¦ıà¦¬à¦ĤĠcontributionĠprofit": 728,
      "Ġà¦¬à¦¾Ġmis": 729,
      "Ġà¦¹à¦²à§ĩĠqualifi": 730,
      "Ġà¦¹à¦²à§ĩĠreach": 731,
      "Ġà¦¹à¦²à§ĩĠorder,Ġdeliver": 732,
      "im,Ġfake": 733,
      "imonial": 734,
      "ĠbuyerĠproblem": 735,
      "ĠcoreĠide": 736,
      "tent-à¦ıà¦°Ġà¦ķ": 737,
      "Ġtestimonial": 738,
      "leadingĠbe": 739,
      "ookĠtestĠà¦ķà¦°à§ģà¦¨à¥¤Ġ": 740,
      "ookĠâĨĴĠspecific": 741,
      "Ġmessage/lead": 742,
      "eatureĠ": 743,
      "edĠmessage/lead": 744,
      "ĠcontentĠstr": 745,
      "ĠcontentĠà¦¬à¦¾à¦¨à¦¾à¦¤à§ĩĠà¦": 746,
      "ĠKPIĠà¦¬à¦¾à¦Ľ": 747,
      "edĠorderĠà¦ıà¦¬à¦ĤĠcontributionĠprofit": 748,
      "Ġà¦ªà§įà¦°à¦¥à¦®Ġscre": 749,
      "à¥¤Ġà¦ķà§Ģà¦Ńà¦¾à¦¬à§ĩĠà¦²à¦¿à¦ĸà¦¬": 750,
      "leadĠgoal": 751,
      "Ġbuyer-à¦ıà¦°Ġdecision": 752,
      "à¦¾à¦ľĠà¦¶à§ģà¦§à§ģĠ": 753,
      "Ġà¦ħà¦¨à§ģà¦¯à¦¾à§Łà§ĢĠKPIĠà¦¬à¦¾à¦Ľ": 754,
      "ĠcontextĠà¦¦à§ĩà¦ĸà¦¾à¦¨à¥¤": 755,
      "AwarenessĠà¦¹à¦²à§ĩĠreach": 756,
      "upported": 757,
      "à§ģà¦¨à¥¤ĠAwarenessĠà¦¹à¦²à§ĩĠreach": 758,
      "/after": 759,
      ";ĠleadĠgoal": 760,
      "/viewĠquality": 761,
      "ĠâĨĴĠproduct/solution": 762,
      "à¦ıà¦ķà¦Łà¦¿Ġmobile": 763,
      "Ġà¦¬à¦¾à¦¸à§įà¦¤à¦¬ĠcontextĠà¦¦à§ĩà¦ĸà¦¾à¦¨à¥¤": 764,
      "Ġà¦¬à§įà¦¯à¦¬à¦¹à¦¾à¦°Ġà¦ķà¦°à¦¬à§ĩà¦¨Ġà¦¨à¦¾à¥¤ĠCon": 765,
      "ĠorĠdemonstration": 766,
      "Ġà§©âĢĵ": 767,
      "fore/after": 768,
      "à§«à¦Łà¦¿Ġh": 769,
      "engagementĠà¦¨à§Ł;": 770,
      "gle-à¦ıĠf": 771,
      "listĠà¦¨à¦¾": 772,
      "-à¦ķà§ĩĠtargetĠà¦ķà¦°à§ĩĠ": 773,
      "Ġà¦ķà§Łà§ĩà¦ķĠà¦¸à§ĩà¦ķà§ĩà¦¨à§įà¦¡": 774,
      "Ġangle-à¦ıĠf": 775,
      "Ġà¦¬à§įà¦¯à¦¬à¦¹à¦¾à¦°Ġà¦ķà¦°à§ģà¦¨:ĠH": 776,
      "a-à¦ıà¦°Ġà§©âĢĵ": 777,
      "ictionĠà¦ķà¦®à¦¾à¦¨à§ĭ": 778,
      "ĠfrictionĠà¦ķà¦®à¦¾à¦¨à§ĭ": 779,
      "Ġclaim,Ġfake": 780,
      "à¦ıà¦ķà¦ĩĠcoreĠide": 781,
      "à¦Łà¦¿Ġà¦ªà¦°à¦¿à¦·à§įà¦ķà¦¾à¦°Ġà¦ķà¦°à§ģà¦¨à¥¤ĠčĊ": 782,
      "à§ĩĠà¦¬à¦¿à¦·à§Łà¦Łà¦¿Ġà¦ªà¦°à¦¿à¦·à§įà¦ķà¦¾à¦°Ġà¦ķà¦°à§ģà¦¨à¥¤ĠčĊ": 783,
      "-firstĠcontentĠstr": 784,
      ";ĠsalesĠà¦¹à¦²à§ĩĠorder,Ġdeliver": 785,
      "Unsupported": 786,
      "en/à¦ªà§įà¦°à¦¥à¦®Ġà¦ķà§Łà§ĩà¦ķĠà¦¸à§ĩà¦ķà§ĩà¦¨à§įà¦¡": 787,
      "ĠâĨĴĠconcreteĠproof": 788,
      "uctureĠà¦¬à§įà¦¯à¦¬à¦¹à¦¾à¦°Ġà¦ķà¦°à§ģà¦¨:ĠH": 789,
      "ĠâĨĴĠobjectionĠhandlingĠâĨĴĠCT": 790,
      "Ġà¦¬à¦¾ĠmisleadingĠbe": 791,
      "Ġà¦¹à¦²à§ĩĠqualifiedĠmessage/lead": 792,
      "ĠbuyerĠproblemĠâĨĴĠproduct/solution": 793,
      "tent-à¦ıà¦°Ġà¦ķà¦¾à¦ľĠà¦¶à§ģà¦§à§ģĠ": 794,
      "ĠtestimonialĠà¦¬à¦¾ĠmisleadingĠbe": 795,
      "ookĠtestĠà¦ķà¦°à§ģà¦¨à¥¤ĠUnsupported": 796,
      "ookĠâĨĴĠspecificĠbuyerĠproblemĠâĨĴĠproduct/solution": 797,
      "eatureĠlistĠà¦¨à¦¾": 798,
      "ĠcontentĠà¦¬à¦¾à¦¨à¦¾à¦¤à§ĩĠà¦ļà¦¾à¦ĩà¥¤Ġà¦²à¦ķà§įà¦·à§įà¦¯": 799,
      "edĠorderĠà¦ıà¦¬à¦ĤĠcontributionĠprofitĠà¦¦à§ĩà¦ĸà§ģà¦¨à¥¤ĠčĊ": 800,
      "Ġà¦ªà§įà¦°à¦¥à¦®Ġscreen/à¦ªà§įà¦°à¦¥à¦®Ġà¦ķà§Łà§ĩà¦ķĠà¦¸à§ĩà¦ķà§ĩà¦¨à§įà¦¡": 801,
      "à¥¤Ġà¦ķà§Ģà¦Ńà¦¾à¦¬à§ĩĠà¦²à¦¿à¦ĸà¦¬?čĊ": 802,
      "Ġbuyer-à¦ıà¦°ĠdecisionĠfrictionĠà¦ķà¦®à¦¾à¦¨à§ĭ": 803,
      "Ġà¦ħà¦¨à§ģà¦¯à¦¾à§Łà§ĢĠKPIĠà¦¬à¦¾à¦Ľà§ģà¦¨à¥¤ĠAwarenessĠà¦¹à¦²à§ĩĠreach": 804,
      ";ĠleadĠgoalĠà¦¹à¦²à§ĩĠqualifiedĠmessage/lead": 805,
      "/viewĠquality;ĠleadĠgoalĠà¦¹à¦²à§ĩĠqualifiedĠmessage/lead": 806,
      "à¦ıà¦ķà¦Łà¦¿Ġmobile-firstĠcontentĠstr": 807,
      "Ġà¦¬à¦¾à¦¸à§įà¦¤à¦¬ĠcontextĠà¦¦à§ĩà¦ĸà¦¾à¦¨à¥¤Ġà¦ªà§įà¦°à¦¥à¦®Ġscreen/à¦ªà§įà¦°à¦¥à¦®Ġà¦ķà§Łà§ĩà¦ķĠà¦¸à§ĩà¦ķà§ĩà¦¨à§įà¦¡": 808,
      "Ġà¦¬à§įà¦¯à¦¬à¦¹à¦¾à¦°Ġà¦ķà¦°à¦¬à§ĩà¦¨Ġà¦¨à¦¾à¥¤ĠContent-à¦ıà¦°Ġà¦ķà¦¾à¦ľĠà¦¶à§ģà¦§à§ģĠ": 809,
      "ĠorĠdemonstrationĠâĨĴĠobjectionĠhandlingĠâĨĴĠCT": 810,
      "fore/afterĠà¦¬à§įà¦¯à¦¬à¦¹à¦¾à¦°Ġà¦ķà¦°à¦¬à§ĩà¦¨Ġà¦¨à¦¾à¥¤ĠContent-à¦ıà¦°Ġà¦ķà¦¾à¦ľĠà¦¶à§ģà¦§à§ģĠ": 811,
      "à§«à¦Łà¦¿ĠhookĠtestĠà¦ķà¦°à§ģà¦¨à¥¤ĠUnsupported": 812,
      "engagementĠà¦¨à§Ł;Ġbuyer-à¦ıà¦°ĠdecisionĠfrictionĠà¦ķà¦®à¦¾à¦¨à§ĭ": 813,
      "Ġangle-à¦ıĠfeatureĠlistĠà¦¨à¦¾": 814,
      "a-à¦ıà¦°Ġà§©âĢĵà§«à¦Łà¦¿ĠhookĠtestĠà¦ķà¦°à§ģà¦¨à¥¤ĠUnsupported": 815,
      "Ġclaim,ĠfakeĠtestimonialĠà¦¬à¦¾ĠmisleadingĠbe": 816,
      "à¦ıà¦ķà¦ĩĠcoreĠidea-à¦ıà¦°Ġà§©âĢĵà§«à¦Łà¦¿ĠhookĠtestĠà¦ķà¦°à§ģà¦¨à¥¤ĠUnsupported": 817,
      ";ĠsalesĠà¦¹à¦²à§ĩĠorder,ĠdeliveredĠorderĠà¦ıà¦¬à¦ĤĠcontributionĠprofitĠà¦¦à§ĩà¦ĸà§ģà¦¨à¥¤ĠčĊ": 818,
      "ĠâĨĴĠconcreteĠproofĠorĠdemonstrationĠâĨĴĠobjectionĠhandlingĠâĨĴĠCT": 819,
      "uctureĠà¦¬à§įà¦¯à¦¬à¦¹à¦¾à¦°Ġà¦ķà¦°à§ģà¦¨:ĠHookĠâĨĴĠspecificĠbuyerĠproblemĠâĨĴĠproduct/solution": 820,
      "Ġà¦ħà¦¨à§ģà¦¯à¦¾à§Łà§ĢĠKPIĠà¦¬à¦¾à¦Ľà§ģà¦¨à¥¤ĠAwarenessĠà¦¹à¦²à§ĩĠreach/viewĠquality;ĠleadĠgoalĠà¦¹à¦²à§ĩĠqualifiedĠmessage/lead": 821,
      "à¦ıà¦ķà¦Łà¦¿Ġmobile-firstĠcontentĠstructureĠà¦¬à§įà¦¯à¦¬à¦¹à¦¾à¦°Ġà¦ķà¦°à§ģà¦¨:ĠHookĠâĨĴĠspecificĠbuyerĠproblemĠâĨĴĠproduct/solution": 822,
      "Ġà¦¬à¦¾à¦¸à§įà¦¤à¦¬ĠcontextĠà¦¦à§ĩà¦ĸà¦¾à¦¨à¥¤Ġà¦ªà§įà¦°à¦¥à¦®Ġscreen/à¦ªà§įà¦°à¦¥à¦®Ġà¦ķà§Łà§ĩà¦ķĠà¦¸à§ĩà¦ķà§ĩà¦¨à§įà¦¡à§ĩĠà¦¬à¦¿à¦·à§Łà¦Łà¦¿Ġà¦ªà¦°à¦¿à¦·à§įà¦ķà¦¾à¦°Ġà¦ķà¦°à§ģà¦¨à¥¤ĠčĊ": 823,
      "fore/afterĠà¦¬à§įà¦¯à¦¬à¦¹à¦¾à¦°Ġà¦ķà¦°à¦¬à§ĩà¦¨Ġà¦¨à¦¾à¥¤ĠContent-à¦ıà¦°Ġà¦ķà¦¾à¦ľĠà¦¶à§ģà¦§à§ģĠengagementĠà¦¨à§Ł;Ġbuyer-à¦ıà¦°ĠdecisionĠfrictionĠà¦ķà¦®à¦¾à¦¨à§ĭ": 824,
      "Ġclaim,ĠfakeĠtestimonialĠà¦¬à¦¾ĠmisleadingĠbefore/afterĠà¦¬à§įà¦¯à¦¬à¦¹à¦¾à¦°Ġà¦ķà¦°à¦¬à§ĩà¦¨Ġà¦¨à¦¾à¥¤ĠContent-à¦ıà¦°Ġà¦ķà¦¾à¦ľĠà¦¶à§ģà¦§à§ģĠengagementĠà¦¨à§Ł;Ġbuyer-à¦ıà¦°ĠdecisionĠfrictionĠà¦ķà¦®à¦¾à¦¨à§ĭ": 825,
      "à¦ıà¦ķà¦ĩĠcoreĠidea-à¦ıà¦°Ġà§©âĢĵà§«à¦Łà¦¿ĠhookĠtestĠà¦ķà¦°à§ģà¦¨à¥¤ĠUnsupportedĠclaim,ĠfakeĠtestimonialĠà¦¬à¦¾ĠmisleadingĠbefore/afterĠà¦¬à§įà¦¯à¦¬à¦¹à¦¾à¦°Ġà¦ķà¦°à¦¬à§ĩà¦¨Ġà¦¨à¦¾à¥¤ĠContent-à¦ıà¦°Ġà¦ķà¦¾à¦ľĠà¦¶à§ģà¦§à§ģĠengagementĠà¦¨à§Ł;Ġbuyer-à¦ıà¦°ĠdecisionĠfrictionĠà¦ķà¦®à¦¾à¦¨à§ĭ": 826,
      "ĠâĨĴĠconcreteĠproofĠorĠdemonstrationĠâĨĴĠobjectionĠhandlingĠâĨĴĠCTAà¥¤ĠčĊ": 827,
      "Ġà¦ħà¦¨à§ģà¦¯à¦¾à§Łà§ĢĠKPIĠà¦¬à¦¾à¦Ľà§ģà¦¨à¥¤ĠAwarenessĠà¦¹à¦²à§ĩĠreach/viewĠquality;ĠleadĠgoalĠà¦¹à¦²à§ĩĠqualifiedĠmessage/lead;ĠsalesĠà¦¹à¦²à§ĩĠorder,ĠdeliveredĠorderĠà¦ıà¦¬à¦ĤĠcontributionĠprofitĠà¦¦à§ĩà¦ĸà§ģà¦¨à¥¤ĠčĊ": 828,
      "à¦ıà¦ķà¦Łà¦¿Ġmobile-firstĠcontentĠstructureĠà¦¬à§įà¦¯à¦¬à¦¹à¦¾à¦°Ġà¦ķà¦°à§ģà¦¨:ĠHookĠâĨĴĠspecificĠbuyerĠproblemĠâĨĴĠproduct/solutionĠâĨĴĠconcreteĠproofĠorĠdemonstrationĠâĨĴĠobjectionĠhandlingĠâĨĴĠCTAà¥¤ĠčĊ": 829,
      "à¦ıà¦ķà¦ĩĠcoreĠidea-à¦ıà¦°Ġà§©âĢĵà§«à¦Łà¦¿ĠhookĠtestĠà¦ķà¦°à§ģà¦¨à¥¤ĠUnsupportedĠclaim,ĠfakeĠtestimonialĠà¦¬à¦¾ĠmisleadingĠbefore/afterĠà¦¬à§įà¦¯à¦¬à¦¹à¦¾à¦°Ġà¦ķà¦°à¦¬à§ĩà¦¨Ġà¦¨à¦¾à¥¤ĠContent-à¦ıà¦°Ġà¦ķà¦¾à¦ľĠà¦¶à§ģà¦§à§ģĠengagementĠà¦¨à§Ł;Ġbuyer-à¦ıà¦°ĠdecisionĠfrictionĠà¦ķà¦®à¦¾à¦¨à§ĭà¥¤čĊ": 830,
      "dra": 831,
      "drail": 832,
      "Ġguardrail": 833,
      "à§¦à§¨": 834,
      "à§¦à§¨à§Ń": 835,
      "unnel": 836,
      "Ĩà¦®": 837,
      "Ġch": 838,
      "imp": 839,
      "ariable": 840,
      "bus": 841,
      ",à§¦à§¦à§¦": 842,
      "ss": 843,
      "Ġb": 844,
      "eck": 845,
      "à§ĩĠà¦¤": 846,
      "Ġà¦¬à§ĩà¦°": 847,
      "pt": 848,
      "Ġà¦¨à§ĩà¦¬": 849,
      "Ġex": 850,
      "ĠâĨĴĠre": 851,
      "au": 852,
      "Ġà¦¬à§ĩà¦°Ġà¦ķà¦°à§ģà¦¨": 853,
      "ress": 854,
      "Ġexper": 855,
      "à§ģĠorder": 856,
      "âĢĶ": 857,
      "ul": 858,
      "ot": 859,
      "annel": 860,
      "Ġchannel": 861,
      "à¦¾Ġà¦ķà¦°à¦¬à§ĩà¦¨Ġà¦¨à¦¾": 862,
      "len": 863,
      "Ġà¦ķà¦°à¦¬?čĊ": 864,
      "ott": 865,
      "ience": 866,
      "Ġà¦¬à§įà¦¯à¦¬à¦¸à¦¾à§Ł": 867,
      "Ġbott": 868,
      "Ġexperience": 869,
      "leneck": 870,
      "Ġbottleneck": 871,
      "à§Ģà¦°": 872,
      "tention": 873,
      "à¦¤à§ĩĠà¦ªà¦¾à¦°à§ĩ": 874,
      "etri": 875,
      "fill": 876,
      ",Ġdelivery": 877,
      "ulfill": 878,
      "etric": 879,
      "ulfillment": 880,
      "deration": 881,
      "sideration": 882,
      "Ġprice": 883,
      "ay": 884,
      "Ġobjection": 885,
      "Ĩà¦®à¦¿": 886,
      "dget": 887,
      "ableĠacquisition": 888,
      "qualifiedĠ": 889,
      "Ġà¦ªà¦°à¦¿": 890,
      "Ġà¦¹à¦¤à§ĩĠà¦ªà¦¾à¦°à§ĩ": 891,
      "Ġà¦§": 892,
      "à¦¿à¦¶": 893,
      "à¦¾à¦¦": 894,
      "AC": 895,
      "CAC": 896,
      "à§ĩà¦¨Ġà¦¨à¦¾à¥¤Ġ": 897,
      "à§ĩà¦¤": 898,
      "Ġà¦ħà¦": 899,
      "à§ĩĠs": 900,
      "he": 901,
      "à§ĩĠà¦ª": 902,
      "à§įà¦Ł": 903,
      "à§ĩĠà¦¨": 904,
      "à§¨à§¦à§¨à§Ń": 905,
      "Ġin": 906,
      "à¦¶": 907,
      "ĠâĢ": 908,
      "Ġà¦°à¦¾à¦ĸà§ģà¦¨": 909,
      "to": 910,
      "Ġà¦¦à¦¿à¦¨à¥¤Ġà¦ı": 911,
      "Ġà¦Ĩà¦Ĺà§ĩĠ": 912,
      "by": 913,
      "ou": 914,
      "Ġà¦Ńà¦¾à¦²à§ĭĠà¦ķà¦¿à¦¨à§įà¦¤à§ģĠorder": 915,
      "rate": 916,
      "Ġrate": 917,
      "à§ĩĠà¦¸": 918,
      "et": 919,
      "Ġdeliver": 920,
      "Ġà¦Ł": 921,
      "Ġà¦¯": 922,
      "à§įà¦·à§ĩà¦¤": 923,
      "art": 924,
      "Ġconsideration": 925,
      "line": 926,
      "aris": 927,
      "omparis": 928,
      "omparison": 929,
      "Ġon": 930,
      "Ġonline": 931,
      "lev": 932,
      "§à¦¾à¦°à¦£": 933,
      "Ġà¦Ĺ": 934,
      "fy": 935,
      "Ġl": 936,
      "à§įà¦·à§ĩà¦¤à§įà¦°": 937,
      "à§ģà¦°à§ģ": 938,
      "ack": 939,
      "alue": 940,
      "Ġconc": 941,
      "ern": 942,
      "Ġconcern": 943,
      "am": 944,
      "Ġà¦¥": 945,
      "à§įà¦§": 946,
      "ome": 947,
      "-à¦ıà¦°Ġà¦ķà§įà¦·à§ĩà¦¤à§įà¦°": 948,
      "Ġà¦Łà¦¾à¦ķ": 949,
      "Ġà¦ıà¦¬à¦ĤĠw": 950,
      "Ġà¦ķà§ĭà¦¨": 951,
      "/re": 952,
      "enti": 953,
      "à¦¿à¦°à§įà¦§à¦¾à¦°à¦£": 954,
      "¦à§ĩà¦ĸ": 955,
      "dience": 956,
      "audience": 957,
      "/ed": 958,
      "ucation": 959,
      "/education": 960,
      "Ġà¦ķà¦°à¦Ľà¦¿": 961,
      "cept": 962,
      ",Ġaudience": 963,
      "ĸà¦¾à¦°": 964,
      "§à§įà¦¯": 965,
      "ary": 966,
      "Ġà¦¹à¦¿à¦¸à§ĩà¦¬à§ĩĠà¦¦à§ĩà¦ĸ": 967,
      "nst": 968,
      "Ġprim": 969,
      "Ġlan": 970,
      "Ġprimary": 971,
      "ĸà¦¾à¦°à¦¾à¦ª": 972,
      "à¦¿à¦°à§įà¦§à¦¾à¦°à¦£Ġà¦ķà¦°à§ģà¦¨": 973,
      "/m": 974,
      "ression": 975,
      "Ġvariable": 976,
      "à¦¾Ġà¦ķà¦°à§ģà¦¨à¥¤ĠčĊ": 977,
      "à§ĩĠcreative": 978,
      "leĠà¦": 979,
      "à§ĩĠdi": 980,
      "ĠâĨĴĠclick": 981,
      ",Ġoffer": 982,
      "ĠâĨĴĠorder": 983,
      "ĠâĨĴĠdeliver": 984,
      "Ġaccept": 985,
      "/cancellation": 986,
      "turn/cancellation": 987,
      "ableĠCAC": 988,
      "impression": 989,
      "ĠâĨĴĠdeliveredĠorder": 990,
      "ĠacceptableĠCAC": 991,
      "à§¦,à§¦à§¦à§¦": 992,
      "à¦¾à¦¨à§įà¦¤": 993,
      "à¦¯à¦¼": 994,
      "Ġà¦ļ": 995,
      "eration": 996,
      "eneration": 997,
      "leadĠgeneration": 998,
      "Ļà§įà¦": 999,
      "ner-à¦ıà¦°": 1000,
      "Ġà¦¸à§ĩà¦Ł": 1001,
      "Ġà§§à§¦à§¦": 1002,
      "Ġorder": 1003,
      "Ġconversation": 1004,
      "Ġà§§à§¦à§¦Ġorder": 1005,
      "Ġà¦ķà¦°à¦¾": 1006,
      "Ġà¦¥à§ĩà¦ķ": 1007,
      "Ġcustomer": 1008,
      "à¦ĵ": 1009,
      "Ļà§įà¦Ĺ": 1010,
      "-care": 1011,
      ",Ġà¦": 1012,
      "à¥¤Ġà¦Ĩà¦®à¦¿": 1013,
      "Ġà¦ļà¦¾à¦²": 1014,
      "à¦¤à§įà¦¤": 1015,
      "Ġà¦¨à¦¿à§Łà§ĩĠà¦": 1016,
      "à§ĩà¦ĵ": 1017,
      "à¦Ń": 1018,
      "Ġà¦ķà¦®Ġà¦¹à¦²à§ĩĠs": 1019,
      "cale": 1020,
      "oc": 1021,
      "à¦°à¦£": 1022,
      "à¥¤Ġà¦¤": 1023,
      "à§Ĥà¦²": 1024,
      "-à¦ıĠoffer": 1025,
      "Ġà¦¸à¦¾à¦²": 1026,
      "à¦ªà¦¨": 1027,
      "Ġà¦¹à¦²à§ĩĠcreative": 1028,
      "à¦ļ": 1029,
      "âĢĻ": 1030,
      "à§ĩà¦·": 1031,
      "à§Ĥà¦°à§įà¦": 1032,
      "à¦¿à¦¦à§įà¦§": 1033,
      "Ġangle-à¦ıĠfeatureĠlistĠà¦¨à¦¾Ġà¦¦à¦¿à§Łà§ĩĠà¦": 1034,
      "à¦¿à¦¦à§įà¦§à¦¾à¦¨à§įà¦¤": 1035,
      "Ġà¦¬à¦¾à¦ľ": 1036,
      "Ġà¦¸à¦Ļà§įà¦Ĺ": 1037,
      "Ġà¦¸à¦®à§įà¦ª": 1038,
      "à§ģà¦²": 1039,
      "-à¦ıà¦°Ġà¦¸à¦Ļà§įà¦Ĺ": 1040,
      "iness": 1041,
      "business": 1042,
      "Ġà¦¹à¦²à§ĩà¦ĵ": 1043,
      "Ġfunnel": 1044,
      "Ġpay": 1045,
      "à§ĩĠà¦¸à¦¿à¦¦à§įà¦§à¦¾à¦¨à§įà¦¤": 1046,
      "Ġprice,Ġ": 1047,
      "à§ĩĠà¦¸à¦¿à¦¦à§įà¦§à¦¾à¦¨à§įà¦¤Ġà¦¨à§ĩà¦¬": 1048,
      "Ġdelivery": 1049,
      "dence": 1050,
      "vidence": 1051,
      "Ġevidence": 1052,
      "Ĥà¦¶": 1053,
      "à¦ī": 1054,
      "à¦¤à§įà¦¤à¦°": 1055,
      "à§ĩà¦Ľ": 1056,
      "à¦°à§įà¦ķ": 1057,
      "à§įà¦°à¦¶": 1058,
      "Ġà¦¬à¦¾à¦ľà§ĩà¦Ł": 1059,
      "Ġà¦ķà¦°à¦¾à¦°": 1060,
      "Ġcancellation": 1061,
      "à§įà¦°à¦¶à§įà¦¨": 1062,
      "à¦°à¦ªà¦°": 1063,
      "à§ĩĠà¦ı": 1064,
      "Ġsu": 1065,
      "à¦¿à¦ľ": 1066,
      "à¦¨à§įà¦¨": 1067,
      "à¦¾à¦ĩ": 1068,
      "Ġà¦¸à¦®à§įà¦ªà¦°à§įà¦ķ": 1069,
      "à§Ĥà¦°à§įà¦£": 1070,
      "®à¦": 1071,
      "à¦¨à§įà¦¨à¦¤": 1072,
      "Ġà¦®à§Ĥà¦²": 1073,
      "à¦¾à¦¬": 1074,
      "Ġà¦īà¦¨à§įà¦¨à¦¤": 1075,
      "qualifiedĠlead": 1076,
      "obby": 1077,
      "à§įà¦¥": 1078,
      "ast": 1079,
      "à¦¾à¦®": 1080,
      "Ġà¦ķà¦°à§ĩ": 1081,
      "à¥¤Ġà¦¸": 1082,
      "à¦¤à§įà¦¬": 1083,
      "à§įà¦¯à¦¾": 1084,
      "Ĩà¦ªà¦¨": 1085,
      "Ġà¦ħà¦Ĥà¦¶": 1086,
      "Bu": 1087,
      "à¦īà¦¤à§įà¦¤à¦°": 1088,
      "à§ĩà¦ĩ": 1089,
      "Budget": 1090,
      "à¦ªà§įà¦°à¦¶à§įà¦¨": 1091,
      "à§ĭà¦": 1092,
      "op/": 1093,
      "à§ģà¦°à§ģà¦¤à§įà¦¬": 1094,
      "à¦¿à¦¤à§įà¦¤": 1095,
      "à¦¦à¦¾à¦¹": 1096,
      "à¦¦à¦¾à¦¹à¦°à¦£": 1097,
      "Ġà¦Łà¦¾à¦ķà¦¾": 1098,
      "Ġà¦ªà¦¾à¦¶": 1099,
      "à¦ªà§Ĥà¦°à§įà¦£": 1100,
      "==": 1101,
      "à§ģà¦°à§ģà¦¤à§įà¦¬à¦ªà§Ĥà¦°à§įà¦£": 1102,
      "gative": 1103,
      "negative": 1104,
      "Ġà¦ıà¦¬à¦ĤĠà¦ıà¦ķà¦Łà¦¿": 1105,
      "Ġà¦¨à¦¿à§Łà§ĩĠ": 1106,
      "Ġà¦Ĺà§ģà¦°à§ģà¦¤à§įà¦¬à¦ªà§Ĥà¦°à§įà¦£": 1107,
      "à¥¤Ġà¦ī": 1108,
      "à¦¾à¦¨à¥¤čĊ": 1109,
      "Ġà¦ķà¦°à¦¤à§ĩĠà¦ļà¦¾à¦ĩà¥¤Ġ": 1110,
      "à¦¾à¦¨à§ĭà¦°": 1111,
      "à§ĩà¦·à§įà¦Ł": 1112,
      "à§ĩĠin": 1113,
      "à§įà¦°à¦¤": 1114,
      "Ġrelev": 1115,
      "Ġrelevance": 1116,
      "à¦²à¦¾à¦¦": 1117,
      "Ġà¦ļà§ĩà¦·à§įà¦Ł": 1118,
      "¸à¦¬": 1119,
      "à¦¾à¦¶à¦¿": 1120,
      "à¦¿à¦¤à§įà¦¤à¦¿à¦ķ": 1121,
      "à¥¤Ġà¦īà¦¦à¦¾à¦¹à¦°à¦£": 1122,
      "à¦¾à¦ªà¦¾à¦¶à¦¿": 1123,
      "Ġà¦ªà¦¾à¦¶à¦¾à¦ªà¦¾à¦¶à¦¿": 1124,
      "à¦ªà§įà¦¤": 1125,
      "Ġà¦ķà¦°à¦¾à¦°Ġà¦ļà§ĩà¦·à§įà¦Ł": 1126,
      "Ġr": 1127,
      "à¦¯": 1128,
      "jo": 1129,
      "Ġà¦ĵà¦ªà¦°": 1130,
      "à§ģà¦°à§ĭ": 1131,
      "-à¦ıà¦°Ġà¦ħà¦Ĥà¦¶": 1132,
      "à¦Ńà¦¿à¦¤à§įà¦¤à¦¿à¦ķ": 1133,
      "à¦ªà§įà¦¤à¦¾à¦¹": 1134,
      "-à¦ıà¦°Ġà¦¬à¦¾à¦¸à§įà¦¤à¦¬ĠcontextĠà¦¦à§ĩà¦ĸà¦¾à¦¨à¥¤Ġà¦ªà§įà¦°à¦¥à¦®Ġscreen/à¦ªà§įà¦°à¦¥à¦®Ġà¦ķà§Łà§ĩà¦ķĠà¦¸à§ĩà¦ķà§ĩà¦¨à§įà¦¡à§ĩĠà¦¬à¦¿à¦·à§Łà¦Łà¦¿Ġà¦ªà¦°à¦¿à¦·à§įà¦ķà¦¾à¦°Ġà¦ķà¦°à§ģà¦¨à¥¤ĠčĊ": 1135,
      "Ġà¦§à§Ģà¦°": 1136,
      ",Ġà¦²à¦ķà§įà¦·à§įà¦¯": 1137,
      "Ġà¦ķà¦°à¦¾à¦°Ġà¦ļà§ĩà¦·à§įà¦Łà¦¾Ġà¦ķà¦°à¦¬à§ĩà¦¨Ġà¦¨à¦¾": 1138,
      "id": 1139,
      "Ġjo": 1140,
      "min": 1141,
      "Ġreach": 1142,
      "à§ĩĠà¦ªà§ģà¦°à§ĭ": 1143,
      "Ġà¦¬à¦¾Ġ": 1144,
      "Ġsuppor": 1145,
      "à¥¤Ġà¦īà¦¦à¦¾à¦¹à¦°à¦£:": 1146,
      "Ġsupport": 1147,
      ",Ġconversion": 1148,
      ",Ġchannel": 1149,
      ",Ġconsideration": 1150,
      "/objectionĠhandling": 1151,
      "/trust": 1152,
      "Target": 1153,
      "y-à¦ıà¦°Ġà¦ħà¦Ĥà¦¶": 1154,
      "stment": 1155,
      "-à¦ıĠproduct": 1156,
      "-à¦ıĠproof": 1157,
      "-à¦ıĠrelevance": 1158,
      "-à¦ıà¦°Ġbottleneck": 1159,
      "Ġsol": 1160,
      "inner-à¦ıà¦°": 1161,
      "der/c": 1162,
      "orderĠre": 1163,
      "ageĠà¦ĵ": 1164,
      "Ġà¦¬à¦¾Ġcancellation": 1165,
      "ney-à¦ıà¦°Ġà¦ħà¦Ĥà¦¶": 1166,
      "ingĠcontext": 1167,
      "ĠbuyingĠcontext": 1168,
      "urney-à¦ıà¦°Ġà¦ħà¦Ĥà¦¶": 1169,
      "veĠà¦ķà¦°à¦¾à¦°Ġà¦ļà§ĩà¦·à§įà¦Łà¦¾Ġà¦ķà¦°à¦¬à§ĩà¦¨Ġà¦¨à¦¾": 1170,
      "vestment": 1171,
      "-à¦ķà§ĩĠà¦ªà§ģà¦°à§ĭ": 1172,
      "Ġà¦ĵĠreach": 1173,
      "ĠmessageĠà¦¦à¦¿à¦¨à¥¤Ġà¦ı": 1174,
      "à¥¤Ġà¦ķà§ĢĠà¦ķà¦°à¦¬?čĊ": 1175,
      "à¦ıà¦ķà¦Łà¦¿Ġprimary": 1176,
      "ĠKPIĠà¦°à¦¾à¦ĸà§ģà¦¨": 1177,
      "ĠKPIĠà¦ıà¦¬à¦ĤĠà¦ıà¦ķà¦Łà¦¿": 1178,
      "guageĠà¦ĵ": 1179,
      "ĠtestĠà¦ķà¦°à§ģà¦¨Ġà¦ıà¦¬à¦ĤĠw": 1180,
      "/comparison": 1181,
      "°à¦¾à¦ĸà§ģà¦¨à¥¤Ġà¦¸": 1182,
      ",Ġretention": 1183,
      "à¦ķà¦ĩĠcreative": 1184,
      "Ġà¦ħà¦¨à§ģà¦¯à¦¾à§Łà§ĢĠmessageĠà¦¦à¦¿à¦¨à¥¤Ġà¦ı": 1185,
      "ĠsalesĠà¦¬à¦¾à§ľ": 1186,
      "Awareness-à¦ıĠrelevance": 1187,
      "ĠcontributionĠmarginĠà¦¬à¦¾Ġcancellation": 1188,
      "Ġà¦¦à¦¿à§Łà§ĩĠà¦¸à¦¬": 1189,
      "ĠstageĠà¦īà¦¨à§įà¦¨à¦¤": 1190,
      "ĠstageĠsol": 1191,
      "ustomerĠsupport": 1192,
      "Ġà¦¹à¦¿à¦¸à§ĩà¦¬à§ĩĠà¦°à¦¾à¦ĸà§ģà¦¨à¥¤Ġà¦¸": 1193,
      "Ġà¦¬à¦¾à§ľà¦¾à¦¨à¥¤čĊ": 1194,
      "ĠguardrailĠKPIĠà¦°à¦¾à¦ĸà§ģà¦¨": 1195,
      "ĠguardrailĠà¦¹à¦¿à¦¸à§ĩà¦¬à§ĩĠà¦°à¦¾à¦ĸà§ģà¦¨à¥¤Ġà¦¸": 1196,
      "Ġexperience/re": 1197,
      "Ġà¦Ĩà¦Ĺà§ĩĠid": 1198,
      "ĠrateĠguardrailĠà¦¹à¦¿à¦¸à§ĩà¦¬à§ĩĠà¦°à¦¾à¦ĸà§ģà¦¨à¥¤Ġà¦¸": 1199,
      "fyĠà¦ķà¦°à§ģà¦¨à¥¤ĠčĊ": 1200,
      "entifyĠà¦ķà¦°à§ģà¦¨à¥¤ĠčĊ": 1201,
      "/education/comparison": 1202,
      "ĠlanguageĠà¦ĵ": 1203,
      "ĠcustomerĠjo": 1204,
      "-à¦ıĠoffer/trust": 1205,
      "Ġà¦Ĺà§ģà¦°à§ģà¦¤à§įà¦¬à¦ªà§Ĥà¦°à§įà¦£à¥¤ĠčĊ": 1206,
      "Ġà¦ķà¦°à¦¤à§ĩĠà¦ļà¦¾à¦ĩà¥¤ĠTarget": 1207,
      "à¦¾à¦¨à§ĭà¦°Ġà¦ªà¦¾à¦¶à¦¾à¦ªà¦¾à¦¶à¦¿": 1208,
      "à§ĩĠinvestment": 1209,
      "Ġà¦ĵà¦ªà¦°Ġà¦§à§Ģà¦°": 1210,
      "à¦Ńà¦¿à¦¤à§įà¦¤à¦¿à¦ķĠtestĠà¦ķà¦°à§ģà¦¨Ġà¦ıà¦¬à¦ĤĠw": 1211,
      "à¦ªà§įà¦¤à¦¾à¦¹à¦Ńà¦¿à¦¤à§įà¦¤à¦¿à¦ķĠtestĠà¦ķà¦°à§ģà¦¨Ġà¦ıà¦¬à¦ĤĠw": 1212,
      "minder/c": 1213,
      "à¥¤Ġà¦īà¦¦à¦¾à¦¹à¦°à¦£:ĠsalesĠà¦¬à¦¾à§ľ": 1214,
      ",Ġconversion-à¦ıĠoffer/trust": 1215,
      ",ĠchannelĠ": 1216,
      ",Ġconsideration-à¦ıĠproof": 1217,
      "/objectionĠhandling,Ġretention": 1218,
      "-à¦ıĠproductĠexperience/re": 1219,
      "-à¦ıà¦°ĠbottleneckĠà¦Ĩà¦Ĺà§ĩĠid": 1220,
      "inner-à¦ıà¦°Ġà¦ĵà¦ªà¦°Ġà¦§à§Ģà¦°": 1221,
      "orderĠreminder/c": 1222,
      "ĠbuyingĠcontextĠà¦ħà¦¨à§ģà¦¯à¦¾à§Łà§ĢĠmessageĠà¦¦à¦¿à¦¨à¥¤Ġà¦ı": 1223,
      "urney-à¦ıà¦°Ġà¦ħà¦Ĥà¦¶Ġà¦¹à¦¿à¦¸à§ĩà¦¬à§ĩĠà¦¦à§ĩà¦ĸ": 1224,
      "veĠà¦ķà¦°à¦¾à¦°Ġà¦ļà§ĩà¦·à§įà¦Łà¦¾Ġà¦ķà¦°à¦¬à§ĩà¦¨Ġà¦¨à¦¾à¥¤ĠčĊ": 1225,
      "-à¦ķà§ĩĠà¦ªà§ģà¦°à§ĭĠcustomerĠjo": 1226,
      "Ġà¦ĵĠreach,Ġconsideration-à¦ıĠproof": 1227,
      "à¦ıà¦ķà¦Łà¦¿ĠprimaryĠKPIĠà¦ıà¦¬à¦ĤĠà¦ıà¦ķà¦Łà¦¿": 1228,
      "à¦ķà¦ĩĠcreativeĠà¦¦à¦¿à§Łà§ĩĠà¦¸à¦¬": 1229,
      "Awareness-à¦ıĠrelevanceĠà¦ĵĠreach,Ġconsideration-à¦ıĠproof": 1230,
      "ĠcontributionĠmarginĠà¦¬à¦¾ĠcancellationĠrateĠguardrailĠà¦¹à¦¿à¦¸à§ĩà¦¬à§ĩĠà¦°à¦¾à¦ĸà§ģà¦¨à¥¤Ġà¦¸": 1231,
      "ĠstageĠà¦īà¦¨à§įà¦¨à¦¤Ġà¦ķà¦°à¦¤à§ĩĠà¦ļà¦¾à¦ĩà¥¤ĠTarget": 1232,
      "ĠstageĠsolveĠà¦ķà¦°à¦¾à¦°Ġà¦ļà§ĩà¦·à§įà¦Łà¦¾Ġà¦ķà¦°à¦¬à§ĩà¦¨Ġà¦¨à¦¾à¥¤ĠčĊ": 1233,
      "ustomerĠsupportĠà¦Ĺà§ģà¦°à§ģà¦¤à§įà¦¬à¦ªà§Ĥà¦°à§įà¦£à¥¤ĠčĊ": 1234,
      "ĠguardrailĠKPIĠà¦°à¦¾à¦ĸà§ģà¦¨à¥¤Ġà¦īà¦¦à¦¾à¦¹à¦°à¦£:ĠsalesĠà¦¬à¦¾à§ľ": 1235,
      "/education/comparison,Ġconversion-à¦ıĠoffer/trust": 1236,
      "ĠlanguageĠà¦ĵĠbuyingĠcontextĠà¦ħà¦¨à§ģà¦¯à¦¾à§Łà§ĢĠmessageĠà¦¦à¦¿à¦¨à¥¤Ġà¦ı": 1237,
      "à¦¾à¦¨à§ĭà¦°Ġà¦ªà¦¾à¦¶à¦¾à¦ªà¦¾à¦¶à¦¿ĠcontributionĠmarginĠà¦¬à¦¾ĠcancellationĠrateĠguardrailĠà¦¹à¦¿à¦¸à§ĩà¦¬à§ĩĠà¦°à¦¾à¦ĸà§ģà¦¨à¥¤Ġà¦¸": 1238,
      "à§ĩĠinvestmentĠà¦¬à¦¾à§ľà¦¾à¦¨à¥¤čĊ": 1239,
      "à¦ªà§įà¦¤à¦¾à¦¹à¦Ńà¦¿à¦¤à§įà¦¤à¦¿à¦ķĠtestĠà¦ķà¦°à§ģà¦¨Ġà¦ıà¦¬à¦ĤĠwinner-à¦ıà¦°Ġà¦ĵà¦ªà¦°Ġà¦§à§Ģà¦°": 1240,
      "/objectionĠhandling,Ġretention-à¦ıĠproductĠexperience/re": 1241,
      "-à¦ıà¦°ĠbottleneckĠà¦Ĩà¦Ĺà§ĩĠidentifyĠà¦ķà¦°à§ģà¦¨à¥¤ĠčĊ": 1242,
      "orderĠreminder/customerĠsupportĠà¦Ĺà§ģà¦°à§ģà¦¤à§įà¦¬à¦ªà§Ĥà¦°à§įà¦£à¥¤ĠčĊ": 1243,
      "-à¦ķà§ĩĠà¦ªà§ģà¦°à§ĭĠcustomerĠjourney-à¦ıà¦°Ġà¦ħà¦Ĥà¦¶Ġà¦¹à¦¿à¦¸à§ĩà¦¬à§ĩĠà¦¦à§ĩà¦ĸ": 1244,
      "à¦ıà¦ķà¦Łà¦¿ĠprimaryĠKPIĠà¦ıà¦¬à¦ĤĠà¦ıà¦ķà¦Łà¦¿ĠguardrailĠKPIĠà¦°à¦¾à¦ĸà§ģà¦¨à¥¤Ġà¦īà¦¦à¦¾à¦¹à¦°à¦£:ĠsalesĠà¦¬à¦¾à§ľ": 1245,
      "à¦ķà¦ĩĠcreativeĠà¦¦à¦¿à§Łà§ĩĠà¦¸à¦¬ĠstageĠsolveĠà¦ķà¦°à¦¾à¦°Ġà¦ļà§ĩà¦·à§įà¦Łà¦¾Ġà¦ķà¦°à¦¬à§ĩà¦¨Ġà¦¨à¦¾à¥¤ĠčĊ": 1246,
      "Awareness-à¦ıĠrelevanceĠà¦ĵĠreach,Ġconsideration-à¦ıĠproof/education/comparison,Ġconversion-à¦ıĠoffer/trust": 1247,
      "ĠlanguageĠà¦ĵĠbuyingĠcontextĠà¦ħà¦¨à§ģà¦¯à¦¾à§Łà§ĢĠmessageĠà¦¦à¦¿à¦¨à¥¤Ġà¦ıà¦ķà¦ĩĠcreativeĠà¦¦à¦¿à§Łà§ĩĠà¦¸à¦¬ĠstageĠsolveĠà¦ķà¦°à¦¾à¦°Ġà¦ļà§ĩà¦·à§įà¦Łà¦¾Ġà¦ķà¦°à¦¬à§ĩà¦¨Ġà¦¨à¦¾à¥¤ĠčĊ": 1248,
      "à¦¾à¦¨à§ĭà¦°Ġà¦ªà¦¾à¦¶à¦¾à¦ªà¦¾à¦¶à¦¿ĠcontributionĠmarginĠà¦¬à¦¾ĠcancellationĠrateĠguardrailĠà¦¹à¦¿à¦¸à§ĩà¦¬à§ĩĠà¦°à¦¾à¦ĸà§ģà¦¨à¥¤Ġà¦¸à¦ªà§įà¦¤à¦¾à¦¹à¦Ńà¦¿à¦¤à§įà¦¤à¦¿à¦ķĠtestĠà¦ķà¦°à§ģà¦¨Ġà¦ıà¦¬à¦ĤĠwinner-à¦ıà¦°Ġà¦ĵà¦ªà¦°Ġà¦§à§Ģà¦°": 1249,
      "/objectionĠhandling,Ġretention-à¦ıĠproductĠexperience/reorderĠreminder/customerĠsupportĠà¦Ĺà§ģà¦°à§ģà¦¤à§įà¦¬à¦ªà§Ĥà¦°à§įà¦£à¥¤ĠčĊ": 1250,
      "à¦ıà¦ķà¦Łà¦¿ĠprimaryĠKPIĠà¦ıà¦¬à¦ĤĠà¦ıà¦ķà¦Łà¦¿ĠguardrailĠKPIĠà¦°à¦¾à¦ĸà§ģà¦¨à¥¤Ġà¦īà¦¦à¦¾à¦¹à¦°à¦£:ĠsalesĠà¦¬à¦¾à§ľà¦¾à¦¨à§ĭà¦°Ġà¦ªà¦¾à¦¶à¦¾à¦ªà¦¾à¦¶à¦¿ĠcontributionĠmarginĠà¦¬à¦¾ĠcancellationĠrateĠguardrailĠà¦¹à¦¿à¦¸à§ĩà¦¬à§ĩĠà¦°à¦¾à¦ĸà§ģà¦¨à¥¤Ġà¦¸à¦ªà§įà¦¤à¦¾à¦¹à¦Ńà¦¿à¦¤à§įà¦¤à¦¿à¦ķĠtestĠà¦ķà¦°à§ģà¦¨Ġà¦ıà¦¬à¦ĤĠwinner-à¦ıà¦°Ġà¦ĵà¦ªà¦°Ġà¦§à§Ģà¦°": 1251,
      "Awareness-à¦ıĠrelevanceĠà¦ĵĠreach,Ġconsideration-à¦ıĠproof/education/comparison,Ġconversion-à¦ıĠoffer/trust/objectionĠhandling,Ġretention-à¦ıĠproductĠexperience/reorderĠreminder/customerĠsupportĠà¦Ĺà§ģà¦°à§ģà¦¤à§įà¦¬à¦ªà§Ĥà¦°à§įà¦£à¥¤ĠčĊ": 1252,
      "à¦ıà¦ķà¦Łà¦¿ĠprimaryĠKPIĠà¦ıà¦¬à¦ĤĠà¦ıà¦ķà¦Łà¦¿ĠguardrailĠKPIĠà¦°à¦¾à¦ĸà§ģà¦¨à¥¤Ġà¦īà¦¦à¦¾à¦¹à¦°à¦£:ĠsalesĠà¦¬à¦¾à§ľà¦¾à¦¨à§ĭà¦°Ġà¦ªà¦¾à¦¶à¦¾à¦ªà¦¾à¦¶à¦¿ĠcontributionĠmarginĠà¦¬à¦¾ĠcancellationĠrateĠguardrailĠà¦¹à¦¿à¦¸à§ĩà¦¬à§ĩĠà¦°à¦¾à¦ĸà§ģà¦¨à¥¤Ġà¦¸à¦ªà§įà¦¤à¦¾à¦¹à¦Ńà¦¿à¦¤à§įà¦¤à¦¿à¦ķĠtestĠà¦ķà¦°à§ģà¦¨Ġà¦ıà¦¬à¦ĤĠwinner-à¦ıà¦°Ġà¦ĵà¦ªà¦°Ġà¦§à§Ģà¦°à§ĩĠinvestmentĠà¦¬à¦¾à§ľà¦¾à¦¨à¥¤čĊ": 1253,
      "OA": 1254,
      "ROA": 1255,
      "ROAS": 1256,
      "Łà¦¿": 1257,
      "CTR": 1258,
      "Ġà¦¹à§Ł": 1259,
      "ics": 1260,
      "onom": 1261,
      "Ġec": 1262,
      "Ġmetric": 1263,
      "onomics": 1264,
      "Ġeconomics": 1265,
      "Ġd": 1266,
      "à¦¿à¦ĩ": 1267,
      "low": 1268,
      ":ĠâĢ": 1269,
      "value": 1270,
      "âĢĿ": 1271,
      "option": 1272,
      ":ĠâĢľ": 1273,
      "as": 1274,
      "/value": 1275,
      "dge": 1276,
      "kn": 1277,
      "ledge": 1278,
      "Ġackn": 1279,
      "viewĠà¦¬à¦¾": 1280,
      "owledge": 1281,
      "Ġacknowledge": 1282,
      "buyer-à¦ıà¦°": 1283,
      "Ġfulfillment": 1284,
      "ment/": 1285,
      "ĠcontributionĠprofità¥¤ĠčĊ": 1286,
      "ĠacquisitionĠcost": 1287,
      "ackag": 1288,
      "ma": 1289,
      "à¦¿à¦ķà§įà¦·": 1290,
      "ls": 1291,
      "too": 1292,
      "tools": 1293,
      "CP": 1294,
      "à¦¬à¦°": 1295,
      "Ġà¦ķà¦¾à¦ľ": 1296,
      "gn": 1297,
      "ĠprofitableĠacquisition": 1298,
      "Ġà¦¬à§įà¦¯à¦¬à¦¸à¦¾à§ŁĠ": 1299,
      "ĠrepeatĠpurchase": 1300,
      "à§ĩà¦¶": 1301,
      "Ġà¦Ńà¦¾à¦²à§ĭĠà¦ķà¦¿à¦¨à§įà¦¤à§ģ": 1302,
      "CO": 1303,
      "COD": 1304,
      "Ġà¦Ľà§ĭà¦Ł": 1305,
      "-à¦ıà¦°Ġà¦ķà§įà¦·à§ĩà¦¤à§įà¦°à§ĩĠà¦": 1306,
      "à¦ªà§įà¦°à¦¥à¦®à§ĩĠ": 1307,
      "ign": 1308,
      "Ġà¦ķà¦°à¦Ľà¦¿à¥¤": 1309,
      "à§įà¦Ľ": 1310,
      "Ġà¦ĺ": 1311,
      "ers": 1312,
      "à¦¾à¦°à¦ªà¦°": 1313,
      "à¦ªà§įà¦°à¦¶à§įà¦¨:": 1314,
      "à§Ģà¦¬": 1315,
      "à§ĩĠà¦ıà¦ķà¦Łà¦¿": 1316,
      "à¦¿à¦Łà¦¿": 1317,
      "ory": 1318,
      "à¦¬à¦°à§įà¦¤": 1319,
      "alth": 1320,
      "althy": 1321,
      "Ġà¦¸à¦®à¦¸": 1322,
      "nd": 1323,
      "all": 1324,
      "âĢĶà¦¯": 1325,
      "mall": 1326,
      "bund": 1327,
      "Ġà¦¨à¦¿à§Łà§ĩ": 1328,
      "à§įà¦°à¦¤à¦¿à¦Łà¦¿": 1329,
      "bundle": 1330,
      "Ġsign": 1331,
      "Ġsignal": 1332,
      "eb": 1333,
      "amp": 1334,
      "Ġà¦¦à¦¿à§Ł": 1335,
      "Ġà¦¶à¦¿à¦ķà§įà¦·": 1336,
      "Ġà§¨": 1337,
      "à¦¬à¦°à§įà¦¤à¦¨": 1338,
      "à¦¿à¦¶à§įà¦¬": 1339,
      "repeatĠpurchase": 1340,
      "à§įà¦¯à¦¾à¦ª": 1341,
      "oth": 1342,
      "Ġà¦ªà¦°à¦¿à¦¬à¦°à§įà¦¤à¦¨": 1343,
      "Ġà¦Ĩà¦²à¦¾à¦¦": 1344,
      "ĺà¦": 1345,
      ",Ġpo": 1346,
      "à§¨à§¦à§¨à§ŃĠà¦¸à¦¾à¦²": 1347,
      "Ġà¦ªà§įà¦°à¦¥à¦®Ġsale": 1348,
      "sp": 1349,
      "Ġà¦¸à¦®à¦¸à§įà¦¯à¦¾": 1350,
      "à¦¾à¦°à§įà¦¥": 1351,
      "à§ģà¦£": 1352,
      "à¦¸à§įà¦¬": 1353,
      "Ġà¦¸à¦Ĥ": 1354,
      "¯à¦¦": 1355,
      "à¦ıà¦ķ": 1356,
      "¯à¦¦à¦¿": 1357,
      "-à¦ıà¦°Ġsignal": 1358,
      "no": 1359,
      "Ġà¦¸à¦®à§įà¦Ńà¦¾à¦¬": 1360,
      "views": 1361,
      "à§ĭà¦·": 1362,
      "sis": 1363,
      "Ġangle-à¦ıĠfeatureĠlistĠà¦¨à¦¾Ġà¦¦à¦¿à§Ł": 1364,
      "-careĠproducts": 1365,
      "agno": 1366,
      "agnosis": 1367,
      "Ġà¦ªà§įà¦°à¦¥à¦®Ġà§§à§¦à§¦Ġorder": 1368,
      "§à§įà¦¯à¦®": 1369,
      "funnel": 1370,
      "Ġà¦¸à¦®à§įà¦Ńà¦¾à¦¬à§įà¦¯": 1371,
      "-à¦ıĠà¦ķà¦¾à¦ľ": 1372,
      "Ġto": 1373,
      "ram": 1374,
      "à¥¤Ġà¦¤à¦¾à¦ĩ": 1375,
      "agram": 1376,
      "à§ĩĠà¦ıà¦ķà¦Łà¦¿Ġà¦¬": 1377,
      "Inst": 1378,
      "con": 1379,
      "Instagram": 1380,
      "You": 1381,
      "Tu": 1382,
      "YouTu": 1383,
      "YouTube": 1384,
      "à¥¤Ġà¦¯à¦¦à¦¿": 1385,
      "for": 1386,
      "à§ľà¦¾": 1387,
      "nessĠto": 1388,
      "lingnessĠto": 1389,
      "illingnessĠto": 1390,
      "illingnessĠtoĠpay": 1391,
      "Ľà¦¾": 1392,
      "à¦²à§ĩà¦°": 1393,
      "form": 1394,
      "à§įà¦¯à¦¾à¦ªà§įà¦¤": 1395,
      "à§ĭà¦·à¦£": 1396,
      "Ľà¦¾à§ľà¦¾": 1397,
      "Ġà¦ªà¦°à§įà¦¯à¦¾à¦ªà§įà¦¤": 1398,
      "à¦¿Ġà¦Ĩà¦Ĺ": 1399,
      "à§įà¦¯à¦¾à¦²": 1400,
      "sĠconversation": 1401,
      "Ġà¦ıà¦¬à¦ĤĠre": 1402,
      "alesĠconversation": 1403,
      "Ġà¦Ĩà¦Ľ": 1404,
      "Ġà¦Ńà¦¾à¦Ļ": 1405,
      "Ġspe": 1406,
      "Wh": 1407,
      "Ġcontr": 1408,
      "Ġà¦ĺà§ĭà¦·à¦£": 1409,
      "dd": 1410,
      "à¦ªà§įà¦°à¦¤à¦¿à¦Łà¦¿": 1411,
      "Ġà¦¦à§ĩà¦ĸà¦Ľà¦¿": 1412,
      "à§ĩĠà¦¨à¦¿à¦°à§įà¦§à¦¾à¦°à¦£Ġà¦ķà¦°à§ģà¦¨": 1413,
      "Ġà¦ªà¦°à¦¿à¦¬à¦°à§įà¦¤à¦¨Ġà¦ķà¦°à§ĩ": 1414,
      "formation": 1415,
      ",Ġproduct": 1416,
      ",Ġprice,Ġ": 1417,
      "-to": 1418,
      "/COD": 1419,
      ";Ġmessage": 1420,
      "fulfillment": 1421,
      "land": 1422,
      "sĠà¦¦à§ĩà¦ĸà§ģà¦¨": 1423,
      "tĠâĨĴ": 1424,
      "visi": 1425,
      "onse": 1426,
      "ledĠ": 1427,
      "st-c": 1428,
      "à§ģà¦¨:Ġ": 1429,
      "Ġprocess": 1430,
      "Ġsamp": 1431,
      "orderĠà¦Ńà¦¾à¦²à§ĭĠà¦ķà¦¿à¦¨à§įà¦¤à§ģ": 1432,
      "ĠproductĠà¦¬à¦¾": 1433,
      "Ġà¦ıà¦¬à¦ĤĠacceptableĠCAC": 1434,
      "Ġà¦¦à§ĩà¦ĸà§ĩĠà¦¸à¦¿à¦¦à§įà¦§à¦¾à¦¨à§įà¦¤Ġà¦¨à§ĩà¦¬": 1435,
      "testĠà¦ļà¦¾à¦²": 1436,
      "âĢĺà¦": 1437,
      "Ġà¦ķà¦®Ġà¦¹à§Ł": 1438,
      "essage,Ġaudience": 1439,
      "olledĠ": 1440,
      "Ġà¦ĵĠobjection": 1441,
      "Ġmessage/a": 1442,
      "ingĠvisi": 1443,
      "Ġà¦¦à§ĩà¦ĸà§ģà¦¨;Ġmessage": 1444,
      "ed,Ġdelivery": 1445,
      "à§ľĠvariable": 1446,
      "-à¦ķà§ĩĠâĢĺà¦": 1447,
      "à¥¤Ġà¦ķà§Ģà¦Ńà¦¾à¦¬à§ĩĠdi": 1448,
      ",Ġresp": 1449,
      "lickĠexperience": 1450,
      "ĠcontributionĠmarginĠà¦ıà¦¬à¦ĤĠacceptableĠCAC": 1451,
      "-cart": 1452,
      ";ĠorderĠà¦Ńà¦¾à¦²à§ĭĠà¦ķà¦¿à¦¨à§įà¦¤à§ģ": 1453,
      "à¦¾à¦¨à¥¤Ġà¦ªà¦°à§įà¦¯à¦¾à¦ªà§įà¦¤": 1454,
      "/viewĠâĨĴĠproduct/": 1455,
      "à¦ıà¦ķà¦Łà¦¿Ġmetric": 1456,
      "Ġstage-à¦ıà¦°Ġsignal": 1457,
      "peatĠpurchaseà¥¤ĠčĊ": 1458,
      "ĠclickĠà¦Ńà¦¾à¦²à§ĭĠà¦ķà¦¿à¦¨à§įà¦¤à§ģĠorder": 1459,
      "trust,Ġproduct": 1460,
      "à¦¬à¦¾à¦°à§ĩĠà¦ıà¦ķà¦Łà¦¿Ġà¦¬": 1461,
      "-à¦ıà¦°Ġà¦ľà¦¨à§įà¦¯ĠcontributionĠmarginĠà¦ıà¦¬à¦ĤĠacceptableĠCAC": 1462,
      "Ġà¦ķà¦®Ġà¦¹à¦²à§ĩĠfulfillment": 1463,
      "ĠâĨĴĠrepeatĠpurchaseà¥¤ĠčĊ": 1464,
      "Ġà¦¬à§ĩà¦°Ġà¦ķà¦°à§ģà¦¨à¥¤Ġà¦¯à¦¦à¦¿": 1465,
      "âĢĶà¦ªà§įà¦°à¦¤à¦¿à¦Łà¦¿": 1466,
      "Ġchannel-à¦ķà§ĩĠâĢĺà¦": 1467,
      "à¦¾Ġà¦ķà¦°à¦¬à§ĩà¦¨Ġà¦¨à¦¾à¥¤čĊ": 1468,
      "ĠbottleneckĠà¦Ĩà¦²à¦¾à¦¦": 1469,
      "à§ĩà¦¨Ġà¦¨à¦¾à¥¤Ġfunnel": 1470,
      "Ġinformation": 1471,
      "Ġà¦Ńà¦¾à¦²à§ĭĠà¦ķà¦¿à¦¨à§įà¦¤à§ģĠorderĠà¦ķà¦®Ġà¦¹à¦²à§ĩĠs": 1472,
      "Ġà¦ķà§ĭà¦¨Ġstage-à¦ıà¦°Ġsignal": 1473,
      "ĸà¦¾à¦°à¦¾à¦ªâĢĻ": 1474,
      "/message,Ġaudience": 1475,
      "leĠà¦Ľà¦¾à§ľà¦¾": 1476,
      "ĠâĨĴĠclick/viewĠâĨĴĠproduct/": 1477,
      ",Ġoffer,Ġprice,Ġ": 1478,
      "ĠâĨĴĠorderĠâĨĴĠdeliveredĠorder": 1479,
      "turn/cancellationâĢĶà¦ªà§įà¦°à¦¤à¦¿à¦Łà¦¿": 1480,
      "impressionĠâĨĴĠclick/viewĠâĨĴĠproduct/": 1481,
      "Ġà¦¸à§ĩà¦Łà¦¿Ġà¦Ĩà¦Ĺ": 1482,
      "ĠdeliveryĠà¦ķà¦®Ġà¦¹à¦²à§ĩĠfulfillment": 1483,
      "Ġà¦ķà¦°à¦Ľà¦¿à¥¤Ġà¦¸à¦®à¦¸à§įà¦¯à¦¾": 1484,
      ",Ġpost-c": 1485,
      "à¦ıà¦ķà¦¬à¦¾à¦°à§ĩĠà¦ıà¦ķà¦Łà¦¿Ġà¦¬": 1486,
      "agnosisĠà¦ķà¦°à¦¬?čĊ": 1487,
      "Ġà¦¸à¦®à§įà¦Ńà¦¾à¦¬à§įà¦¯ĠbottleneckĠà¦Ĩà¦²à¦¾à¦¦": 1488,
      "-à¦ıĠà¦ķà¦¾à¦ľĠà¦ķà¦°à¦Ľà¦¿à¥¤Ġà¦¸à¦®à¦¸à§įà¦¯à¦¾": 1489,
      "Ġà¦ıà¦¬à¦ĤĠreturn/cancellationâĢĶà¦ªà§įà¦°à¦¤à¦¿à¦Łà¦¿": 1490,
      "alesĠconversationĠà¦ĵĠobjection": 1491,
      "Ġà¦Ńà¦¾à¦Ļà§ģà¦¨:Ġ": 1492,
      "Ġspeed,Ġdelivery": 1493,
      "ĠcontrolledĠ": 1494,
      "Ġà¦ĺà§ĭà¦·à¦£à¦¾Ġà¦ķà¦°à¦¬à§ĩà¦¨Ġà¦¨à¦¾à¥¤čĊ": 1495,
      "dd-to": 1496,
      "Ġà¦¦à§ĩà¦ĸà¦Ľà¦¿à¥¤Ġà¦ķà§Ģà¦Ńà¦¾à¦¬à§ĩĠdi": 1497,
      "Ġà¦ªà¦°à¦¿à¦¬à¦°à§įà¦¤à¦¨Ġà¦ķà¦°à§ĩĠcontrolledĠ": 1498,
      "/CODĠprocess": 1499,
      "landingĠvisi": 1500,
      "sĠà¦¦à§ĩà¦ĸà§ģà¦¨;ĠorderĠà¦Ńà¦¾à¦²à§ĭĠà¦ķà¦¿à¦¨à§įà¦¤à§ģ": 1501,
      "tĠâĨĴĠmessage/a": 1502,
      "onseĠspeed,Ġdelivery": 1503,
      "ĠsampleĠà¦Ľà¦¾à§ľà¦¾": 1504,
      "ĠproductĠà¦¬à¦¾Ġchannel-à¦ķà§ĩĠâĢĺà¦": 1505,
      "Ġà¦¦à§ĩà¦ĸà§ĩĠà¦¸à¦¿à¦¦à§įà¦§à¦¾à¦¨à§įà¦¤Ġà¦¨à§ĩà¦¬à§ĩà¦¨Ġà¦¨à¦¾à¥¤Ġfunnel": 1506,
      "testĠà¦ļà¦¾à¦²à¦¾à¦¨à¥¤Ġà¦ªà¦°à§įà¦¯à¦¾à¦ªà§įà¦¤": 1507,
      "Ġà¦ķà¦®Ġà¦¹à§Ł,Ġpost-c": 1508,
      "Ġà¦¦à§ĩà¦ĸà§ģà¦¨;ĠmessageĠà¦Ńà¦¾à¦²à§ĭĠà¦ķà¦¿à¦¨à§įà¦¤à§ģĠorderĠà¦ķà¦®Ġà¦¹à¦²à§ĩĠs": 1509,
      "à§ľĠvariableĠà¦ªà¦°à¦¿à¦¬à¦°à§įà¦¤à¦¨Ġà¦ķà¦°à§ĩĠcontrolledĠ": 1510,
      ",ĠresponseĠspeed,Ġdelivery": 1511,
      "lickĠexperienceĠà¦¦à§ĩà¦ĸà§ģà¦¨;ĠmessageĠà¦Ńà¦¾à¦²à§ĭĠà¦ķà¦¿à¦¨à§įà¦¤à§ģĠorderĠà¦ķà¦®Ġà¦¹à¦²à§ĩĠs": 1512,
      "-cartĠâĨĴĠorderĠâĨĴĠdeliveredĠorder": 1513,
      "à¦ıà¦ķà¦Łà¦¿ĠmetricĠà¦¦à§ĩà¦ĸà§ĩĠà¦¸à¦¿à¦¦à§įà¦§à¦¾à¦¨à§įà¦¤Ġà¦¨à§ĩà¦¬à§ĩà¦¨Ġà¦¨à¦¾à¥¤Ġfunnel": 1514,
      "ĠclickĠà¦Ńà¦¾à¦²à§ĭĠà¦ķà¦¿à¦¨à§įà¦¤à§ģĠorderĠà¦ķà¦®Ġà¦¹à§Ł,Ġpost-c": 1515,
      "trust,ĠproductĠinformation": 1516,
      "-à¦ıà¦°Ġà¦ľà¦¨à§įà¦¯ĠcontributionĠmarginĠà¦ıà¦¬à¦ĤĠacceptableĠCACĠà¦¬à§ĩà¦°Ġà¦ķà¦°à§ģà¦¨à¥¤Ġà¦¯à¦¦à¦¿": 1517,
      "Ġà¦ķà§ĭà¦¨Ġstage-à¦ıà¦°ĠsignalĠà¦¸à§ĩà¦Łà¦¿Ġà¦Ĩà¦Ĺ": 1518,
      "ĸà¦¾à¦°à¦¾à¦ªâĢĻĠà¦ĺà§ĭà¦·à¦£à¦¾Ġà¦ķà¦°à¦¬à§ĩà¦¨Ġà¦¨à¦¾à¥¤čĊ": 1519,
      "/message,Ġaudience,Ġoffer,Ġprice,Ġ": 1520,
      "impressionĠâĨĴĠclick/viewĠâĨĴĠproduct/landingĠvisi": 1521,
      "ĠdeliveryĠà¦ķà¦®Ġà¦¹à¦²à§ĩĠfulfillment/CODĠprocess": 1522,
      "à¦ıà¦ķà¦¬à¦¾à¦°à§ĩĠà¦ıà¦ķà¦Łà¦¿Ġà¦¬à§ľĠvariableĠà¦ªà¦°à¦¿à¦¬à¦°à§įà¦¤à¦¨Ġà¦ķà¦°à§ĩĠcontrolledĠ": 1523,
      "Ġà¦¸à¦®à§įà¦Ńà¦¾à¦¬à§įà¦¯ĠbottleneckĠà¦Ĩà¦²à¦¾à¦¦à¦¾Ġà¦ķà¦°à§ģà¦¨à¥¤ĠčĊ": 1524,
      "Ġà¦ıà¦¬à¦ĤĠreturn/cancellationâĢĶà¦ªà§įà¦°à¦¤à¦¿à¦Łà¦¿Ġà¦¸à¦®à§įà¦Ńà¦¾à¦¬à§įà¦¯ĠbottleneckĠà¦Ĩà¦²à¦¾à¦¦à¦¾Ġà¦ķà¦°à§ģà¦¨à¥¤ĠčĊ": 1525,
      "alesĠconversationĠà¦ĵĠobjectionsĠà¦¦à§ĩà¦ĸà§ģà¦¨;ĠorderĠà¦Ńà¦¾à¦²à§ĭĠà¦ķà¦¿à¦¨à§įà¦¤à§ģ": 1526,
      "Ġà¦Ńà¦¾à¦Ļà§ģà¦¨:ĠimpressionĠâĨĴĠclick/viewĠâĨĴĠproduct/landingĠvisi": 1527,
      "dd-to-cartĠâĨĴĠorderĠâĨĴĠdeliveredĠorder": 1528,
      "Ġà¦¦à§ĩà¦ĸà¦Ľà¦¿à¥¤Ġà¦ķà§Ģà¦Ńà¦¾à¦¬à§ĩĠdiagnosisĠà¦ķà¦°à¦¬?čĊ": 1529,
      "tĠâĨĴĠmessage/add-to-cartĠâĨĴĠorderĠâĨĴĠdeliveredĠorder": 1530,
      "ĠsampleĠà¦Ľà¦¾à§ľà¦¾ĠproductĠà¦¬à¦¾Ġchannel-à¦ķà§ĩĠâĢĺà¦": 1531,
      "testĠà¦ļà¦¾à¦²à¦¾à¦¨à¥¤Ġà¦ªà¦°à§įà¦¯à¦¾à¦ªà§įà¦¤ĠsampleĠà¦Ľà¦¾à§ľà¦¾ĠproductĠà¦¬à¦¾Ġchannel-à¦ķà§ĩĠâĢĺà¦": 1532,
      ",ĠresponseĠspeed,ĠdeliveryĠà¦ıà¦¬à¦ĤĠreturn/cancellationâĢĶà¦ªà§įà¦°à¦¤à¦¿à¦Łà¦¿Ġà¦¸à¦®à§įà¦Ńà¦¾à¦¬à§įà¦¯ĠbottleneckĠà¦Ĩà¦²à¦¾à¦¦à¦¾Ġà¦ķà¦°à§ģà¦¨à¥¤ĠčĊ": 1533,
      "lickĠexperienceĠà¦¦à§ĩà¦ĸà§ģà¦¨;ĠmessageĠà¦Ńà¦¾à¦²à§ĭĠà¦ķà¦¿à¦¨à§įà¦¤à§ģĠorderĠà¦ķà¦®Ġà¦¹à¦²à§ĩĠsalesĠconversationĠà¦ĵĠobjectionsĠà¦¦à§ĩà¦ĸà§ģà¦¨;ĠorderĠà¦Ńà¦¾à¦²à§ĭĠà¦ķà¦¿à¦¨à§įà¦¤à§ģ": 1534,
      "à¦ıà¦ķà¦Łà¦¿ĠmetricĠà¦¦à§ĩà¦ĸà§ĩĠà¦¸à¦¿à¦¦à§įà¦§à¦¾à¦¨à§įà¦¤Ġà¦¨à§ĩà¦¬à§ĩà¦¨Ġà¦¨à¦¾à¥¤ĠfunnelĠà¦Ńà¦¾à¦Ļà§ģà¦¨:ĠimpressionĠâĨĴĠclick/viewĠâĨĴĠproduct/landingĠvisi": 1535,
      "ĠclickĠà¦Ńà¦¾à¦²à§ĭĠà¦ķà¦¿à¦¨à§įà¦¤à§ģĠorderĠà¦ķà¦®Ġà¦¹à§Ł,Ġpost-clickĠexperienceĠà¦¦à§ĩà¦ĸà§ģà¦¨;ĠmessageĠà¦Ńà¦¾à¦²à§ĭĠà¦ķà¦¿à¦¨à§įà¦¤à§ģĠorderĠà¦ķà¦®Ġà¦¹à¦²à§ĩĠsalesĠconversationĠà¦ĵĠobjectionsĠà¦¦à§ĩà¦ĸà§ģà¦¨;ĠorderĠà¦Ńà¦¾à¦²à§ĭĠà¦ķà¦¿à¦¨à§įà¦¤à§ģ": 1536,
      "trust,ĠproductĠinformation,ĠresponseĠspeed,ĠdeliveryĠà¦ıà¦¬à¦ĤĠreturn/cancellationâĢĶà¦ªà§įà¦°à¦¤à¦¿à¦Łà¦¿Ġà¦¸à¦®à§įà¦Ńà¦¾à¦¬à§įà¦¯ĠbottleneckĠà¦Ĩà¦²à¦¾à¦¦à¦¾Ġà¦ķà¦°à§ģà¦¨à¥¤ĠčĊ": 1537,
      "-à¦ıà¦°Ġà¦ľà¦¨à§įà¦¯ĠcontributionĠmarginĠà¦ıà¦¬à¦ĤĠacceptableĠCACĠà¦¬à§ĩà¦°Ġà¦ķà¦°à§ģà¦¨à¥¤Ġà¦¯à¦¦à¦¿ĠclickĠà¦Ńà¦¾à¦²à§ĭĠà¦ķà¦¿à¦¨à§įà¦¤à§ģĠorderĠà¦ķà¦®Ġà¦¹à§Ł,Ġpost-clickĠexperienceĠà¦¦à§ĩà¦ĸà§ģà¦¨;ĠmessageĠà¦Ńà¦¾à¦²à§ĭĠà¦ķà¦¿à¦¨à§įà¦¤à§ģĠorderĠà¦ķà¦®Ġà¦¹à¦²à§ĩĠsalesĠconversationĠà¦ĵĠobjectionsĠà¦¦à§ĩà¦ĸà§ģà¦¨;ĠorderĠà¦Ńà¦¾à¦²à§ĭĠà¦ķà¦¿à¦¨à§įà¦¤à§ģ": 1538,
      "Ġà¦ķà§ĭà¦¨Ġstage-à¦ıà¦°ĠsignalĠà¦¸à§ĩà¦Łà¦¿Ġà¦Ĩà¦Ĺà§ĩĠà¦¨à¦¿à¦°à§įà¦§à¦¾à¦°à¦£Ġà¦ķà¦°à§ģà¦¨": 1539,
      "/message,Ġaudience,Ġoffer,Ġprice,Ġtrust,ĠproductĠinformation,ĠresponseĠspeed,ĠdeliveryĠà¦ıà¦¬à¦ĤĠreturn/cancellationâĢĶà¦ªà§įà¦°à¦¤à¦¿à¦Łà¦¿Ġà¦¸à¦®à§įà¦Ńà¦¾à¦¬à§įà¦¯ĠbottleneckĠà¦Ĩà¦²à¦¾à¦¦à¦¾Ġà¦ķà¦°à§ģà¦¨à¥¤ĠčĊ": 1540,
      "ĠdeliveryĠà¦ķà¦®Ġà¦¹à¦²à§ĩĠfulfillment/CODĠprocessĠà¦¦à§ĩà¦ĸà§ģà¦¨à¥¤ĠčĊ": 1541,
      "à¦ıà¦ķà¦¬à¦¾à¦°à§ĩĠà¦ıà¦ķà¦Łà¦¿Ġà¦¬à§ľĠvariableĠà¦ªà¦°à¦¿à¦¬à¦°à§įà¦¤à¦¨Ġà¦ķà¦°à§ĩĠcontrolledĠtestĠà¦ļà¦¾à¦²à¦¾à¦¨à¥¤Ġà¦ªà¦°à§įà¦¯à¦¾à¦ªà§įà¦¤ĠsampleĠà¦Ľà¦¾à§ľà¦¾ĠproductĠà¦¬à¦¾Ġchannel-à¦ķà§ĩĠâĢĺà¦": 1542,
      "tĠâĨĴĠmessage/add-to-cartĠâĨĴĠorderĠâĨĴĠdeliveredĠorderĠâĨĴĠrepeatĠpurchaseà¥¤ĠčĊ": 1543,
      "à¦ıà¦ķà¦Łà¦¿ĠmetricĠà¦¦à§ĩà¦ĸà§ĩĠà¦¸à¦¿à¦¦à§įà¦§à¦¾à¦¨à§įà¦¤Ġà¦¨à§ĩà¦¬à§ĩà¦¨Ġà¦¨à¦¾à¥¤ĠfunnelĠà¦Ńà¦¾à¦Ļà§ģà¦¨:ĠimpressionĠâĨĴĠclick/viewĠâĨĴĠproduct/landingĠvisitĠâĨĴĠmessage/add-to-cartĠâĨĴĠorderĠâĨĴĠdeliveredĠorderĠâĨĴĠrepeatĠpurchaseà¥¤ĠčĊ": 1544,
      "-à¦ıà¦°Ġà¦ľà¦¨à§įà¦¯ĠcontributionĠmarginĠà¦ıà¦¬à¦ĤĠacceptableĠCACĠà¦¬à§ĩà¦°Ġà¦ķà¦°à§ģà¦¨à¥¤Ġà¦¯à¦¦à¦¿ĠclickĠà¦Ńà¦¾à¦²à§ĭĠà¦ķà¦¿à¦¨à§įà¦¤à§ģĠorderĠà¦ķà¦®Ġà¦¹à§Ł,Ġpost-clickĠexperienceĠà¦¦à§ĩà¦ĸà§ģà¦¨;ĠmessageĠà¦Ńà¦¾à¦²à§ĭĠà¦ķà¦¿à¦¨à§įà¦¤à§ģĠorderĠà¦ķà¦®Ġà¦¹à¦²à§ĩĠsalesĠconversationĠà¦ĵĠobjectionsĠà¦¦à§ĩà¦ĸà§ģà¦¨;ĠorderĠà¦Ńà¦¾à¦²à§ĭĠà¦ķà¦¿à¦¨à§įà¦¤à§ģĠdeliveryĠà¦ķà¦®Ġà¦¹à¦²à§ĩĠfulfillment/CODĠprocessĠà¦¦à§ĩà¦ĸà§ģà¦¨à¥¤ĠčĊ": 1545,
      "à¦ıà¦ķà¦¬à¦¾à¦°à§ĩĠà¦ıà¦ķà¦Łà¦¿Ġà¦¬à§ľĠvariableĠà¦ªà¦°à¦¿à¦¬à¦°à§įà¦¤à¦¨Ġà¦ķà¦°à§ĩĠcontrolledĠtestĠà¦ļà¦¾à¦²à¦¾à¦¨à¥¤Ġà¦ªà¦°à§įà¦¯à¦¾à¦ªà§įà¦¤ĠsampleĠà¦Ľà¦¾à§ľà¦¾ĠproductĠà¦¬à¦¾Ġchannel-à¦ķà§ĩĠâĢĺà¦ĸà¦¾à¦°à¦¾à¦ªâĢĻĠà¦ĺà§ĭà¦·à¦£à¦¾Ġà¦ķà¦°à¦¬à§ĩà¦¨Ġà¦¨à¦¾à¥¤čĊ": 1546,
      "What": 1547,
      "à¦¤à§ģà¦¨": 1548,
      "ession": 1549,
      "To": 1550,
      "fession": 1551,
      "yĠpro": 1552,
      "ĠleadĠgeneration": 1553,
      "busyĠpro": 1554,
      "fessional": 1555,
      "busyĠprofessional": 1556,
      "Ti": 1557,
      "kTo": 1558,
      "à§¨à§¦à§¨à§Ń-à¦ıà¦°Ġà¦ľà¦¨à§įà¦¯": 1559,
      "TikTo": 1560,
      "TikTok": 1561,
      "Mess": 1562,
      "Ġhobby": 1563,
      "enger": 1564,
      "Messenger": 1565,
      "Ġà¦ªà¦°à¦¿à¦¬à¦¾à¦°": 1566,
      "out": 1567,
      "App": 1568,
      "sApp": 1569,
      "WhatsApp": 1570,
      "Fac": 1571,
      "ebook": 1572,
      "Facebook": 1573,
      "Ġà¦ªà¦°à¦¿à¦¬à¦¾à¦°à§ĩà¦°": 1574,
      "Ġsh": 1575,
      "opp": 1576,
      "Ġà¦¬à¦¾à¦ľà§ĩà¦Łà§ĩà¦°": 1577,
      "ĠonlineĠsh": 1578,
      "à§ĩà¦Ľà§ĩ": 1579,
      "§à§įà¦¯à¦®Ġà¦¬à¦¾à¦ľà§ĩà¦Łà§ĩà¦°": 1580,
      "ĠonlineĠshopp": 1581,
      "§à§įà¦¯à¦®Ġà¦¬à¦¾à¦ľà§ĩà¦Łà§ĩà¦°ĠonlineĠshopp": 1582,
      "à¦¿à¦¶à§įà¦¬à¦¬": 1583,
      "ork": 1584,
      "ĠcostĠ+": 1585,
      "à§Łà§ĩà¦°": 1586,
      "Ġmoth": 1587,
      "ingĠmoth": 1588,
      "orkingĠmoth": 1589,
      "orkingĠmothers": 1590,
      "Ġà¦¶à¦¿à¦ķà§įà¦·à¦¾à¦°à§įà¦¥": 1591,
      "Ġà¦¶à¦¿à¦ķà§įà¦·à¦¾à¦°à§įà¦¥à§Ģ": 1592,
      "à¦¿à¦¦à§įà¦¯à¦¾à¦²": 1593,
      "à¦¿à¦¶à§įà¦¬à¦¬à¦¿à¦¦à§įà¦¯à¦¾à¦²": 1594,
      "à§Łà§ĩà¦°Ġà¦¶à¦¿à¦ķà§įà¦·à¦¾à¦°à§įà¦¥à§Ģ": 1595,
      "à¦¿à¦¶à§įà¦¬à¦¬à¦¿à¦¦à§įà¦¯à¦¾à¦²à§Łà§ĩà¦°Ġà¦¶à¦¿à¦ķà§įà¦·à¦¾à¦°à§įà¦¥à§Ģ": 1596,
      "à¦¤à§ģà¦¨Ġonline": 1597,
      "eĠ": 1598,
      "Ġproblem-": 1599,
      "à¦¿à¦ļ": 1600,
      "Ġà¦°": 1601,
      "us": 1602,
      "à¦¾à¦°Ġ": 1603,
      "«à¦²": 1604,
      "à¦¾à¦ķà¦¾à¦°": 1605,
      "car": 1606,
      "ph": 1607,
      "Ġx": 1608,
      "Ġà¦¤à¦°": 1609,
      "mart": 1610,
      "Ġsmart": 1611,
      "«à¦¸à§įà¦¬": 1612,
      "oneĠ": 1613,
      "à¦²à§ĩà¦°Ġsmart": 1614,
      "phoneĠ": 1615,
      "«à¦¸à§įà¦¬à¦²à§ĩà¦°Ġsmart": 1616,
      "phoneĠus": 1617,
      "«à¦¸à§įà¦¬à¦²à§ĩà¦°ĠsmartphoneĠus": 1618,
      "CTRĠà¦ķà¦®": 1619,
      "ķà¦°": 1620,
      "Ġà¦¬à§įà¦¯à¦¬à¦¸à¦¾à¦°Ġ": 1621,
      "Ġà¦ļà¦¾à¦ķà¦°": 1622,
      "Ġà¦¤à¦°à§ģà¦£": 1623,
      "Ġà¦¬à§įà¦¯à¦¬à¦¸à¦¾à¦°Ġow": 1624,
      "hu": 1625,
      "Ġent": 1626,
      "siast": 1627,
      "ĠhobbyĠent": 1628,
      "husiast": 1629,
      "ĠhobbyĠenthusiast": 1630,
      "¢à¦¾à¦ķà¦¾à¦°": 1631,
      "à§Ģà¦¬à§Ģ": 1632,
      "à¦¿à¦ľà§Ģà¦¬à§Ģ": 1633,
      "Ġà¦ļà¦¾à¦ķà¦°à¦¿à¦ľà§Ģà¦¬à§Ģ": 1634,
      "Ġà¦¤à¦°à§ģà¦£Ġà¦ļà¦¾à¦ķà¦°à¦¿à¦ľà§Ģà¦¬à§Ģ": 1635,
      "¢à¦¾à¦ķà¦¾à¦°Ġà¦¤à¦°à§ģà¦£Ġà¦ļà¦¾à¦ķà¦°à¦¿à¦ľà§Ģà¦¬à§Ģ": 1636,
      "Ġse": 1637,
      "awareness": 1638,
      "à¦¾à¦¯à¦¼": 1639,
      "à§įà¦¯à¦¾à¦¨": 1640,
      "à§¦,à§¦à§¦à§¦Ġà¦Łà¦¾à¦ķà¦¾": 1641,
      "à¦¥": 1642,
      "um": 1643,
      "pr": 1644,
      "¹à¦¬": 1645,
      "à§¨à§¦à§¨à§ŃĠà¦¸à¦¾à¦²à§ĩĠ": 1646,
      "pro": 1647,
      "Ġà¦ķà§Ģà¦Ńà¦¾à¦¬": 1648,
      "Ġla": 1649,
      "Ġà¦¹à¦²à§ĩĠcreative/message,Ġaudience,Ġoffer,Ġprice,Ġtrust,ĠproductĠinformation,ĠresponseĠspeed,ĠdeliveryĠà¦ıà¦¬à¦ĤĠreturn/cancellationâĢĶà¦ªà§įà¦°à¦¤à¦¿à¦Łà¦¿Ġà¦¸à¦®à§įà¦Ńà¦¾à¦¬à§įà¦¯ĠbottleneckĠà¦Ĩà¦²à¦¾à¦¦à¦¾Ġà¦ķà¦°à§ģà¦¨à¥¤ĠčĊ": 1650,
      "Ġà¦¨à¦¿à¦°à§įà¦": 1651,
      "budget": 1652,
      "tedĠ": 1653,
      "à¦īà¦¤à§įà¦¤à¦°:": 1654,
      ",Ġà¦¤": 1655,
      "à§įà¦ļ": 1656,
      "à¦¿à¦¨à§įà¦¨": 1657,
      "scale": 1658,
      "Ġbudget": 1659,
      "Ġà¦Ĩà¦¸": 1660,
      "Ġà¦¦à¦¾à¦®": 1661,
      "à§ģà¦Ŀ": 1662,
      "à§ĩà¦®": 1663,
      "à§įà¦¯à¦¾à¦¨à§įà¦¯": 1664,
      "à¦ħ": 1665,
      "Ġà¦ħà¦¨à§įà¦¯à¦¾à¦¨à§įà¦¯": 1666,
      "Ġà¦īà¦ļ": 1667,
      "workingĠmothers": 1668,
      "Ġà¦¬à¦¾à¦¦": 1669,
      "à§ģà¦Ŀà¦¤à§ĩĠà¦ªà¦¾à¦°": 1670,
      "à§ģà¦Ŀà¦¤à§ĩĠà¦ªà¦¾à¦°à¦Ľà¦¿": 1671,
      "-à¦ķà§ĩ": 1672,
      "à§ĩĠà¦§": 1673,
      "à§ģà¦²à¦¨": 1674,
      "à¦¦à¦²": 1675,
      "Ġà¦¬à¦¦à¦²": 1676,
      "end": 1677,
      "ex": 1678,
      "rec": 1679,
      "à§ĩĠà¦¤à¦¾": 1680,
      "ven": 1681,
      "à§ĩĠà¦¬à¦¿à¦ļ": 1682,
      "come": 1683,
      "à¥¤Ġà¦ıà¦ķà¦Łà¦¿": 1684,
      "ĠproductĠcost": 1685,
      "Ġru": 1686,
      "outcome": 1687,
      "venue": 1688,
      "à¦¿à¦¯à¦¼": 1689,
      "Ġà¦ķà¦¿": 1690,
      "Ġà¦ıà¦¬à¦ĤĠà¦ħà¦¨à§įà¦¯à¦¾à¦¨à§įà¦¯": 1691,
      "Ġà¦¥à§ĩà¦ķà§ĩ": 1692,
      "er-à¦ķà§ĩĠtargetĠà¦ķà¦°à§ĩĠ": 1693,
      "nic": 1694,
      "niche": 1695,
      "Ġà¦ĸà¦¾à¦°à¦¾à¦ª": 1696,
      "à§įà¦Ľà¦¿à¦¨à§įà¦¨": 1697,
      "Ġà¦¦à¦¿à¦¨à¥¤ĠčĊ": 1698,
      "Ġpriori": 1699,
      "à¥¤Ġà¦«à¦²": 1700,
      "ompet": 1701,
      "Ġsub": 1702,
      "ompetit": 1703,
      "action": 1704,
      "imum": 1705,
      "Ġà¦¸à¦®à§įà¦ªà¦°à§įà¦ķà¦¿à¦¤": 1706,
      "à§ĩĠà¦°à¦¾à¦ĸà§ģà¦¨": 1707,
      "ly": 1708,
      "sĠâĨĴ": 1709,
      "sĠâĨĴĠ": 1710,
      "Ġa": 1711,
      "à¦¾à¦¤à§ĩĠà¦¹à¦¬": 1712,
      "Ġà¦¬à§ĩà¦°Ġà¦ķà¦°à§ģà¦¨:": 1713,
      "-à¦ķà§ĩĠpriori": 1714,
      "à§ĩĠà¦§à§Ģà¦°": 1715,
      "-à¦ķà§ĩĠpriority": 1716,
      "ximum": 1717,
      "ĠCTRĠà¦ķà¦®": 1718,
      "-à¦ıà¦°Ġà¦ķà§ĭà¦¨": 1719,
      "imple": 1720,
      "ans": 1721,
      "y,Ġ": 1722,
      "rect": 1723,
      "Ġshe": 1724,
      "Ġsimple": 1725,
      "trans": 1726,
      "à§ĩĠà¦¤à§ģà¦²à¦¨": 1727,
      "à¦¿à¦°à§įà¦§à¦¾à¦°à¦£Ġà¦ķà¦°à§ģà¦¨à¥¤čĊ": 1728,
      "à§ĩĠà¦¬à¦¿à¦ļà§įà¦Ľà¦¿à¦¨à§įà¦¨": 1729,
      ";Ġà¦Ĩ": 1730,
      "Ġà¦¥à§ĩà¦ķà§ĩĠà¦¬à¦¿à¦ļà§įà¦Ľà¦¿à¦¨à§įà¦¨": 1731,
      "lling": 1732,
      "yer": 1733,
      "Ġà¦ķà¦°à§ģà¦¨;": 1734,
      "Ġà¦¦à¦¿à§Łà§ĩĠà¦¨": 1735,
      "Ġà¦¹à¦¤à§ĩĠà¦ªà¦¾à¦°à§ĩà¥¤Ġà¦¤à¦¾à¦ĩ": 1736,
      "businessĠ": 1737,
      "Ġselling": 1738,
      "exp": 1739,
      "Ġsheet": 1740,
      "/reach": 1741,
      ":Ġsp": 1742,
      "dy,Ġ": 1743,
      "sĠâĨĴĠre": 1744,
      "s/m": 1745,
      "sĠâĨĴĠdeliveredĠorder": 1746,
      "s/reach": 1747,
      "variable": 1748,
      "ĠqualifiedĠ": 1749,
      "Ġnegative": 1750,
      "ream": 1751,
      "return/cancellation": 1752,
      "à§ĩĠbusiness": 1753,
      "-à¦ıà¦°ĠcontributionĠmargin": 1754,
      "-à¦ıà¦°Ġà¦Ĩà¦Ĺà§ĩĠ": 1755,
      "esĠâĨĴĠorder": 1756,
      "essag": 1757,
      "Ġà¦¹à¦²à§ĩĠà¦§à§Ģà¦°": 1758,
      "ectedĠ": 1759,
      "ĠâĨĴĠimpression": 1760,
      "ĠâĨĴĠvariable": 1761,
      "Ġà¦ıà¦¬à¦ĤĠst": 1762,
      "Ġà¦¬à¦¾Ġfunnel": 1763,
      "Ġà¦¹à¦²à§ĩĠtest": 1764,
      "ing,Ġdelivery": 1765,
      "Ġà¦ķà¦°à¦¬à§ĩà¦¨Ġà¦¨à¦¾à¥¤Ġà¦ıà¦ķà¦Łà¦¿": 1766,
      "Ġà¦Ńà¦¾à¦²à§ĭĠà¦¹à¦²à§ĩà¦ĵ": 1767,
      "Ġà¦Ńà¦¾à¦²à§ĭĠà¦¹à¦¤à§ĩĠà¦ªà¦¾à¦°à§ĩà¥¤Ġà¦¤à¦¾à¦ĩ": 1768,
      "Ġà¦Ńà¦¾à¦²à§ĭĠà¦¹à¦²à§ĩĠà¦§à§Ģà¦°": 1769,
      "ĠcostĠà¦¬à¦¾à¦¦": 1770,
      "ĠcostĠà¦ıà¦¬à¦ĤĠà¦ħà¦¨à§įà¦¯à¦¾à¦¨à§įà¦¯": 1771,
      "ĠcostsĠâĨĴ": 1772,
      "sidy,Ġ": 1773,
      "ĠcontributionĠprofitĠnegative": 1774,
      "-à¦ķà§ĩĠbusinessĠ": 1775,
      "à¥¤Ġà¦ķà§Ģà¦Ńà¦¾à¦¬à§ĩĠbusiness": 1776,
      "ownst": 1777,
      "²à¦¿à¦ĸà§ĩĠà¦°à¦¾à¦ĸà§ģà¦¨": 1778,
      "ĠdecisionĠà¦¨à§ĩà¦¬": 1779,
      "à¦¬à¦¾à¦°ĠCTRĠà¦ķà¦®": 1780,
      "Ġà¦ķà¦°à¦¤à§ĩĠà¦ļà¦¾à¦ĩà¥¤Ġà¦ķà§Ģà¦Ńà¦¾à¦¬à§ĩĠbusiness": 1781,
      ",Ġpay": 1782,
      ",Ġpackag": 1783,
      "ĠpriceĠà¦¥à§ĩà¦ķà§ĩ": 1784,
      "Ġà¦¹à¦¤à§ĩĠà¦ªà¦¾à¦°à§ĩ;Ġà¦Ĩ": 1785,
      "à§ĩĠscale": 1786,
      "Ġà¦°à¦¾à¦ĸà§ģà¦¨:Ġsp": 1787,
      "Ġà¦¦à¦¿à¦¨à¥¤Ġà¦ıà¦°à¦ªà¦°": 1788,
      ",ĠaudienceĠà¦¬à¦¾Ġfunnel": 1789,
      "ĠvariableĠfulfillment": 1790,
      "leĠà¦²à¦¿à¦ĸà§ĩĠà¦°à¦¾à¦ĸà§ģà¦¨": 1791,
      "à§ĩĠdirect": 1792,
      "ĠâĨĴĠclicksĠâĨĴĠ": 1793,
      ",Ġoffer,ĠaudienceĠà¦¬à¦¾Ġfunnel": 1794,
      "ĠacceptableĠCACĠà¦ıà¦¬à¦ĤĠst": 1795,
      "Ġà¦¹à¦²à§ĩĠcreative,Ġoffer,ĠaudienceĠà¦¬à¦¾Ġfunnel": 1796,
      "-à¦ıà¦°Ġà¦¸à¦Ļà§įà¦Ĺà§ĩĠà¦¤à§ģà¦²à¦¨": 1797,
      "-à¦ıà¦°Ġà¦¸à¦Ļà§įà¦Ĺà§ĩĠdirect": 1798,
      "Ġà¦¹à¦²à§ĩà¦ĵĠqualifiedĠ": 1799,
      "ĠfunnelĠsheet": 1800,
      "ĠevidenceĠà¦¦à¦¿à§Łà§ĩĠà¦¨": 1801,
      "qualifiedĠleads/m": 1802,
      "op/scale": 1803,
      "ROASĠà¦Ńà¦¾à¦²à§ĭĠà¦¹à¦²à§ĩà¦ĵ": 1804,
      "Ġmetric-à¦ķà§ĩĠpriority": 1805,
      "ĠeconomicsĠà¦Ńà¦¾à¦²à§ĭĠà¦¹à¦¤à§ĩĠà¦ªà¦¾à¦°à§ĩà¥¤Ġà¦¤à¦¾à¦ĩ": 1806,
      "Ġdownst": 1807,
      "buyer-à¦ıà¦°ĠeconomicsĠà¦Ńà¦¾à¦²à§ĭĠà¦¹à¦¤à§ĩĠà¦ªà¦¾à¦°à§ĩà¥¤Ġà¦¤à¦¾à¦ĩ": 1808,
      "ment/trans": 1809,
      "ĠacquisitionĠcost-à¦ıà¦°Ġà¦¸à¦Ļà§įà¦Ĺà§ĩĠà¦¤à§ģà¦²à¦¨": 1810,
      "maximum": 1811,
      "Ġlayer": 1812,
      "ĠbudgetĠà¦¬à§įà¦¯à¦¬à¦¹à¦¾à¦°": 1813,
      "Ġà¦¬à¦¦à¦²à¦¾à¦¤à§ĩĠà¦¹à¦¬": 1814,
      "endĠâĨĴĠimpression": 1815,
      "à§ĩĠà¦¤à¦¾ĠevidenceĠà¦¦à¦¿à§Łà§ĩĠà¦¨": 1816,
      "ĠproductĠcost,Ġpackag": 1817,
      "ĠruleĠà¦²à¦¿à¦ĸà§ĩĠà¦°à¦¾à¦ĸà§ģà¦¨": 1818,
      "outcomeĠà¦¥à§ĩà¦ķà§ĩĠà¦¬à¦¿à¦ļà§įà¦Ľà¦¿à¦¨à§įà¦¨": 1819,
      "venueĠâĨĴĠvariable": 1820,
      "Ġà¦ĸà¦¾à¦°à¦¾à¦ªĠà¦¹à¦²à§ĩĠcreative,Ġoffer,ĠaudienceĠà¦¬à¦¾Ġfunnel": 1821,
      "à¥¤Ġà¦«à¦²Ġà¦Ńà¦¾à¦²à§ĭĠà¦¹à¦²à§ĩĠà¦§à§Ģà¦°": 1822,
      "Ġsubsidy,Ġ": 1823,
      "actionĠcostĠà¦ıà¦¬à¦ĤĠà¦ħà¦¨à§įà¦¯à¦¾à¦¨à§įà¦¯": 1824,
      "Ġà¦¸à¦®à§įà¦ªà¦°à§įà¦ķà¦¿à¦¤Ġdownst": 1825,
      "lyĠà¦¸à¦®à§įà¦ªà¦°à§įà¦ķà¦¿à¦¤Ġdownst": 1826,
      "Ġà¦¬à§ĩà¦°Ġà¦ķà¦°à§ģà¦¨:Ġselling": 1827,
      "-à¦ıà¦°Ġà¦ķà§ĭà¦¨Ġlayer": 1828,
      "ĠsimpleĠfunnelĠsheet": 1829,
      "Ġà¦ķà¦°à§ģà¦¨;Ġà¦ĸà¦¾à¦°à¦¾à¦ªĠà¦¹à¦²à§ĩĠcreative,Ġoffer,ĠaudienceĠà¦¬à¦¾Ġfunnel": 1830,
      "expectedĠ": 1831,
      "sĠâĨĴĠrevenueĠâĨĴĠvariable": 1832,
      "sĠâĨĴĠdeliveredĠordersĠâĨĴĠrevenueĠâĨĴĠvariable": 1833,
      "s/reachĠâĨĴĠclicksĠâĨĴĠ": 1834,
      "reamĠmetric-à¦ķà§ĩĠpriority": 1835,
      "return/cancellation,Ġpay": 1836,
      "-à¦ıà¦°ĠcontributionĠmarginĠà¦¬à§ĩà¦°Ġà¦ķà¦°à§ģà¦¨:Ġselling": 1837,
      "-à¦ıà¦°Ġà¦Ĩà¦Ĺà§ĩĠmaximum": 1838,
      "esĠâĨĴĠordersĠâĨĴĠdeliveredĠordersĠâĨĴĠrevenueĠâĨĴĠvariable": 1839,
      "essagesĠâĨĴĠordersĠâĨĴĠdeliveredĠordersĠâĨĴĠrevenueĠâĨĴĠvariable": 1840,
      "Ġà¦¹à¦²à§ĩĠtest-à¦ıà¦°Ġà¦Ĩà¦Ĺà§ĩĠmaximum": 1841,
      "ing,ĠdeliveryĠsubsidy,Ġ": 1842,
      "Ġà¦ķà¦°à¦¬à§ĩà¦¨Ġà¦¨à¦¾à¥¤Ġà¦ıà¦ķà¦Łà¦¿ĠsimpleĠfunnelĠsheet": 1843,
      "ĠcostĠà¦¬à¦¾à¦¦Ġà¦¦à¦¿à¦¨à¥¤Ġà¦ıà¦°à¦ªà¦°": 1844,
      "ĠcostsĠâĨĴĠcontributionĠprofità¥¤ĠčĊ": 1845,
      "ĠcontributionĠprofitĠnegativeĠà¦¹à¦¤à§ĩĠà¦ªà¦¾à¦°à§ĩ;Ġà¦Ĩ": 1846,
      "-à¦ķà§ĩĠbusinessĠoutcomeĠà¦¥à§ĩà¦ķà§ĩĠà¦¬à¦¿à¦ļà§įà¦Ľà¦¿à¦¨à§įà¦¨": 1847,
      "ĠdecisionĠà¦¨à§ĩà¦¬?čĊ": 1848,
      "à¦¬à¦¾à¦°ĠCTRĠà¦ķà¦®Ġà¦¹à¦²à§ĩà¦ĵĠqualifiedĠ": 1849,
      "Ġà¦ķà¦°à¦¤à§ĩĠà¦ļà¦¾à¦ĩà¥¤Ġà¦ķà§Ģà¦Ńà¦¾à¦¬à§ĩĠbusinessĠdecisionĠà¦¨à§ĩà¦¬?čĊ": 1850,
      "ĠpriceĠà¦¥à§ĩà¦ķà§ĩĠproductĠcost,Ġpackag": 1851,
      "à§ĩĠscaleĠà¦ķà¦°à§ģà¦¨;Ġà¦ĸà¦¾à¦°à¦¾à¦ªĠà¦¹à¦²à§ĩĠcreative,Ġoffer,ĠaudienceĠà¦¬à¦¾Ġfunnel": 1852,
      "Ġà¦°à¦¾à¦ĸà§ģà¦¨:ĠspendĠâĨĴĠimpression": 1853,
      "ĠvariableĠfulfillmentĠcostĠà¦¬à¦¾à¦¦Ġà¦¦à¦¿à¦¨à¥¤Ġà¦ıà¦°à¦ªà¦°": 1854,
      "ĠacceptableĠCACĠà¦ıà¦¬à¦ĤĠstop/scale": 1855,
      "-à¦ıà¦°Ġà¦¸à¦Ļà§įà¦Ĺà§ĩĠdirectlyĠà¦¸à¦®à§įà¦ªà¦°à§įà¦ķà¦¿à¦¤Ġdownst": 1856,
      "qualifiedĠleads/messagesĠâĨĴĠordersĠâĨĴĠdeliveredĠordersĠâĨĴĠrevenueĠâĨĴĠvariable": 1857,
      "ROASĠà¦Ńà¦¾à¦²à§ĭĠà¦¹à¦²à§ĩà¦ĵĠcontributionĠprofitĠnegativeĠà¦¹à¦¤à§ĩĠà¦ªà¦¾à¦°à§ĩ;Ġà¦Ĩ": 1858,
      "ment/transactionĠcostĠà¦ıà¦¬à¦ĤĠà¦ħà¦¨à§įà¦¯à¦¾à¦¨à§įà¦¯": 1859,
      "ĠacquisitionĠcost-à¦ıà¦°Ġà¦¸à¦Ļà§įà¦Ĺà§ĩĠà¦¤à§ģà¦²à¦¨à¦¾Ġà¦ķà¦°à§ģà¦¨à¥¤ĠčĊ": 1860,
      "Ġà¦¬à¦¦à¦²à¦¾à¦¤à§ĩĠà¦¹à¦¬à§ĩĠà¦¤à¦¾ĠevidenceĠà¦¦à¦¿à§Łà§ĩĠà¦¨": 1861,
      "ĠruleĠà¦²à¦¿à¦ĸà§ĩĠà¦°à¦¾à¦ĸà§ģà¦¨à¥¤Ġà¦«à¦²Ġà¦Ńà¦¾à¦²à§ĭĠà¦¹à¦²à§ĩĠà¦§à§Ģà¦°": 1862,
      "-à¦ıà¦°Ġà¦ķà§ĭà¦¨ĠlayerĠà¦¬à¦¦à¦²à¦¾à¦¤à§ĩĠà¦¹à¦¬à§ĩĠà¦¤à¦¾ĠevidenceĠà¦¦à¦¿à§Łà§ĩĠà¦¨": 1863,
      "expectedĠreturn/cancellation,Ġpay": 1864,
      "s/reachĠâĨĴĠclicksĠâĨĴĠqualifiedĠleads/messagesĠâĨĴĠordersĠâĨĴĠdeliveredĠordersĠâĨĴĠrevenueĠâĨĴĠvariable": 1865,
      "reamĠmetric-à¦ķà§ĩĠpriorityĠà¦¦à¦¿à¦¨à¥¤ĠčĊ": 1866,
      "-à¦ıà¦°ĠcontributionĠmarginĠà¦¬à§ĩà¦°Ġà¦ķà¦°à§ģà¦¨:ĠsellingĠpriceĠà¦¥à§ĩà¦ķà§ĩĠproductĠcost,Ġpackag": 1867,
      "Ġà¦¹à¦²à§ĩĠtest-à¦ıà¦°Ġà¦Ĩà¦Ĺà§ĩĠmaximumĠacceptableĠCACĠà¦ıà¦¬à¦ĤĠstop/scale": 1868,
      "ing,ĠdeliveryĠsubsidy,ĠexpectedĠreturn/cancellation,Ġpay": 1869,
      "Ġà¦ķà¦°à¦¬à§ĩà¦¨Ġà¦¨à¦¾à¥¤Ġà¦ıà¦ķà¦Łà¦¿ĠsimpleĠfunnelĠsheetĠà¦°à¦¾à¦ĸà§ģà¦¨:ĠspendĠâĨĴĠimpression": 1870,
      "-à¦ķà§ĩĠbusinessĠoutcomeĠà¦¥à§ĩà¦ķà§ĩĠà¦¬à¦¿à¦ļà§įà¦Ľà¦¿à¦¨à§įà¦¨Ġà¦ķà¦°à¦¬à§ĩà¦¨Ġà¦¨à¦¾à¥¤Ġà¦ıà¦ķà¦Łà¦¿ĠsimpleĠfunnelĠsheetĠà¦°à¦¾à¦ĸà§ģà¦¨:ĠspendĠâĨĴĠimpression": 1871,
      "à¦¬à¦¾à¦°ĠCTRĠà¦ķà¦®Ġà¦¹à¦²à§ĩà¦ĵĠqualifiedĠbuyer-à¦ıà¦°ĠeconomicsĠà¦Ńà¦¾à¦²à§ĭĠà¦¹à¦¤à§ĩĠà¦ªà¦¾à¦°à§ĩà¥¤Ġà¦¤à¦¾à¦ĩ": 1872,
      "à§ĩĠscaleĠà¦ķà¦°à§ģà¦¨;Ġà¦ĸà¦¾à¦°à¦¾à¦ªĠà¦¹à¦²à§ĩĠcreative,Ġoffer,ĠaudienceĠà¦¬à¦¾Ġfunnel-à¦ıà¦°Ġà¦ķà§ĭà¦¨ĠlayerĠà¦¬à¦¦à¦²à¦¾à¦¤à§ĩĠà¦¹à¦¬à§ĩĠà¦¤à¦¾ĠevidenceĠà¦¦à¦¿à§Łà§ĩĠà¦¨": 1873,
      "ĠvariableĠfulfillmentĠcostĠà¦¬à¦¾à¦¦Ġà¦¦à¦¿à¦¨à¥¤Ġà¦ıà¦°à¦ªà¦°ĠacquisitionĠcost-à¦ıà¦°Ġà¦¸à¦Ļà§įà¦Ĺà§ĩĠà¦¤à§ģà¦²à¦¨à¦¾Ġà¦ķà¦°à§ģà¦¨à¥¤ĠčĊ": 1874,
      "-à¦ıà¦°Ġà¦¸à¦Ļà§įà¦Ĺà§ĩĠdirectlyĠà¦¸à¦®à§įà¦ªà¦°à§įà¦ķà¦¿à¦¤ĠdownstreamĠmetric-à¦ķà§ĩĠpriorityĠà¦¦à¦¿à¦¨à¥¤ĠčĊ": 1875,
      "ROASĠà¦Ńà¦¾à¦²à§ĭĠà¦¹à¦²à§ĩà¦ĵĠcontributionĠprofitĠnegativeĠà¦¹à¦¤à§ĩĠà¦ªà¦¾à¦°à§ĩ;Ġà¦Ĩà¦¬à¦¾à¦°ĠCTRĠà¦ķà¦®Ġà¦¹à¦²à§ĩà¦ĵĠqualifiedĠbuyer-à¦ıà¦°ĠeconomicsĠà¦Ńà¦¾à¦²à§ĭĠà¦¹à¦¤à§ĩĠà¦ªà¦¾à¦°à§ĩà¥¤Ġà¦¤à¦¾à¦ĩ": 1876,
      "ment/transactionĠcostĠà¦ıà¦¬à¦ĤĠà¦ħà¦¨à§įà¦¯à¦¾à¦¨à§įà¦¯ĠvariableĠfulfillmentĠcostĠà¦¬à¦¾à¦¦Ġà¦¦à¦¿à¦¨à¥¤Ġà¦ıà¦°à¦ªà¦°ĠacquisitionĠcost-à¦ıà¦°Ġà¦¸à¦Ļà§įà¦Ĺà§ĩĠà¦¤à§ģà¦²à¦¨à¦¾Ġà¦ķà¦°à§ģà¦¨à¥¤ĠčĊ": 1877,
      "ĠruleĠà¦²à¦¿à¦ĸà§ĩĠà¦°à¦¾à¦ĸà§ģà¦¨à¥¤Ġà¦«à¦²Ġà¦Ńà¦¾à¦²à§ĭĠà¦¹à¦²à§ĩĠà¦§à§Ģà¦°à§ĩĠscaleĠà¦ķà¦°à§ģà¦¨;Ġà¦ĸà¦¾à¦°à¦¾à¦ªĠà¦¹à¦²à§ĩĠcreative,Ġoffer,ĠaudienceĠà¦¬à¦¾Ġfunnel-à¦ıà¦°Ġà¦ķà§ĭà¦¨ĠlayerĠà¦¬à¦¦à¦²à¦¾à¦¤à§ĩĠà¦¹à¦¬à§ĩĠà¦¤à¦¾ĠevidenceĠà¦¦à¦¿à§Łà§ĩĠà¦¨": 1878,
      "s/reachĠâĨĴĠclicksĠâĨĴĠqualifiedĠleads/messagesĠâĨĴĠordersĠâĨĴĠdeliveredĠordersĠâĨĴĠrevenueĠâĨĴĠvariableĠcostsĠâĨĴĠcontributionĠprofità¥¤ĠčĊ": 1879,
      "-à¦ıà¦°ĠcontributionĠmarginĠà¦¬à§ĩà¦°Ġà¦ķà¦°à§ģà¦¨:ĠsellingĠpriceĠà¦¥à§ĩà¦ķà§ĩĠproductĠcost,Ġpackaging,ĠdeliveryĠsubsidy,ĠexpectedĠreturn/cancellation,Ġpay": 1880,
      "Ġà¦¹à¦²à§ĩĠtest-à¦ıà¦°Ġà¦Ĩà¦Ĺà§ĩĠmaximumĠacceptableĠCACĠà¦ıà¦¬à¦ĤĠstop/scaleĠruleĠà¦²à¦¿à¦ĸà§ĩĠà¦°à¦¾à¦ĸà§ģà¦¨à¥¤Ġà¦«à¦²Ġà¦Ńà¦¾à¦²à§ĭĠà¦¹à¦²à§ĩĠà¦§à§Ģà¦°à§ĩĠscaleĠà¦ķà¦°à§ģà¦¨;Ġà¦ĸà¦¾à¦°à¦¾à¦ªĠà¦¹à¦²à§ĩĠcreative,Ġoffer,ĠaudienceĠà¦¬à¦¾Ġfunnel-à¦ıà¦°Ġà¦ķà§ĭà¦¨ĠlayerĠà¦¬à¦¦à¦²à¦¾à¦¤à§ĩĠà¦¹à¦¬à§ĩĠà¦¤à¦¾ĠevidenceĠà¦¦à¦¿à§Łà§ĩĠà¦¨": 1881,
      "-à¦ķà§ĩĠbusinessĠoutcomeĠà¦¥à§ĩà¦ķà§ĩĠà¦¬à¦¿à¦ļà§įà¦Ľà¦¿à¦¨à§įà¦¨Ġà¦ķà¦°à¦¬à§ĩà¦¨Ġà¦¨à¦¾à¥¤Ġà¦ıà¦ķà¦Łà¦¿ĠsimpleĠfunnelĠsheetĠà¦°à¦¾à¦ĸà§ģà¦¨:ĠspendĠâĨĴĠimpressions/reachĠâĨĴĠclicksĠâĨĴĠqualifiedĠleads/messagesĠâĨĴĠordersĠâĨĴĠdeliveredĠordersĠâĨĴĠrevenueĠâĨĴĠvariableĠcostsĠâĨĴĠcontributionĠprofità¥¤ĠčĊ": 1882,
      "-à¦ıà¦°ĠcontributionĠmarginĠà¦¬à§ĩà¦°Ġà¦ķà¦°à§ģà¦¨:ĠsellingĠpriceĠà¦¥à§ĩà¦ķà§ĩĠproductĠcost,Ġpackaging,ĠdeliveryĠsubsidy,ĠexpectedĠreturn/cancellation,Ġpayment/transactionĠcostĠà¦ıà¦¬à¦ĤĠà¦ħà¦¨à§įà¦¯à¦¾à¦¨à§įà¦¯ĠvariableĠfulfillmentĠcostĠà¦¬à¦¾à¦¦Ġà¦¦à¦¿à¦¨à¥¤Ġà¦ıà¦°à¦ªà¦°ĠacquisitionĠcost-à¦ıà¦°Ġà¦¸à¦Ļà§įà¦Ĺà§ĩĠà¦¤à§ģà¦²à¦¨à¦¾Ġà¦ķà¦°à§ģà¦¨à¥¤ĠčĊ": 1883,
      "Ġà¦¹à¦²à§ĩĠtest-à¦ıà¦°Ġà¦Ĩà¦Ĺà§ĩĠmaximumĠacceptableĠCACĠà¦ıà¦¬à¦ĤĠstop/scaleĠruleĠà¦²à¦¿à¦ĸà§ĩĠà¦°à¦¾à¦ĸà§ģà¦¨à¥¤Ġà¦«à¦²Ġà¦Ńà¦¾à¦²à§ĭĠà¦¹à¦²à§ĩĠà¦§à§Ģà¦°à§ĩĠscaleĠà¦ķà¦°à§ģà¦¨;Ġà¦ĸà¦¾à¦°à¦¾à¦ªĠà¦¹à¦²à§ĩĠcreative,Ġoffer,ĠaudienceĠà¦¬à¦¾Ġfunnel-à¦ıà¦°Ġà¦ķà§ĭà¦¨ĠlayerĠà¦¬à¦¦à¦²à¦¾à¦¤à§ĩĠà¦¹à¦¬à§ĩĠà¦¤à¦¾ĠevidenceĠà¦¦à¦¿à§Łà§ĩĠà¦¨à¦¿à¦°à§įà¦§à¦¾à¦°à¦£Ġà¦ķà¦°à§ģà¦¨à¥¤čĊ": 1884,
      "?âĢĿ": 1885,
      "ompetitor": 1886,
      "Â²": 1887,
      "Ġà¦īà¦ļà¦¿à¦¤": 1888,
      "Ġcompetitor": 1889,
      "à¦¤à§įà¦¯": 1890,
      "à¦ķà¦ľà¦¨": 1891,
      "à§ĩĠà¦¶": 1892,
      "ecificĠhobbyĠenthusiast": 1893,
      "à¦¾Ġà¦īà¦ļà¦¿à¦¤": 1894,
      "à§ģà¦¨à¥¤": 1895,
      "Ġà¦¹à¦ĵ": 1896,
      "Ĩà¦ªà¦¨à¦¿": 1897,
      "Ġfit": 1898,
      "Ġà¦ķà§Ģà¦Ńà¦¾à¦¬à§ĩ": 1899,
      "Ġreturn": 1900,
      "®à¦§à§įà¦¯à¦®Ġà¦¬à¦¾à¦ľà§ĩà¦Łà§ĩà¦°ĠonlineĠshopp": 1901,
      "à§ĩĠà¦¹": 1902,
      "à§ĩĠà¦¬à¦¿à¦¶à§įà¦¬à¦¬à¦¿à¦¦à§įà¦¯à¦¾à¦²à§Łà§ĩà¦°Ġà¦¶à¦¿à¦ķà§įà¦·à¦¾à¦°à§įà¦¥à§Ģ": 1903,
      "Ġbuyer-à¦ıà¦°Ġà¦ľà¦¨à§įà¦¯": 1904,
      "à¥¤Ġà¦Ĩà¦®à¦¿Ġ": 1905,
      "alid": 1906,
      "à¦¥à§įà¦¯": 1907,
      "Ġà¦§à¦°": 1908,
      "oun": 1909,
      "Ġsuit": 1910,
      "à§ĩĠà¦¨à¦¾": 1911,
      "coun": 1912,
      "count": 1913,
      "act": 1914,
      "estion": 1915,
      "question": 1916,
      "à§ģà¦§à§ģ": 1917,
      "Ľà§ĭà¦ŁĠà¦ªà¦°à¦¿à¦¬à¦¾à¦°à§ĩà¦°": 1918,
      "dis": 1919,
      "countĠà¦¦": 1920,
      "discountĠà¦¦": 1921,
      "ity": 1922,
      "native": 1923,
      "alter": 1924,
      "alternative": 1925,
      "Ġà¦ľ": 1926,
      "®à¦«à¦¸à§įà¦¬à¦²à§ĩà¦°ĠsmartphoneĠus": 1927,
      "Ġà¦®à¦": 1928,
      "discountĠà¦¦à§ĩà¦¬": 1929,
      "Ľà§ĭà¦ŁĠà¦¬à§įà¦¯à¦¬à¦¸à¦¾à¦°Ġow": 1930,
      "Ġà¦ķà§ĭà¦¨Ġstage-à¦ıà¦°ĠsignalĠà¦¸à§ĩà¦Łà¦¿Ġà¦Ĩà¦Ĺà§ĩĠà¦¨à¦¿à¦°à§įà¦§à¦¾à¦°à¦£Ġà¦ķà¦°à§ģà¦¨à¥¤Ġ": 1931,
      "à¦Łà¦¾": 1932,
      "à§ĩĠà¦ķà¦¿à¦¨à§įà¦¤": 1933,
      "Ġà¦¦à¦¿à¦ķ": 1934,
      "AQ": 1935,
      "FAQ": 1936,
      "à¦ĩ": 1937,
      "ocial": 1938,
      "ical": 1939,
      "pecificĠhobbyĠenthusiast": 1940,
      "retention": 1941,
      "Ġà¦ıà¦ķà¦ľà¦¨": 1942,
      "à§ĩĠspecificĠhobbyĠenthusiast": 1943,
      "à§įà¦ļà¦¿à¦¤": 1944,
      "tra": 1945,
      "::": 1946,
      "Ĩà¦ªà¦¨à¦¾à¦°": 1947,
      "à§ĥ": 1948,
      "à§ĩà¦®à¦¨": 1949,
      "à§ĩĠà¦¹à¦²": 1950,
      "====": 1951,
      "-à¦ķà§ĩĠà¦ªà§ģà¦°à§ĭĠcustomerĠjourney-à¦ıà¦°Ġà¦ħà¦Ĥà¦¶Ġà¦¹à¦¿à¦¸à§ĩà¦¬à§ĩĠà¦¦à§ĩà¦ĸà§ģà¦¨à¥¤": 1952,
      "à¦¤à§ĩĠà¦ªà¦¾à¦°à§ĩà¦¨": 1953,
      "Ġà¦®à§Ĥà¦²à§įà¦¯": 1954,
      "à¦¿à¦¶à§įà¦ļà¦¿à¦¤": 1955,
      "Ġà¦ħà¦¨à§ĩà¦ķ": 1956,
      ",Ġà¦¨": 1957,
      ",Ġà¦¤à¦¾à¦°à¦ªà¦°": 1958,
      "Ġà§«": 1959,
      "Ġà¦¹à¦¬": 1960,
      "yth": 1961,
      "Ġà¦¨à¦¿à¦¶à§įà¦ļà¦¿à¦¤": 1962,
      "Ġà¦¸à¦¤à§įà¦¯": 1963,
      "fact": 1964,
      "Ġà¦¸à¦®à§Ł": 1965,
      "s-": 1966,
      "Ġà¦¹à¦ĵà§Ł": 1967,
      "à¦¿à¦·à§įà¦Ł": 1968,
      "-v": 1969,
      "yth-v": 1970,
      "s-fact": 1971,
      "yth-vs-fact": 1972,
      "ode": 1973,
      "-à¦ıà¦°ĠlanguageĠà¦ĵĠbuyingĠcontextĠà¦ħà¦¨à§ģà¦¯à¦¾à§Łà§ĢĠmessageĠà¦¦à¦¿à¦¨à¥¤Ġà¦ıà¦ķà¦ĩĠcreativeĠà¦¦à¦¿à§Łà§ĩĠà¦¸à¦¬ĠstageĠsolveĠà¦ķà¦°à¦¾à¦°Ġà¦ļà§ĩà¦·à§įà¦Łà¦¾Ġà¦ķà¦°à¦¬à§ĩà¦¨Ġà¦¨à¦¾à¥¤ĠčĊ": 1974,
      "à§©": 1975,
      "Ġà¦¬à¦²à§ģà¦¨": 1976,
      "ash": 1977,
      "à§ĭà¦¨à§ĭ": 1978,
      "à§ĩà¦ķà§ĭà¦¨à§ĭ": 1979,
      "stĠf": 1980,
      "odestĠf": 1981,
      "ashion": 1982,
      "odestĠfashion": 1983,
      "Ġà¦Ĩà¦¸à¦²": 1984,
      "Ġà¦¯à§ĩà¦ķà§ĭà¦¨à§ĭ": 1985,
      "ant": 1986,
      "à¥¤Ġà¦Ĩà¦ªà¦¨à¦¾à¦°": 1987,
      "term": 1988,
      "à§ĩĠà¦¤à¦¥à§įà¦¯": 1989,
      "Pr": 1990,
      "nack": 1991,
      "erĠ": 1992,
      "Ġsnack": 1993,
      "althyĠsnack": 1994,
      "althyĠsnackĠproducts": 1995,
      "à§įà¦°à¦¹": 1996,
      "Ġà¦ıà¦ķà¦Łà¦¿Ġà¦Ľà§ĭà¦Ł": 1997,
      "Ġà¦¨à§Łà¥¤čĊ": 1998,
      "Ġà¦®à§Ĥà¦²à¦¤": 1999,
      "-à¦ķà§ĩĠà¦ªà§ģà¦°à§ĭĠcustomerĠjourney-à¦ıà¦°Ġà¦ħà¦Ĥà¦¶Ġà¦¹à¦¿à¦¸à§ĩà¦¬à§ĩĠà¦¦à§ĩà¦ĸà§ģà¦¨à¥¤Ġ": 2000,
      "eth": 2001,
      "ice": 2002,
      "use": 2003,
      "ep": 2004,
      "à¦ħà¦ķ": 2005,
      "-p": 2006,
      "Ġcl": 2007,
      "ante": 2008,
      "next": 2009,
      "Ġstep": 2010,
      "nextĠstep": 2011,
      "Ġcase": 2012,
      "Ġà¦ıà¦°à¦ªà¦°": 2013,
      "à¦¾à¦ķà¦¿": 2014,
      "Ġvalue": 2015,
      "Ġbuyer-à¦ıà¦°Ġà¦ľà¦¨à§įà¦¯Ġfit": 2016,
      "Ġà¦¨à¦¿à¦¶à§įà¦ļà¦¿à¦¤Ġà¦ķà¦°à¦¾": 2017,
      "à¥¤ĠF": 2018,
      "à¦¾à¦°à¦£à§ĩĠ": 2019,
      "à§ĩĠà¦¶à§ģà¦§à§ģ": 2020,
      "ĠreturnĠ": 2021,
      "Ġà¦¸à¦¤à§įà¦¯à¦¿à¦ĩ": 2022,
      "alse": 2023,
      "Ġà¦¬à¦²à§ĩà¦Ľà§ĩ": 2024,
      "Ġfalse": 2025,
      "Ġà¦¬à¦²à¦¤à§ĩĠà¦ªà¦¾à¦°à§ĩà¦¨": 2026,
      "à¦Ĩà¦ªà¦¨à¦¿": 2027,
      "-à¦ıà¦°Ġà¦¬à¦¾à¦¸à§įà¦¤à¦¬": 2028,
      "-à¦ıà¦°Ġà¦¦à¦¿à¦ķ": 2029,
      "ationĠf": 2030,
      "Ġà¦¸à§ĩà¦Łà¦¿à¦ĩ": 2031,
      "Ġà¦ļà¦¾à¦²à¦¾à¦¬": 2032,
      ",Ġà¦¨à¦¾à¦ķà¦¿": 2033,
      ":Ġconcern": 2034,
      ";Ġà¦¯à§ĩà¦ķà§ĭà¦¨à§ĭ": 2035,
      "city": 2036,
      "eĠà¦¬à§įà¦¯à¦¬à¦¹à¦¾à¦°Ġà¦ķà¦°à¦¬à§ĩà¦¨Ġà¦¨à¦¾": 2037,
      "sĠà¦¦à¦¿à¦¨": 2038,
      "à¦¬à§ģà¦Ŀà¦¤à§ĩĠà¦ªà¦¾à¦°à¦Ľà¦¿": 2039,
      "-à¦ıĠà¦¬à¦²à§ĩà¦Ľà§ĩ": 2040,
      "à¥¤ĠPr": 2041,
      "à§ĩĠeth": 2042,
      "ĠâĨĴĠsuit": 2043,
      "ĠâĨĴĠà¦ıà¦ķà¦Łà¦¿Ġà¦Ľà§ĭà¦Ł": 2044,
      "Ġscar": 2045,
      ",Ġbundle": 2046,
      ",Ġuse": 2047,
      "Ġà¦ķà¦°à§ģà¦¨,Ġà¦¤à¦¾à¦°à¦ªà¦°": 2048,
      "ation,Ġuse": 2049,
      "ĠâĨĴĠlow": 2050,
      "ĠreviewĠà¦¬à¦¾": 2051,
      "aleĠà¦ķà¦°à¦¾": 2052,
      "objectionĠacknowledge": 2053,
      "ingĠquestion": 2054,
      "versationĠf": 2055,
      "Ġà¦¦à¦¿à¦¨à¥¤ĠF": 2056,
      ",ĠreviewĠà¦¬à¦¾": 2057,
      "akeĠscar": 2058,
      "à¥¤Ġà¦²à¦ķà§įà¦·à§įà¦¯Ġà¦¹à¦ĵà§Ł": 2059,
      "Ġspecification,Ġuse": 2060,
      "ConversationĠf": 2061,
      "ureĠnextĠstep": 2062,
      "Ġquality/value": 2063,
      ",ĠfakeĠreviewĠà¦¬à¦¾": 2064,
      "Ġguarante": 2065,
      "arify": 2066,
      "ableĠoption": 2067,
      "trustĠobjection": 2068,
      "Ġconversion-à¦ıà¦°Ġà¦¦à¦¿à¦ķ": 2069,
      "ĠofferĠà¦¦à¦¿à¦¨à¥¤ĠF": 2070,
      "ĠâĨĴĠrelev": 2071,
      "Ġà¦¬à§ĩà¦°Ġà¦ķà¦°à§ģà¦¨à¥¤ĠPr": 2072,
      "ressureĠnextĠstep": 2073,
      "ĠobjectionĠà¦ħà¦¨à§ĩà¦ķ": 2074,
      "Ġà¦¹à¦¤à§ĩĠà¦ªà¦¾à¦°à§ĩà¥¤ĠčĊ": 2075,
      "à§ĩà¦¨Ġà¦¨à¦¾à¥¤ĠBudget": 2076,
      "à§ĩĠsaleĠà¦ķà¦°à¦¾": 2077,
      "Ġconcernà¦Łà¦¾": 2078,
      "ĠconcernĠà¦¬à§ĩà¦°Ġà¦ķà¦°à§ģà¦¨à¥¤ĠPr": 2079,
      "ĠconversationĠà¦ļà¦¾à¦²à¦¾à¦¬": 2080,
      "à¦ĵĠà¦¹à¦¤à§ĩĠà¦ªà¦¾à¦°à§ĩà¥¤ĠčĊ": 2081,
      "à¥¤Ġà¦Ĩà¦®à¦¿Ġà¦ķà§Ģà¦Ńà¦¾à¦¬à§ĩ": 2082,
      "Ġà¦ķà¦®Ġà¦¹à¦²à§ĩĠsmall": 2083,
      "Ġevidence/value": 2084,
      "Ġà¦¸à¦®à§įà¦ªà¦°à§įà¦ķà§ĩĠ": 2085,
      "Ġà¦¬à¦¾Ġalternative": 2086,
      "Ġà¦¬à¦¾ĠtrustĠobjection": 2087,
      "low:Ġconcern": 2088,
      "option,Ġbundle": 2089,
      ":ĠâĢľà¦¬à§ģà¦Ŀà¦¤à§ĩĠà¦ªà¦¾à¦°à¦Ľà¦¿": 2090,
      "ĠacknowledgeĠâĨĴĠà¦ıà¦ķà¦Łà¦¿Ġà¦Ľà§ĭà¦Ł": 2091,
      "à¦ªà§įà¦°à¦¥à¦®à§ĩĠobjectionĠacknowledge": 2092,
      "âĢĶà¦¯à§ĩĠà¦¤à¦¥à§įà¦¯": 2093,
      "Ġà¦¨à¦¿à§Łà§ĩ?âĢĿ": 2094,
      "Ġà¦Ĩà¦Ľà§ĩĠà¦¶à§ģà¦§à§ģ": 2095,
      "Ġà¦¦à¦¾à¦®,Ġà¦¨à¦¾à¦ķà¦¿": 2096,
      "Ġà¦ķà¦¿Ġà¦®à§Ĥà¦²à¦¤": 2097,
      "à¦¾Ġà¦īà¦ļà¦¿à¦¤Ġbuyer-à¦ıà¦°Ġà¦ľà¦¨à§įà¦¯Ġfit": 2098,
      "discountĠà¦¦à§ĩà¦¬à§ĩà¦¨Ġà¦¨à¦¾à¥¤ĠBudget": 2099,
      "icalĠconversationĠà¦ļà¦¾à¦²à¦¾à¦¬": 2100,
      "Ġà¦ıà¦ķà¦ľà¦¨Ġbuyer": 2101,
      "Ġà¦®à§Ĥà¦²à§įà¦¯à§ĩĠsaleĠà¦ķà¦°à¦¾": 2102,
      "Ġà¦¸à¦®à§ŁĠvalue": 2103,
      "Ġà¦¬à¦²à§ģà¦¨à¥¤ĠčĊ": 2104,
      "Ġà¦Ĩà¦¸à¦²ĠconcernĠà¦¬à§ĩà¦°Ġà¦ķà¦°à§ģà¦¨à¥¤ĠPr": 2105,
      "antĠevidence/value": 2106,
      "à¥¤Ġà¦Ĩà¦ªà¦¨à¦¾à¦°Ġconcernà¦Łà¦¾": 2107,
      "termsĠà¦¦à¦¿à¦¨": 2108,
      "erĠoption,Ġbundle": 2109,
      "iceĠobjectionĠà¦ħà¦¨à§ĩà¦ķ": 2110,
      "à¦ħà¦ķà¦¾à¦°à¦£à§ĩĠ": 2111,
      "-pressureĠnextĠstep": 2112,
      "Ġclarify": 2113,
      "Ġcase,ĠreviewĠà¦¬à¦¾": 2114,
      "Ġà¦¨à¦¿à¦¶à§įà¦ļà¦¿à¦¤Ġà¦ķà¦°à¦¾;Ġà¦¯à§ĩà¦ķà§ĭà¦¨à§ĭ": 2115,
      "ĠreturnĠtermsĠà¦¦à¦¿à¦¨": 2116,
      "Ġà¦¸à¦¤à§įà¦¯à¦¿à¦ĩĠà¦Ĩà¦Ľà§ĩĠà¦¶à§ģà¦§à§ģ": 2117,
      "ĠfalseĠguarante": 2118,
      "Ġà¦¬à¦²à¦¤à§ĩĠà¦ªà¦¾à¦°à§ĩà¦¨:ĠâĢľà¦¬à§ģà¦Ŀà¦¤à§ĩĠà¦ªà¦¾à¦°à¦Ľà¦¿": 2119,
      "à¦Ĩà¦ªà¦¨à¦¿Ġà¦¬à¦²à¦¤à§ĩĠà¦ªà¦¾à¦°à§ĩà¦¨:ĠâĢľà¦¬à§ģà¦Ŀà¦¤à§ĩĠà¦ªà¦¾à¦°à¦Ľà¦¿": 2120,
      "-à¦ıà¦°Ġà¦¬à¦¾à¦¸à§įà¦¤à¦¬Ġspecification,Ġuse": 2121,
      "Ġà¦¸à§ĩà¦Łà¦¿à¦ĩĠà¦¬à¦²à§ģà¦¨à¥¤ĠčĊ": 2122,
      "city,ĠfakeĠreviewĠà¦¬à¦¾": 2123,
      "eĠà¦¬à§įà¦¯à¦¬à¦¹à¦¾à¦°Ġà¦ķà¦°à¦¬à§ĩà¦¨Ġà¦¨à¦¾à¥¤Ġà¦²à¦ķà§įà¦·à§įà¦¯Ġà¦¹à¦ĵà§Ł": 2124,
      "-à¦ıĠà¦¬à¦²à§ĩà¦Ľà§ĩ:ĠâĢľ": 2125,
      "à§ĩĠethicalĠconversationĠà¦ļà¦¾à¦²à¦¾à¦¬": 2126,
      "ĠâĨĴĠsuitableĠoption": 2127,
      "Ġà¦ķà¦°à§ģà¦¨,Ġà¦¤à¦¾à¦°à¦ªà¦°Ġà¦Ĩà¦¸à¦²ĠconcernĠà¦¬à§ĩà¦°Ġà¦ķà¦°à§ģà¦¨à¥¤ĠPr": 2128,
      "ĠâĨĴĠlow-pressureĠnextĠstep": 2129,
      "ingĠquestionĠâĨĴĠrelev": 2130,
      "akeĠscarcity,ĠfakeĠreviewĠà¦¬à¦¾": 2131,
      "ConversationĠflow:Ġconcern": 2132,
      "Ġquality/valueĠà¦¨à¦¿à§Łà§ĩ?âĢĿ": 2133,
      "Ġconversion-à¦ıà¦°Ġà¦¦à¦¿à¦ķà§ĩĠethicalĠconversationĠà¦ļà¦¾à¦²à¦¾à¦¬": 2134,
      "ĠofferĠà¦¦à¦¿à¦¨à¥¤ĠFakeĠscarcity,ĠfakeĠreviewĠà¦¬à¦¾": 2135,
      "à¥¤Ġà¦Ĩà¦®à¦¿Ġà¦ķà§Ģà¦Ńà¦¾à¦¬à§ĩĠconversion-à¦ıà¦°Ġà¦¦à¦¿à¦ķà§ĩĠethicalĠconversationĠà¦ļà¦¾à¦²à¦¾à¦¬": 2136,
      "Ġà¦ķà¦®Ġà¦¹à¦²à§ĩĠsmallerĠoption,Ġbundle": 2137,
      "Ġà¦¬à¦¾ĠalternativeĠofferĠà¦¦à¦¿à¦¨à¥¤ĠFakeĠscarcity,ĠfakeĠreviewĠà¦¬à¦¾": 2138,
      "Ġà¦¬à¦¾ĠtrustĠobjectionà¦ĵĠà¦¹à¦¤à§ĩĠà¦ªà¦¾à¦°à§ĩà¥¤ĠčĊ": 2139,
      "ĠacknowledgeĠâĨĴĠà¦ıà¦ķà¦Łà¦¿Ġà¦Ľà§ĭà¦ŁĠclarify": 2140,
      "à¦ªà§įà¦°à¦¥à¦®à§ĩĠobjectionĠacknowledgeĠà¦ķà¦°à§ģà¦¨,Ġà¦¤à¦¾à¦°à¦ªà¦°Ġà¦Ĩà¦¸à¦²ĠconcernĠà¦¬à§ĩà¦°Ġà¦ķà¦°à§ģà¦¨à¥¤ĠPr": 2141,
      "âĢĶà¦¯à§ĩĠà¦¤à¦¥à§įà¦¯Ġà¦¸à¦¤à§įà¦¯à¦¿à¦ĩĠà¦Ĩà¦Ľà§ĩĠà¦¶à§ģà¦§à§ģ": 2142,
      "Ġà¦¦à¦¾à¦®,Ġà¦¨à¦¾à¦ķà¦¿Ġquality/valueĠà¦¨à¦¿à§Łà§ĩ?âĢĿ": 2143,
      "Ġà¦ķà¦¿Ġà¦®à§Ĥà¦²à¦¤Ġà¦¦à¦¾à¦®,Ġà¦¨à¦¾à¦ķà¦¿Ġquality/valueĠà¦¨à¦¿à§Łà§ĩ?âĢĿ": 2144,
      "à¦¾Ġà¦īà¦ļà¦¿à¦¤Ġbuyer-à¦ıà¦°Ġà¦ľà¦¨à§įà¦¯ĠfitĠà¦¨à¦¿à¦¶à§įà¦ļà¦¿à¦¤Ġà¦ķà¦°à¦¾;Ġà¦¯à§ĩà¦ķà§ĭà¦¨à§ĭ": 2145,
      "discountĠà¦¦à§ĩà¦¬à§ĩà¦¨Ġà¦¨à¦¾à¥¤ĠBudgetĠà¦ķà¦®Ġà¦¹à¦²à§ĩĠsmallerĠoption,Ġbundle": 2146,
      "Ġà¦®à§Ĥà¦²à§įà¦¯à§ĩĠsaleĠà¦ķà¦°à¦¾Ġà¦¨à§Łà¥¤čĊ": 2147,
      "Ġà¦¸à¦®à§ŁĠvalueĠà¦¬à¦¾ĠtrustĠobjectionà¦ĵĠà¦¹à¦¤à§ĩĠà¦ªà¦¾à¦°à§ĩà¥¤ĠčĊ": 2148,
      "antĠevidence/valueĠâĨĴĠsuitableĠoption": 2149,
      "à¥¤Ġà¦Ĩà¦ªà¦¨à¦¾à¦°Ġconcernà¦Łà¦¾Ġà¦ķà¦¿Ġà¦®à§Ĥà¦²à¦¤Ġà¦¦à¦¾à¦®,Ġà¦¨à¦¾à¦ķà¦¿Ġquality/valueĠà¦¨à¦¿à§Łà§ĩ?âĢĿ": 2150,
      "iceĠobjectionĠà¦ħà¦¨à§ĩà¦ķĠà¦¸à¦®à§ŁĠvalueĠà¦¬à¦¾ĠtrustĠobjectionà¦ĵĠà¦¹à¦¤à§ĩĠà¦ªà¦¾à¦°à§ĩà¥¤ĠčĊ": 2151,
      "à¦ħà¦ķà¦¾à¦°à¦£à§ĩĠdiscountĠà¦¦à§ĩà¦¬à§ĩà¦¨Ġà¦¨à¦¾à¥¤ĠBudgetĠà¦ķà¦®Ġà¦¹à¦²à§ĩĠsmallerĠoption,Ġbundle": 2152,
      "Ġcase,ĠreviewĠà¦¬à¦¾ĠreturnĠtermsĠà¦¦à¦¿à¦¨": 2153,
      "ĠfalseĠguaranteeĠà¦¬à§įà¦¯à¦¬à¦¹à¦¾à¦°Ġà¦ķà¦°à¦¬à§ĩà¦¨Ġà¦¨à¦¾à¥¤Ġà¦²à¦ķà§įà¦·à§įà¦¯Ġà¦¹à¦ĵà§Ł": 2154,
      "à¦Ĩà¦ªà¦¨à¦¿Ġà¦¬à¦²à¦¤à§ĩĠà¦ªà¦¾à¦°à§ĩà¦¨:ĠâĢľà¦¬à§ģà¦Ŀà¦¤à§ĩĠà¦ªà¦¾à¦°à¦Ľà¦¿à¥¤Ġà¦Ĩà¦ªà¦¨à¦¾à¦°Ġconcernà¦Łà¦¾Ġà¦ķà¦¿Ġà¦®à§Ĥà¦²à¦¤Ġà¦¦à¦¾à¦®,Ġà¦¨à¦¾à¦ķà¦¿Ġquality/valueĠà¦¨à¦¿à§Łà§ĩ?âĢĿ": 2155,
      "-à¦ıà¦°Ġà¦¬à¦¾à¦¸à§įà¦¤à¦¬Ġspecification,ĠuseĠcase,ĠreviewĠà¦¬à¦¾ĠreturnĠtermsĠà¦¦à¦¿à¦¨": 2156,
      "ĠâĨĴĠlow-pressureĠnextĠstepà¥¤ĠčĊ": 2157,
      "ingĠquestionĠâĨĴĠrelevantĠevidence/valueĠâĨĴĠsuitableĠoption": 2158,
      "ConversationĠflow:ĠconcernĠacknowledgeĠâĨĴĠà¦ıà¦ķà¦Łà¦¿Ġà¦Ľà§ĭà¦ŁĠclarify": 2159,
      "à¥¤Ġà¦Ĩà¦®à¦¿Ġà¦ķà§Ģà¦Ńà¦¾à¦¬à§ĩĠconversion-à¦ıà¦°Ġà¦¦à¦¿à¦ķà§ĩĠethicalĠconversationĠà¦ļà¦¾à¦²à¦¾à¦¬?čĊ": 2160,
      "Ġà¦¬à¦¾ĠalternativeĠofferĠà¦¦à¦¿à¦¨à¥¤ĠFakeĠscarcity,ĠfakeĠreviewĠà¦¬à¦¾ĠfalseĠguaranteeĠà¦¬à§įà¦¯à¦¬à¦¹à¦¾à¦°Ġà¦ķà¦°à¦¬à§ĩà¦¨Ġà¦¨à¦¾à¥¤Ġà¦²à¦ķà§įà¦·à§įà¦¯Ġà¦¹à¦ĵà§Ł": 2161,
      "à¦ªà§įà¦°à¦¥à¦®à§ĩĠobjectionĠacknowledgeĠà¦ķà¦°à§ģà¦¨,Ġà¦¤à¦¾à¦°à¦ªà¦°Ġà¦Ĩà¦¸à¦²ĠconcernĠà¦¬à§ĩà¦°Ġà¦ķà¦°à§ģà¦¨à¥¤ĠPriceĠobjectionĠà¦ħà¦¨à§ĩà¦ķĠà¦¸à¦®à§ŁĠvalueĠà¦¬à¦¾ĠtrustĠobjectionà¦ĵĠà¦¹à¦¤à§ĩĠà¦ªà¦¾à¦°à§ĩà¥¤ĠčĊ": 2162,
      "âĢĶà¦¯à§ĩĠà¦¤à¦¥à§įà¦¯Ġà¦¸à¦¤à§įà¦¯à¦¿à¦ĩĠà¦Ĩà¦Ľà§ĩĠà¦¶à§ģà¦§à§ģĠà¦¸à§ĩà¦Łà¦¿à¦ĩĠà¦¬à¦²à§ģà¦¨à¥¤ĠčĊ": 2163,
      "à¦¾Ġà¦īà¦ļà¦¿à¦¤Ġbuyer-à¦ıà¦°Ġà¦ľà¦¨à§įà¦¯ĠfitĠà¦¨à¦¿à¦¶à§įà¦ļà¦¿à¦¤Ġà¦ķà¦°à¦¾;Ġà¦¯à§ĩà¦ķà§ĭà¦¨à§ĭĠà¦®à§Ĥà¦²à§įà¦¯à§ĩĠsaleĠà¦ķà¦°à¦¾Ġà¦¨à§Łà¥¤čĊ": 2164,
      "à¦ħà¦ķà¦¾à¦°à¦£à§ĩĠdiscountĠà¦¦à§ĩà¦¬à§ĩà¦¨Ġà¦¨à¦¾à¥¤ĠBudgetĠà¦ķà¦®Ġà¦¹à¦²à§ĩĠsmallerĠoption,ĠbundleĠà¦¬à¦¾ĠalternativeĠofferĠà¦¦à¦¿à¦¨à¥¤ĠFakeĠscarcity,ĠfakeĠreviewĠà¦¬à¦¾ĠfalseĠguaranteeĠà¦¬à§įà¦¯à¦¬à¦¹à¦¾à¦°Ġà¦ķà¦°à¦¬à§ĩà¦¨Ġà¦¨à¦¾à¥¤Ġà¦²à¦ķà§įà¦·à§įà¦¯Ġà¦¹à¦ĵà§Ł": 2165,
      "à¦Ĩà¦ªà¦¨à¦¿Ġà¦¬à¦²à¦¤à§ĩĠà¦ªà¦¾à¦°à§ĩà¦¨:ĠâĢľà¦¬à§ģà¦Ŀà¦¤à§ĩĠà¦ªà¦¾à¦°à¦Ľà¦¿à¥¤Ġà¦Ĩà¦ªà¦¨à¦¾à¦°Ġconcernà¦Łà¦¾Ġà¦ķà¦¿Ġà¦®à§Ĥà¦²à¦¤Ġà¦¦à¦¾à¦®,Ġà¦¨à¦¾à¦ķà¦¿Ġquality/valueĠà¦¨à¦¿à§Łà§ĩ?âĢĿĠà¦ıà¦°à¦ªà¦°": 2166,
      "-à¦ıà¦°Ġà¦¬à¦¾à¦¸à§įà¦¤à¦¬Ġspecification,ĠuseĠcase,ĠreviewĠà¦¬à¦¾ĠreturnĠtermsĠà¦¦à¦¿à¦¨âĢĶà¦¯à§ĩĠà¦¤à¦¥à§įà¦¯Ġà¦¸à¦¤à§įà¦¯à¦¿à¦ĩĠà¦Ĩà¦Ľà§ĩĠà¦¶à§ģà¦§à§ģĠà¦¸à§ĩà¦Łà¦¿à¦ĩĠà¦¬à¦²à§ģà¦¨à¥¤ĠčĊ": 2167,
      "ingĠquestionĠâĨĴĠrelevantĠevidence/valueĠâĨĴĠsuitableĠoptionĠâĨĴĠlow-pressureĠnextĠstepà¥¤ĠčĊ": 2168,
      "ConversationĠflow:ĠconcernĠacknowledgeĠâĨĴĠà¦ıà¦ķà¦Łà¦¿Ġà¦Ľà§ĭà¦ŁĠclarifyingĠquestionĠâĨĴĠrelevantĠevidence/valueĠâĨĴĠsuitableĠoptionĠâĨĴĠlow-pressureĠnextĠstepà¥¤ĠčĊ": 2169,
      "à¦ħà¦ķà¦¾à¦°à¦£à§ĩĠdiscountĠà¦¦à§ĩà¦¬à§ĩà¦¨Ġà¦¨à¦¾à¥¤ĠBudgetĠà¦ķà¦®Ġà¦¹à¦²à§ĩĠsmallerĠoption,ĠbundleĠà¦¬à¦¾ĠalternativeĠofferĠà¦¦à¦¿à¦¨à¥¤ĠFakeĠscarcity,ĠfakeĠreviewĠà¦¬à¦¾ĠfalseĠguaranteeĠà¦¬à§įà¦¯à¦¬à¦¹à¦¾à¦°Ġà¦ķà¦°à¦¬à§ĩà¦¨Ġà¦¨à¦¾à¥¤Ġà¦²à¦ķà§įà¦·à§įà¦¯Ġà¦¹à¦ĵà§Łà¦¾Ġà¦īà¦ļà¦¿à¦¤Ġbuyer-à¦ıà¦°Ġà¦ľà¦¨à§įà¦¯ĠfitĠà¦¨à¦¿à¦¶à§įà¦ļà¦¿à¦¤Ġà¦ķà¦°à¦¾;Ġà¦¯à§ĩà¦ķà§ĭà¦¨à§ĭĠà¦®à§Ĥà¦²à§įà¦¯à§ĩĠsaleĠà¦ķà¦°à¦¾Ġà¦¨à§Łà¥¤čĊ": 2170,
      "à¦ĸ": 2171,
      "Ġstory": 2172,
      "aby": 2173,
      "-careĠaccessories": 2174,
      "aby-careĠaccessories": 2175,
      "alidation": 2176,
      "Ġà¦ıà¦Łà¦¿": 2177,
      "kit": 2178,
      "vingĠ": 2179,
      "enĠproblem-": 2180,
      "chenĠproblem-": 2181,
      "solvingĠ": 2182,
      "kitchenĠproblem-": 2183,
      "solvingĠtools": 2184,
      "kitchenĠproblem-solvingĠtools": 2185,
      "obileĠaccessories": 2186,
      "ocialĠproof": 2187,
      "des": 2188,
      "kĠaccessories": 2189,
      "ptop/": 2190,
      "Ġapp": 2191,
      "deskĠaccessories": 2192,
      "ptop/deskĠaccessories": 2193,
      "arel": 2194,
      "nicheĠapp": 2195,
      "nicheĠapparel": 2196,
      "iz": 2197,
      "Ġà¦¹à¦²à§ĭ": 2198,
      "à¦¾à¦°Ġà¦ª": 2199,
      "gan": 2200,
      "tyĠ": 2201,
      "Ġorgan": 2202,
      "omeĠorgan": 2203,
      "ization": 2204,
      "omeĠorganization": 2205,
      "beau": 2206,
      "if": 2207,
      "tyĠtools": 2208,
      "beautyĠtools": 2209,
      "Ġà¦ķà¦°à¦Ľà¦¿à¥¤Ġ": 2210,
      "ĠbudgetĠà¦¬à§įà¦¯à¦¬à¦¹à¦¾à¦°Ġà¦ķà¦°à¦Ľà¦¿à¥¤Ġ": 2211,
      "gif": 2212,
      "tĠproducts": 2213,
      "Ġhe": 2214,
      "giftĠproducts": 2215,
      "Ġà¦®à¦¨": 2216,
      "à¥¤Ġà¦ķà§ĭà¦¨": 2217,
      "à¦¿à¦°": 2218,
      "à§ĭà¦Ĺ": 2219,
      "-à¦ıĠà¦ķà¦¾à¦ľĠà¦ķà¦°à¦Ľà¦¿à¥¤Ġà¦¸à¦®à¦¸à§įà¦¯à¦¾:": 2220,
      "ĠxĠx": 2221,
      "Ġà¦¸à¦Ĥà¦Ĺ": 2222,
      "negativeĠre": 2223,
      "nessĠaccessories": 2224,
      "Ġà¦²à¦¿à¦": 2225,
      "onal": 2226,
      "onal-careĠproducts": 2227,
      "à¦¾Ġà¦¶": 2228,
      "łà¦¿à¦ķ": 2229,
      "Ġà¦¸à¦Ĥà¦Ĺà§įà¦°à¦¹": 2230,
      "à¦¾à¦Ń": 2231,
      "à§¦,à§¦à§¦à§¦Ġà¦¹à¦²à§ĩĠtest-à¦ıà¦°Ġà¦Ĩà¦Ĺà§ĩĠmaximumĠacceptableĠCACĠà¦ıà¦¬à¦ĤĠstop/scaleĠruleĠà¦²à¦¿à¦ĸà§ĩĠà¦°à¦¾à¦ĸà§ģà¦¨à¥¤Ġà¦«à¦²Ġà¦Ńà¦¾à¦²à§ĭĠà¦¹à¦²à§ĩĠà¦§à§Ģà¦°à§ĩĠscaleĠà¦ķà¦°à§ģà¦¨;Ġà¦ĸà¦¾à¦°à¦¾à¦ªĠà¦¹à¦²à§ĩĠcreative,Ġoffer,ĠaudienceĠà¦¬à¦¾Ġfunnel-à¦ıà¦°Ġà¦ķà§ĭà¦¨ĠlayerĠà¦¬à¦¦à¦²à¦¾à¦¤à§ĩĠà¦¹à¦¬à§ĩĠà¦¤à¦¾ĠevidenceĠà¦¦à¦¿à§Łà§ĩĠà¦¨à¦¿à¦°à§įà¦§à¦¾à¦°à¦£Ġà¦ķà¦°à§ģà¦¨à¥¤čĊ": 2232,
      "Ġà¦ĵĠ": 2233,
      "Ġà¦¹à¦¿à¦¸à¦¾à¦¬": 2234,
      "negativeĠreviews": 2235,
      "Ġà¦¸à¦Ĥà¦Ĺà§įà¦°à¦¹Ġà¦ķà¦°à§ģà¦¨": 2236,
      "Ġà¦¨à¦¿à¦°à§įà¦¦": 2237,
      "à¦Ĩà¦®à¦¿": 2238,
      "Ĩà¦Ĺ": 2239,
      "à¦¾à¦ļà¦¾à¦ĩ": 2240,
      "à¦¾à¦¸": 2241,
      "Ġà¦²à¦¿à¦ĸà§ģà¦¨": 2242,
      "CPA": 2243,
      "à¦īà¦¤à§įà¦¤à¦°:Ġ": 2244,
      "Ġangle-à¦ıĠfeatureĠlistĠà¦¨à¦¾Ġà¦¦à¦¿à§Łà§ĩĠ": 2245,
      "baby-careĠaccessories": 2246,
      "Ġà¦¨à¦¿à¦°à§įà¦¦à¦¿à¦·à§įà¦Ł": 2247,
      "modestĠfashion": 2248,
      "¨à¦¤à§ģà¦¨Ġonline": 2249,
      "healthyĠsnackĠproducts": 2250,
      "ĠcontentĠà¦¬à¦¾à¦¨à¦¾à¦¤à§ĩĠà¦ļà¦¾à¦ĩà¥¤Ġà¦²à¦ķà§įà¦·à§įà¦¯ĠrepeatĠpurchase": 2251,
      "repeatĠpurchaseĠà¦ħà¦¨à§ģà¦¯à¦¾à§Łà§ĢĠKPIĠà¦¬à¦¾à¦Ľà§ģà¦¨à¥¤ĠAwarenessĠà¦¹à¦²à§ĩĠreach/viewĠquality;ĠleadĠgoalĠà¦¹à¦²à§ĩĠqualifiedĠmessage/lead;ĠsalesĠà¦¹à¦²à§ĩĠorder,ĠdeliveredĠorderĠà¦ıà¦¬à¦ĤĠcontributionĠprofitĠà¦¦à§ĩà¦ĸà§ģà¦¨à¥¤ĠčĊ": 2252,
      "ĠcontentĠà¦¬à¦¾à¦¨à¦¾à¦¤à§ĩĠà¦ļà¦¾à¦ĩà¥¤Ġà¦²à¦ķà§įà¦·à§įà¦¯ĠrepeatĠpurchaseà¥¤Ġà¦ķà§Ģà¦Ńà¦¾à¦¬à§ĩĠà¦²à¦¿à¦ĸà¦¬?čĊ": 2253,
      "mobileĠaccessories": 2254,
      "Ġà¦łà¦¿à¦ķ": 2255,
      "Ġà¦¯à¦¾à¦ļà¦¾à¦ĩ": 2256,
      "Ġà¦°à§ĩà¦ĸ": 2257,
      "Ġà¦ķà¦°à¦¤à§ĩĠà¦ļà¦¾à¦ĩà¥¤": 2258,
      "à¦ªà§įà¦°à¦¥à¦®Ġsale": 2259,
      "Ġbuyer-à¦ķà§ĩĠtargetĠà¦ķà¦°à§ĩĠ": 2260,
      "Ġbuyer-à¦ıà¦°Ġà¦¬à¦¾à¦¸à§įà¦¤à¦¬ĠcontextĠà¦¦à§ĩà¦ĸà¦¾à¦¨à¥¤Ġà¦ªà§įà¦°à¦¥à¦®Ġscreen/à¦ªà§įà¦°à¦¥à¦®Ġà¦ķà§Łà§ĩà¦ķĠà¦¸à§ĩà¦ķà§ĩà¦¨à§įà¦¡à§ĩĠà¦¬à¦¿à¦·à§Łà¦Łà¦¿Ġà¦ªà¦°à¦¿à¦·à§įà¦ķà¦¾à¦°Ġà¦ķà¦°à§ģà¦¨à¥¤ĠčĊ": 2261,
      "Ġà¦ªà§įà¦°": 2262,
      "ĠcontentĠà¦¬à¦¾à¦¨à¦¾à¦¤à§ĩĠà¦ļà¦¾à¦ĩà¥¤Ġà¦²à¦ķà§įà¦·à§įà¦¯Ġà¦ªà§įà¦°à¦¥à¦®Ġsale": 2263,
      "à¦ªà§įà¦°à¦¥à¦®ĠsaleĠà¦ħà¦¨à§ģà¦¯à¦¾à§Łà§ĢĠKPIĠà¦¬à¦¾à¦Ľà§ģà¦¨à¥¤ĠAwarenessĠà¦¹à¦²à§ĩĠreach/viewĠquality;ĠleadĠgoalĠà¦¹à¦²à§ĩĠqualifiedĠmessage/lead;ĠsalesĠà¦¹à¦²à§ĩĠorder,ĠdeliveredĠorderĠà¦ıà¦¬à¦ĤĠcontributionĠprofitĠà¦¦à§ĩà¦ĸà§ģà¦¨à¥¤ĠčĊ": 2264,
      "ĠcontentĠà¦¬à¦¾à¦¨à¦¾à¦¤à§ĩĠà¦ļà¦¾à¦ĩà¥¤Ġà¦²à¦ķà§įà¦·à§įà¦¯Ġà¦ªà§įà¦°à¦¥à¦®Ġsaleà¥¤Ġà¦ķà§Ģà¦Ńà¦¾à¦¬à§ĩĠà¦²à¦¿à¦ĸà¦¬?čĊ": 2265,
      "Ġprom": 2266,
      "laptop/deskĠaccessories": 2267,
      "profit": 2268,
      "homeĠorganization": 2269,
      "Ġà¦¹à¦²à§ĭ:": 2270,
      "à¦ªà§įà¦°à¦¥à¦®Ġà§§à§¦à§¦Ġorder": 2271,
      "ĠcontentĠà¦¬à¦¾à¦¨à¦¾à¦¤à§ĩĠà¦ļà¦¾à¦ĩà¥¤Ġà¦²à¦ķà§įà¦·à§įà¦¯ĠleadĠgeneration": 2272,
      "leadĠgenerationĠà¦ħà¦¨à§ģà¦¯à¦¾à§Łà§ĢĠKPIĠà¦¬à¦¾à¦Ľà§ģà¦¨à¥¤ĠAwarenessĠà¦¹à¦²à§ĩĠreach/viewĠquality;ĠleadĠgoalĠà¦¹à¦²à§ĩĠqualifiedĠmessage/lead;ĠsalesĠà¦¹à¦²à§ĩĠorder,ĠdeliveredĠorderĠà¦ıà¦¬à¦ĤĠcontributionĠprofitĠà¦¦à§ĩà¦ĸà§ģà¦¨à¥¤ĠčĊ": 2273,
      "ĠcontentĠà¦¬à¦¾à¦¨à¦¾à¦¤à§ĩĠà¦ļà¦¾à¦ĩà¥¤Ġà¦²à¦ķà§įà¦·à§įà¦¯ĠleadĠgenerationà¥¤Ġà¦ķà§Ģà¦Ńà¦¾à¦¬à§ĩĠà¦²à¦¿à¦ĸà¦¬?čĊ": 2274,
      "er-à¦ıà¦°Ġà¦¬à¦¾à¦¸à§įà¦¤à¦¬ĠcontextĠà¦¦à§ĩà¦ĸà¦¾à¦¨à¥¤Ġà¦ªà§įà¦°à¦¥à¦®Ġscreen/à¦ªà§įà¦°à¦¥à¦®Ġà¦ķà§Łà§ĩà¦ķĠà¦¸à§ĩà¦ķà§ĩà¦¨à§įà¦¡à§ĩĠà¦¬à¦¿à¦·à§Łà¦Łà¦¿Ġà¦ªà¦°à¦¿à¦·à§įà¦ķà¦¾à¦°Ġà¦ķà¦°à§ģà¦¨à¥¤ĠčĊ": 2275,
      "TikTok-à¦ı": 2276,
      "Ġun": 2277,
      "à¦ķà§ĩĠ": 2278,
      "version": 2279,
      "ffer": 2280,
      "differ": 2281,
      "conversion": 2282,
      "profitableĠacquisition": 2283,
      "vent": 2284,
      "leĠà¦¹à¦²à§ĭ:": 2285,
      "isk": 2286,
      "urableĠ": 2287,
      ",Ġreturn": 2288,
      "turnĠr": 2289,
      "itĠeconomics": 2290,
      "ĠcontentĠà¦¬à¦¾à¦¨à¦¾à¦¤à§ĩĠà¦ļà¦¾à¦ĩà¥¤Ġà¦²à¦ķà§įà¦·à§įà¦¯Ġà¦ªà§įà¦°à¦¥à¦®Ġà§§à§¦à§¦Ġorder": 2291,
      "/returnĠr": 2292,
      "entiation": 2293,
      "Instagram-à¦ı": 2294,
      "à¦ªà§įà¦°à¦¥à¦®Ġà§§à§¦à§¦ĠorderĠà¦ħà¦¨à§ģà¦¯à¦¾à§Łà§ĢĠKPIĠà¦¬à¦¾à¦Ľà§ģà¦¨à¥¤ĠAwarenessĠà¦¹à¦²à§ĩĠreach/viewĠquality;ĠleadĠgoalĠà¦¹à¦²à§ĩĠqualifiedĠmessage/lead;ĠsalesĠà¦¹à¦²à§ĩĠorder,ĠdeliveredĠorderĠà¦ıà¦¬à¦ĤĠcontributionĠprofitĠà¦¦à§ĩà¦ĸà§ģà¦¨à¥¤ĠčĊ": 2295,
      "ĠunitĠeconomics": 2296,
      "differentiation": 2297,
      "ĠcontentĠà¦¬à¦¾à¦¨à¦¾à¦¤à§ĩĠà¦ļà¦¾à¦ĩà¥¤Ġà¦²à¦ķà§įà¦·à§įà¦¯Ġà¦ªà§įà¦°à¦¥à¦®Ġà§§à§¦à§¦Ġorderà¥¤Ġà¦ķà§Ģà¦Ńà¦¾à¦¬à§ĩĠà¦²à¦¿à¦ĸà¦¬?čĊ": 2298,
      "/returnĠrisk": 2299,
      "ĠcontentĠà¦¬à¦¾à¦¨à¦¾à¦¤à§ĩĠà¦ļà¦¾à¦ĩà¥¤Ġà¦²à¦ķà§įà¦·à§įà¦¯ĠprofitableĠacquisition": 2300,
      "profitableĠacquisitionĠà¦ħà¦¨à§ģà¦¯à¦¾à§Łà§ĢĠKPIĠà¦¬à¦¾à¦Ľà§ģà¦¨à¥¤ĠAwarenessĠà¦¹à¦²à§ĩĠreach/viewĠquality;ĠleadĠgoalĠà¦¹à¦²à§ĩĠqualifiedĠmessage/lead;ĠsalesĠà¦¹à¦²à§ĩĠorder,ĠdeliveredĠorderĠà¦ıà¦¬à¦ĤĠcontributionĠprofitĠà¦¦à§ĩà¦ĸà§ģà¦¨à¥¤ĠčĊ": 2301,
      "ĠcontentĠà¦¬à¦¾à¦¨à¦¾à¦¤à§ĩĠà¦ļà¦¾à¦ĩà¥¤Ġà¦²à¦ķà§įà¦·à§įà¦¯ĠprofitableĠacquisitionà¥¤Ġà¦ķà§Ģà¦Ńà¦¾à¦¬à§ĩĠà¦²à¦¿à¦ĸà¦¬?čĊ": 2302,
      "ery": 2303,
      "ationery": 2304,
      "/educationĠproducts": 2305,
      "ationery/educationĠproducts": 2306,
      "-à¦¤à§ĩĠà¦": 2307,
      "à§įà¦¦": 2308,
      "fitnessĠaccessories": 2309,
      "WhatsApp-à¦ı": 2310,
      "à¥¤Ġà¦¤à¦¾à¦°à¦ªà¦°": 2311,
      "à§ĩĠà¦Ľà§ĭà¦Ł": 2312,
      "ĠâĢĺ": 2313,
      "à¦Łà¦ķ": 2314,
      "Ġà¦ħà¦§à§įà¦¯": 2315,
      "Ġpo": 2316,
      "Ġà¦Ĩà¦®": 2317,
      "âĢĿà¥¤Ġà¦Ĩà¦®à¦¿Ġà¦ķà§Ģà¦Ńà¦¾à¦¬à§ĩĠconversion-à¦ıà¦°Ġà¦¦à¦¿à¦ķà§ĩĠethicalĠconversationĠà¦ļà¦¾à¦²à¦¾à¦¬?čĊ": 2318,
      "-à¦¤à§ĩĠà¦Ĩ": 2319,
      "Facebook-à¦ı": 2320,
      "à¦¾Ġà¦¶à§ģà¦°à§ģ": 2321,
      "Ġcom": 2322,
      "Messenger-à¦ı": 2323,
      "YouTube-à¦ı": 2324,
      "Ġà¦§à¦°à§ĩ": 2325,
      "Ġà¦ħà¦§à§įà¦¯à¦¾à§Ł": 2326,
      "à¦²à¦¾à¦Ń": 2327,
      "à§ĭà¦Łà¦¾": 2328,
      "à§©à¦Łà¦¿": 2329,
      "Ġà¦¬à¦²à¦¬": 2330,
      "Ġà¦ıà¦Łà¦¿à¦ķà§ĩĠ": 2331,
      "oper": 2332,
      "ru": 2333,
      "ded": 2334,
      "-à¦ıà¦°Ġà¦ľà¦¨à§įà¦¯Ġà¦ıà¦ķà¦Łà¦¿": 2335,
      "Ġà¦Łà¦¾à¦ķà¦¾à¦°Ġà¦ª": 2336,
      "âĢĶà¦¯à§ĩà¦®à¦¨": 2337,
      "+Ġdelivery": 2338,
      "bin": 2339,
      "cast": 2340,
      "cas": 2341,
      "validation": 2342,
      "yĠà¦ĵĠ": 2343,
      "ionĠà¦ıà¦¬à¦ĤĠw": 2344,
      "Ġpackag": 2345,
      "à§ĩĠbuyer-à¦ıà¦°": 2346,
      "liable": 2347,
      ",Ġbuy": 2348,
      ",ĠqualifiedĠlead": 2349,
      ",ĠnegativeĠreviews": 2350,
      ",Ġvalidation": 2351,
      "Ġà¦ķà¦°à§ģà¦¨âĢĶà¦¯à§ĩà¦®à¦¨": 2352,
      "ational": 2353,
      "ation-à¦ıà¦°Ġà¦ķà§įà¦·à§ĩà¦¤à§įà¦°à§ĩĠà¦": 2354,
      "ising": 2355,
      "ĠproductĠprom": 2356,
      "Ġà¦ıà¦¬à¦ĤĠprice,Ġ": 2357,
      "Ġà¦¬à¦¾ĠcontributionĠprofità¥¤ĠčĊ": 2358,
      "Ġreliable": 2359,
      "ĠtestableĠacquisition": 2360,
      "à¦Ńà¦¾à¦¬à§ĩĠà¦¸à¦¿à¦¦à§įà¦§à¦¾à¦¨à§įà¦¤Ġà¦¨à§ĩà¦¬": 2361,
      "ingĠoc": 2362,
      "ingĠ+Ġdelivery": 2363,
      "tyĠ+": 2364,
      "à¦ıà¦ķà¦Łà¦¿ĠproductĠprom": 2365,
      "ĠproblemĠin": 2366,
      "ĠproblemĠà¦¹à¦¿à¦¸à§ĩà¦¬à§ĩĠà¦¦à§ĩà¦ĸ": 2367,
      "Ġproblem,Ġbuy": 2368,
      "edĠorder,ĠqualifiedĠlead": 2369,
      "sityĠ+": 2370,
      "licyĠà¦ĵĠ": 2371,
      ",Ġreviews": 2372,
      "à§ģà¦°à§ĭà¦Łà¦¾": 2373,
      "Ġà¦¨à§Ł,Ġvalidation": 2374,
      "Ġà¦¬à§įà¦¯à¦¬à¦¸à¦¾Ġà¦¶à§ģà¦°à§ģ": 2375,
      "ĠcontributionĠmarginĠà¦¹à¦¿à¦¸à¦¾à¦¬": 2376,
      "Ġ+Ġpay": 2377,
      "Ġ+Ġhe": 2378,
      "Ġ+Ġreliable": 2379,
      "Ġ+ĠtestableĠacquisition": 2380,
      "forecast": 2381,
      "tensityĠ+": 2382,
      "ĠofferĠà¦¸à¦Ĥà¦Ĺà§įà¦°à¦¹Ġà¦ķà¦°à§ģà¦¨": 2383,
      "ĠwillingnessĠtoĠpay": 2384,
      "à§¦à§¨à§ŃĠà¦¸à¦¾à¦²": 2385,
      ",Ġdelivery,Ġreturn": 2386,
      "à§ĩà¦¨Ġà¦¨à¦¾à¥¤Ġà§¨à§¦à§¨à§Ń-à¦ıà¦°Ġà¦ľà¦¨à§įà¦¯": 2387,
      "Ġinvent": 2388,
      "ĠdeliveredĠorder,ĠqualifiedĠlead": 2389,
      "Ġlanded": 2390,
      "ĠprimaryĠmetric": 2391,
      "âĢĻĠà¦¬à¦²à¦¬": 2392,
      "à§ĩà¦ĩĠâĢĺ": 2393,
      "à§ĩà¦ĩâĢĻĠà¦¬à¦²à¦¬": 2394,
      "ĠdurableĠ": 2395,
      "ĠfulfillmentĠ+ĠtestableĠacquisition": 2396,
      "ment/oper": 2397,
      "ĠacquisitionĠcostĠà¦§à¦°à§ĩ": 2398,
      "à¦ªà§įà¦°à¦¥à¦®à§ĩĠà§©à¦Łà¦¿": 2399,
      "à¦ªà§įà¦°à¦¶à§įà¦¨:Ġà¦ħà¦§à§įà¦¯à¦¾à§Ł": 2400,
      "ory-à¦¤à§ĩĠà¦Ĩ": 2401,
      "althyĠunitĠeconomics": 2402,
      "Ġà¦¨à¦¿à§Łà§ĩĠà¦¬à§įà¦¯à¦¬à¦¸à¦¾Ġà¦¶à§ģà¦°à§ģ": 2403,
      "bundle,Ġreviews": 2404,
      "Ġà§¨à§¦à§¨à§ŃĠà¦¸à¦¾à¦²": 2405,
      "illingnessĠtoĠpayĠà¦¯à¦¾à¦ļà¦¾à¦ĩ": 2406,
      "à§¨à§¦à§¨à§Ń-à¦ıà¦°Ġà¦ľà¦¨à§įà¦¯Ġà¦ıà¦Łà¦¿à¦ķà§ĩĠ": 2407,
      "ĠcostĠ+Ġpackag": 2408,
      "ĠcostĠ+ĠacquisitionĠcostĠà¦§à¦°à§ĩ": 2409,
      "ĠcompetitorĠofferĠà¦¸à¦Ĥà¦Ĺà§įà¦°à¦¹Ġà¦ķà¦°à§ģà¦¨": 2410,
      "à§ĩĠà¦¨à¦¾Ġà¦°à§ĩà¦ĸ": 2411,
      "à§ĩĠà¦¹à¦²à§ĩà¦ĩĠâĢĺ": 2412,
      "Ġà¦¹à¦¬à§ĩà¦ĩâĢĻĠà¦¬à¦²à¦¬": 2413,
      "Ġà¦®à¦¨à§ĩĠà¦¹à¦²à§ĩà¦ĩĠâĢĺ": 2414,
      "à¥¤Ġà¦ķà§ĭà¦¨à¦Ńà¦¾à¦¬à§ĩĠà¦¸à¦¿à¦¦à§įà¦§à¦¾à¦¨à§įà¦¤Ġà¦¨à§ĩà¦¬": 2415,
      "à¦Ĩà¦®à¦¿Ġà§¨à§¦à§¨à§ŃĠà¦¸à¦¾à¦²": 2416,
      "Ĩà¦Ĺà§ĩĠbuyer-à¦ıà¦°": 2417,
      "Ġà¦²à¦¿à¦ĸà§ģà¦¨à¥¤Ġà¦¤à¦¾à¦°à¦ªà¦°": 2418,
      "Ġà¦¨à¦¿à¦°à§įà¦¦à¦¿à¦·à§įà¦ŁĠproblem,Ġbuy": 2419,
      "Ġà¦łà¦¿à¦ķĠà¦ķà¦°à§ģà¦¨âĢĶà¦¯à§ĩà¦®à¦¨": 2420,
      "Ġà¦ķà¦°à¦¤à§ĩĠà¦ļà¦¾à¦ĩà¥¤Ġà¦¬à¦¾à¦ľà§ĩà¦Ł": 2421,
      "leĠà¦¹à¦²à§ĭ:ĠproblemĠin": 2422,
      "differentiationĠà¦²à¦¿à¦ĸà§ģà¦¨à¥¤Ġà¦¤à¦¾à¦°à¦ªà¦°": 2423,
      "/returnĠriskĠ+Ġpay": 2424,
      "à¦Łà¦ķà§ĩĠà¦¨à¦¾Ġà¦°à§ĩà¦ĸ": 2425,
      "ĠpolicyĠà¦ĵĠ": 2426,
      "Ġcombin": 2427,
      "à¦²à¦¾à¦ŃĠà¦¹à¦¬à§ĩà¦ĩâĢĻĠà¦¬à¦²à¦¬": 2428,
      "ruleĠà¦¹à¦²à§ĭ:ĠproblemĠin": 2429,
      "-à¦ıà¦°Ġà¦ľà¦¨à§įà¦¯Ġà¦ıà¦ķà¦Łà¦¿ĠprimaryĠmetric": 2430,
      "Ġà¦Łà¦¾à¦ķà¦¾à¦°Ġà¦ªà§ģà¦°à§ĭà¦Łà¦¾": 2431,
      "casionĠà¦ıà¦¬à¦ĤĠw": 2432,
      ",ĠnegativeĠreviews,Ġdelivery,Ġreturn": 2433,
      "ationalĠcostĠ+ĠacquisitionĠcostĠà¦§à¦°à§ĩ": 2434,
      "ation-à¦ıà¦°Ġà¦ķà§įà¦·à§ĩà¦¤à§įà¦°à§ĩĠà¦Ĩà¦Ĺà§ĩĠbuyer-à¦ıà¦°": 2435,
      "isingĠà¦®à¦¨à§ĩĠà¦¹à¦²à§ĩà¦ĩĠâĢĺ": 2436,
      "Ġà¦ıà¦¬à¦ĤĠprice,Ġbundle,Ġreviews": 2437,
      "ingĠoccasionĠà¦ıà¦¬à¦ĤĠw": 2438,
      "ingĠ+Ġdelivery/returnĠriskĠ+Ġpay": 2439,
      "à¦ıà¦ķà¦Łà¦¿ĠproductĠpromisingĠà¦®à¦¨à§ĩĠà¦¹à¦²à§ĩà¦ĩĠâĢĺ": 2440,
      "Ġà¦¨à§Ł,ĠvalidationĠproblemĠà¦¹à¦¿à¦¸à§ĩà¦¬à§ĩĠà¦¦à§ĩà¦ĸ": 2441,
      "ĠcontributionĠmarginĠà¦¹à¦¿à¦¸à¦¾à¦¬Ġà¦ķà¦°à§ģà¦¨à¥¤ĠčĊ": 2442,
      "Ġ+ĠhealthyĠunitĠeconomics": 2443,
      "Ġ+ĠreliableĠfulfillmentĠ+ĠtestableĠacquisition": 2444,
      "forecastĠà¦¨à§Ł,ĠvalidationĠproblemĠà¦¹à¦¿à¦¸à§ĩà¦¬à§ĩĠà¦¦à§ĩà¦ĸ": 2445,
      "tensityĠ+ĠwillingnessĠtoĠpay": 2446,
      "à§ĩà¦¨Ġà¦¨à¦¾à¥¤Ġà§¨à§¦à§¨à§Ń-à¦ıà¦°Ġà¦ľà¦¨à§įà¦¯ĠdurableĠ": 2447,
      "Ġinventory-à¦¤à§ĩĠà¦Ĩ": 2448,
      "ĠdeliveredĠorder,ĠqualifiedĠleadĠà¦¬à¦¾ĠcontributionĠprofità¥¤ĠčĊ": 2449,
      "ĠlandedĠcostĠ+Ġpackag": 2450,
      "ment/operationalĠcostĠ+ĠacquisitionĠcostĠà¦§à¦°à§ĩ": 2451,
      "à¦ªà§įà¦°à¦¥à¦®à§ĩĠà§©à¦Łà¦¿ĠcompetitorĠofferĠà¦¸à¦Ĥà¦Ĺà§įà¦°à¦¹Ġà¦ķà¦°à§ģà¦¨": 2452,
      "Ġà¦¨à¦¿à§Łà§ĩĠà¦¬à§įà¦¯à¦¬à¦¸à¦¾Ġà¦¶à§ģà¦°à§ģĠà¦ķà¦°à¦¤à§ĩĠà¦ļà¦¾à¦ĩà¥¤Ġà¦¬à¦¾à¦ľà§ĩà¦Ł": 2453,
      "illingnessĠtoĠpayĠà¦¯à¦¾à¦ļà¦¾à¦ĩĠà¦ķà¦°à§ģà¦¨à¥¤ĠčĊ": 2454,
      "à§¨à§¦à§¨à§Ń-à¦ıà¦°Ġà¦ľà¦¨à§įà¦¯Ġà¦ıà¦Łà¦¿à¦ķà§ĩĠforecastĠà¦¨à§Ł,ĠvalidationĠproblemĠà¦¹à¦¿à¦¸à§ĩà¦¬à§ĩĠà¦¦à§ĩà¦ĸ": 2455,
      "à¥¤Ġà¦ķà§ĭà¦¨à¦Ńà¦¾à¦¬à§ĩĠà¦¸à¦¿à¦¦à§įà¦§à¦¾à¦¨à§įà¦¤Ġà¦¨à§ĩà¦¬?čĊ": 2456,
      "Ġà¦¨à¦¿à¦°à§įà¦¦à¦¿à¦·à§įà¦ŁĠproblem,ĠbuyingĠoccasionĠà¦ıà¦¬à¦ĤĠw": 2457,
      "Ġà¦łà¦¿à¦ķĠà¦ķà¦°à§ģà¦¨âĢĶà¦¯à§ĩà¦®à¦¨ĠdeliveredĠorder,ĠqualifiedĠleadĠà¦¬à¦¾ĠcontributionĠprofità¥¤ĠčĊ": 2458,
      "differentiationĠà¦²à¦¿à¦ĸà§ģà¦¨à¥¤Ġà¦¤à¦¾à¦°à¦ªà¦°ĠlandedĠcostĠ+Ġpackag": 2459,
      "à¦Łà¦ķà§ĩĠà¦¨à¦¾Ġà¦°à§ĩà¦ĸà§ĩĠà¦Ľà§ĭà¦Ł": 2460,
      "ĠpolicyĠà¦ĵĠdifferentiationĠà¦²à¦¿à¦ĸà§ģà¦¨à¥¤Ġà¦¤à¦¾à¦°à¦ªà¦°ĠlandedĠcostĠ+Ġpackag": 2461,
      "Ġcombination-à¦ıà¦°Ġà¦ķà§įà¦·à§ĩà¦¤à§įà¦°à§ĩĠà¦Ĩà¦Ĺà§ĩĠbuyer-à¦ıà¦°": 2462,
      "à¦²à¦¾à¦ŃĠà¦¹à¦¬à§ĩà¦ĩâĢĻĠà¦¬à¦²à¦¬à§ĩà¦¨Ġà¦¨à¦¾à¥¤Ġà§¨à§¦à§¨à§Ń-à¦ıà¦°Ġà¦ľà¦¨à§įà¦¯ĠdurableĠ": 2463,
      "ruleĠà¦¹à¦²à§ĭ:ĠproblemĠintensityĠ+ĠwillingnessĠtoĠpay": 2464,
      "-à¦ıà¦°Ġà¦ľà¦¨à§įà¦¯Ġà¦ıà¦ķà¦Łà¦¿ĠprimaryĠmetricĠà¦łà¦¿à¦ķĠà¦ķà¦°à§ģà¦¨âĢĶà¦¯à§ĩà¦®à¦¨ĠdeliveredĠorder,ĠqualifiedĠleadĠà¦¬à¦¾ĠcontributionĠprofità¥¤ĠčĊ": 2465,
      "Ġà¦Łà¦¾à¦ķà¦¾à¦°Ġà¦ªà§ģà¦°à§ĭà¦Łà¦¾Ġinventory-à¦¤à§ĩĠà¦Ĩ": 2466,
      ",ĠnegativeĠreviews,Ġdelivery,ĠreturnĠpolicyĠà¦ĵĠdifferentiationĠà¦²à¦¿à¦ĸà§ģà¦¨à¥¤Ġà¦¤à¦¾à¦°à¦ªà¦°ĠlandedĠcostĠ+Ġpackag": 2467,
      "Ġà¦ıà¦¬à¦ĤĠprice,Ġbundle,Ġreviews,ĠnegativeĠreviews,Ġdelivery,ĠreturnĠpolicyĠà¦ĵĠdifferentiationĠà¦²à¦¿à¦ĸà§ģà¦¨à¥¤Ġà¦¤à¦¾à¦°à¦ªà¦°ĠlandedĠcostĠ+Ġpackag": 2468,
      "ingĠ+Ġdelivery/returnĠriskĠ+Ġpayment/operationalĠcostĠ+ĠacquisitionĠcostĠà¦§à¦°à§ĩ": 2469,
      "à¦ıà¦ķà¦Łà¦¿ĠproductĠpromisingĠà¦®à¦¨à§ĩĠà¦¹à¦²à§ĩà¦ĩĠâĢĺà¦²à¦¾à¦ŃĠà¦¹à¦¬à§ĩà¦ĩâĢĻĠà¦¬à¦²à¦¬à§ĩà¦¨Ġà¦¨à¦¾à¥¤Ġà§¨à§¦à§¨à§Ń-à¦ıà¦°Ġà¦ľà¦¨à§įà¦¯ĠdurableĠ": 2470,
      "Ġ+ĠhealthyĠunitĠeconomicsĠ+ĠreliableĠfulfillmentĠ+ĠtestableĠacquisition": 2471,
      "à¦ªà§įà¦°à¦¥à¦®à§ĩĠà§©à¦Łà¦¿ĠcompetitorĠofferĠà¦¸à¦Ĥà¦Ĺà§įà¦°à¦¹Ġà¦ķà¦°à§ģà¦¨Ġà¦ıà¦¬à¦ĤĠprice,Ġbundle,Ġreviews,ĠnegativeĠreviews,Ġdelivery,ĠreturnĠpolicyĠà¦ĵĠdifferentiationĠà¦²à¦¿à¦ĸà§ģà¦¨à¥¤Ġà¦¤à¦¾à¦°à¦ªà¦°ĠlandedĠcostĠ+Ġpackag": 2472,
      "Ġà¦¨à¦¿à¦°à§įà¦¦à¦¿à¦·à§įà¦ŁĠproblem,ĠbuyingĠoccasionĠà¦ıà¦¬à¦ĤĠwillingnessĠtoĠpayĠà¦¯à¦¾à¦ļà¦¾à¦ĩĠà¦ķà¦°à§ģà¦¨à¥¤ĠčĊ": 2473,
      "Ġcombination-à¦ıà¦°Ġà¦ķà§įà¦·à§ĩà¦¤à§įà¦°à§ĩĠà¦Ĩà¦Ĺà§ĩĠbuyer-à¦ıà¦°Ġà¦¨à¦¿à¦°à§įà¦¦à¦¿à¦·à§įà¦ŁĠproblem,ĠbuyingĠoccasionĠà¦ıà¦¬à¦ĤĠwillingnessĠtoĠpayĠà¦¯à¦¾à¦ļà¦¾à¦ĩĠà¦ķà¦°à§ģà¦¨à¥¤ĠčĊ": 2474,
      "ruleĠà¦¹à¦²à§ĭ:ĠproblemĠintensityĠ+ĠwillingnessĠtoĠpayĠ+ĠhealthyĠunitĠeconomicsĠ+ĠreliableĠfulfillmentĠ+ĠtestableĠacquisition": 2475,
      "Ġà¦Łà¦¾à¦ķà¦¾à¦°Ġà¦ªà§ģà¦°à§ĭà¦Łà¦¾Ġinventory-à¦¤à§ĩĠà¦Ĩà¦Łà¦ķà§ĩĠà¦¨à¦¾Ġà¦°à§ĩà¦ĸà§ĩĠà¦Ľà§ĭà¦Ł": 2476,
      "ingĠ+Ġdelivery/returnĠriskĠ+Ġpayment/operationalĠcostĠ+ĠacquisitionĠcostĠà¦§à¦°à§ĩĠcontributionĠmarginĠà¦¹à¦¿à¦¸à¦¾à¦¬Ġà¦ķà¦°à§ģà¦¨à¥¤ĠčĊ": 2477,
      "à¦ıà¦ķà¦Łà¦¿ĠproductĠpromisingĠà¦®à¦¨à§ĩĠà¦¹à¦²à§ĩà¦ĩĠâĢĺà¦²à¦¾à¦ŃĠà¦¹à¦¬à§ĩà¦ĩâĢĻĠà¦¬à¦²à¦¬à§ĩà¦¨Ġà¦¨à¦¾à¥¤Ġà§¨à§¦à§¨à§Ń-à¦ıà¦°Ġà¦ľà¦¨à§įà¦¯ĠdurableĠruleĠà¦¹à¦²à§ĭ:ĠproblemĠintensityĠ+ĠwillingnessĠtoĠpayĠ+ĠhealthyĠunitĠeconomicsĠ+ĠreliableĠfulfillmentĠ+ĠtestableĠacquisition": 2478,
      "à¦ªà§įà¦°à¦¥à¦®à§ĩĠà§©à¦Łà¦¿ĠcompetitorĠofferĠà¦¸à¦Ĥà¦Ĺà§įà¦°à¦¹Ġà¦ķà¦°à§ģà¦¨Ġà¦ıà¦¬à¦ĤĠprice,Ġbundle,Ġreviews,ĠnegativeĠreviews,Ġdelivery,ĠreturnĠpolicyĠà¦ĵĠdifferentiationĠà¦²à¦¿à¦ĸà§ģà¦¨à¥¤Ġà¦¤à¦¾à¦°à¦ªà¦°ĠlandedĠcostĠ+ĠpackagingĠ+Ġdelivery/returnĠriskĠ+Ġpayment/operationalĠcostĠ+ĠacquisitionĠcostĠà¦§à¦°à§ĩĠcontributionĠmarginĠà¦¹à¦¿à¦¸à¦¾à¦¬Ġà¦ķà¦°à§ģà¦¨à¥¤ĠčĊ": 2479,
      "à¦ıà¦ķà¦Łà¦¿ĠproductĠpromisingĠà¦®à¦¨à§ĩĠà¦¹à¦²à§ĩà¦ĩĠâĢĺà¦²à¦¾à¦ŃĠà¦¹à¦¬à§ĩà¦ĩâĢĻĠà¦¬à¦²à¦¬à§ĩà¦¨Ġà¦¨à¦¾à¥¤Ġà§¨à§¦à§¨à§Ń-à¦ıà¦°Ġà¦ľà¦¨à§įà¦¯ĠdurableĠruleĠà¦¹à¦²à§ĭ:ĠproblemĠintensityĠ+ĠwillingnessĠtoĠpayĠ+ĠhealthyĠunitĠeconomicsĠ+ĠreliableĠfulfillmentĠ+ĠtestableĠacquisitionà¥¤čĊ": 2480,
      "lĠaccessories": 2481,
      "velĠaccessories": 2482,
      "travelĠaccessories": 2483,
      "à¦ķà§įà¦¤": 2484,
      "Ġà¦¬à§ĩà¦¶": 2485,
      "âĪ": 2486,
      "Ġà§«,à§¦à§¦à§¦": 2487,
      "et-careĠproducts": 2488,
      "Ġhome": 2489,
      "Ġdecor": 2490,
      "mallĠhome": 2491,
      "mallĠhomeĠdecor": 2492,
      "/l": 2493,
      "Ġà¦¬à§ĩà¦¶à¦¿": 2494,
      "ocal": 2495,
      "de/l": 2496,
      "made/l": 2497,
      "ocalĠproducts": 2498,
      "made/localĠproducts": 2499,
      "à§Ī": 2500,
      "à¦¼": 2501,
      "à¦Ĺà§ģà¦²": 2502,
      "lies": 2503,
      "à¦¿à¦²": 2504,
      "Ġsupp": 2505,
      "2B": 2506,
      "B2B": 2507,
      "Ġsupplies": 2508,
      "B2BĠsupplies": 2509,
      "à¦¾à¦¦à§ĩà¦°": 2510,
      "à§¦,à§¦à§¦à§¦Ġà¦Łà¦¾à¦ķà¦¾ĠbudgetĠà¦¬à§įà¦¯à¦¬à¦¹à¦¾à¦°Ġà¦ķà¦°à¦Ľà¦¿à¥¤Ġ": 2511,
      "¡à¦¼": 2512,
      "Ġà¦ķà¦°à¥¤čĊ": 2513,
      "à¦ľ": 2514,
      "-à¦ıĠà¦ķà¦¾à¦ľĠà¦ķà¦°à¦Ľà¦¿à¥¤Ġà¦¸à¦®à¦¸à§įà¦¯à¦¾:Ġ": 2515,
      "à§¨à§¦à§¨à§Ń-à¦ıà¦°Ġà¦ľà¦¨à§įà¦¯Ġà¦ıà¦Łà¦¿à¦ķà§ĩĠforecastĠà¦¨à§Ł,ĠvalidationĠproblemĠà¦¹à¦¿à¦¸à§ĩà¦¬à§ĩĠà¦¦à§ĩà¦ĸà§ģà¦¨à¥¤Ġ": 2516,
      "Ġà¦²": 2517,
      "Ľà§ĭà¦ŁĠà¦¬à§įà¦¯à¦¬à¦¸à¦¾à¦°Ġowner-à¦ıà¦°": 2518,
      "à§įà¦ª": 2519,
      "stationery/educationĠproducts": 2520,
      "hobby": 2521,
      "hobbyĠproducts": 2522,
      "sonal-careĠproducts": 2523,
      "personal-careĠproducts": 2524,
      "er,ĠchannelĠ": 2525,
      "hand": 2526,
      "handmade/localĠproducts": 2527,
      "âĤ": 2528,
      "à¦ļà§įà¦Ľ": 2529,
      "Ġ-": 2530,
      "Ġà¦ªà§įà¦°à¦": 2531,
      "Ġà¦¹à¦¯à¦¼": 2532,
      "LT": 2533,
      "LTV": 2534,
      "Ġà¦¹à¦ļà§įà¦Ľ": 2535,
      "à¦¾à¦Ĺ": 2536,
      "à§įà¦²": 2537,
      "CPC": 2538,
      "Ġà¦Ĩà¦Ľà§ĩĠà¦ķà¦¿à¦¨à§įà¦¤": 2539,
      "Ġà¦°à¦¾à¦": 2540,
      "Ġ=": 2541,
      "Ġà¦¸à¦Ĥà¦ĸ": 2542,
      "ĠFAQ": 2543,
      "âĪĴ": 2544,
      "-solution": 2545,
      "Ġretention": 2546,
      "blem-solution": 2547,
      "Ġà¦¬à§įà¦¯à¦¬à¦¸à¦¾à§ŁĠretention": 2548,
      "Ġproblem-solution": 2549,
      "problem-solution": 2550,
      "retention-à¦ıà¦°ĠbottleneckĠà¦Ĩà¦Ĺà§ĩĠidentifyĠà¦ķà¦°à§ģà¦¨à¥¤ĠčĊ": 2551,
      "retention-à¦ķà§ĩĠà¦ªà§ģà¦°à§ĭĠcustomerĠjourney-à¦ıà¦°Ġà¦ħà¦Ĥà¦¶Ġà¦¹à¦¿à¦¸à§ĩà¦¬à§ĩĠà¦¦à§ĩà¦ĸà§ģà¦¨à¥¤Ġ": 2552,
      "Ġà¦¬à§įà¦¯à¦¬à¦¸à¦¾à§ŁĠretentionĠstageĠà¦īà¦¨à§įà¦¨à¦¤Ġà¦ķà¦°à¦¤à§ĩĠà¦ļà¦¾à¦ĩà¥¤ĠTarget": 2553,
      "retention-à¦ķà§ĩĠà¦ªà§ģà¦°à§ĭĠcustomerĠjourney-à¦ıà¦°Ġà¦ħà¦Ĥà¦¶Ġà¦¹à¦¿à¦¸à§ĩà¦¬à§ĩĠà¦¦à§ĩà¦ĸà§ģà¦¨à¥¤Ġretention-à¦ıà¦°ĠbottleneckĠà¦Ĩà¦Ĺà§ĩĠidentifyĠà¦ķà¦°à§ģà¦¨à¥¤ĠčĊ": 2554,
      "smallĠhomeĠdecor": 2555,
      "::::": 2556,
      "à¦¨à§ĩà¦°": 2557,
      "Ġà¦®à¦¾à¦¨": 2558,
      "ĠconversionĠstageĠà¦īà¦¨à§įà¦¨à¦¤Ġà¦ķà¦°à¦¤à§ĩĠà¦ļà¦¾à¦ĩà¥¤ĠTarget": 2559,
      "Ġconversion-à¦ıà¦°ĠbottleneckĠà¦Ĩà¦Ĺà§ĩĠidentifyĠà¦ķà¦°à§ģà¦¨à¥¤ĠčĊ": 2560,
      "Ġà¦¬à§įà¦¯à¦¬à¦¸à¦¾à§ŁĠconversionĠstageĠà¦īà¦¨à§įà¦¨à¦¤Ġà¦ķà¦°à¦¤à§ĩĠà¦ļà¦¾à¦ĩà¥¤ĠTarget": 2561,
      "-à¦ķà§ĩĠà¦ªà§ģà¦°à§ĭĠcustomerĠjourney-à¦ıà¦°Ġà¦ħà¦Ĥà¦¶Ġà¦¹à¦¿à¦¸à§ĩà¦¬à§ĩĠà¦¦à§ĩà¦ĸà§ģà¦¨à¥¤Ġconversion-à¦ıà¦°ĠbottleneckĠà¦Ĩà¦Ĺà§ĩĠidentifyĠà¦ķà¦°à§ģà¦¨à¥¤ĠčĊ": 2562,
      "conversion-à¦ķà§ĩĠà¦ªà§ģà¦°à§ĭĠcustomerĠjourney-à¦ıà¦°Ġà¦ħà¦Ĥà¦¶Ġà¦¹à¦¿à¦¸à§ĩà¦¬à§ĩĠà¦¦à§ĩà¦ĸà§ģà¦¨à¥¤Ġconversion-à¦ıà¦°ĠbottleneckĠà¦Ĩà¦Ĺà§ĩĠidentifyĠà¦ķà¦°à§ģà¦¨à¥¤ĠčĊ": 2563,
      "à§ĩĠà¦ķà¦¿à¦¨à§įà¦¤à§ģĠorder": 2564,
      "Ġà¦¬à§įà¦¯à¦¬à¦¸à¦¾à§ŁĠconsideration": 2565,
      "sideration-à¦ķà§ĩĠà¦ªà§ģà¦°à§ĭĠcustomerĠjourney-à¦ıà¦°Ġà¦ħà¦Ĥà¦¶Ġà¦¹à¦¿à¦¸à§ĩà¦¬à§ĩĠà¦¦à§ĩà¦ĸà§ģà¦¨à¥¤": 2566,
      "Ġconsideration-à¦ıà¦°ĠbottleneckĠà¦Ĩà¦Ĺà§ĩĠidentifyĠà¦ķà¦°à§ģà¦¨à¥¤ĠčĊ": 2567,
      "consideration-à¦ķà§ĩĠà¦ªà§ģà¦°à§ĭĠcustomerĠjourney-à¦ıà¦°Ġà¦ħà¦Ĥà¦¶Ġà¦¹à¦¿à¦¸à§ĩà¦¬à§ĩĠà¦¦à§ĩà¦ĸà§ģà¦¨à¥¤": 2568,
      "Ġà¦¬à§įà¦¯à¦¬à¦¸à¦¾à§ŁĠconsiderationĠstageĠà¦īà¦¨à§įà¦¨à¦¤Ġà¦ķà¦°à¦¤à§ĩĠà¦ļà¦¾à¦ĩà¥¤ĠTarget": 2569,
      "consideration-à¦ķà§ĩĠà¦ªà§ģà¦°à§ĭĠcustomerĠjourney-à¦ıà¦°Ġà¦ħà¦Ĥà¦¶Ġà¦¹à¦¿à¦¸à§ĩà¦¬à§ĩĠà¦¦à§ĩà¦ĸà§ģà¦¨à¥¤Ġconsideration-à¦ıà¦°ĠbottleneckĠà¦Ĩà¦Ĺà§ĩĠidentifyĠà¦ķà¦°à§ģà¦¨à¥¤ĠčĊ": 2570,
      "à§ĩà¦²": 2571,
      "comparison": 2572,
      "Ġcomparison": 2573,
      "00": 2574,
      "og": 2575,
      "customer": 2576,
      "à§įà¦ŀ": 2577,
      "CPM": 2578,
      "========": 2579,
      "myth-vs-fact": 2580,
      "Ġmyth-vs-fact": 2581,
      "à§¦,à§¦à§¦à§¦Ġà¦Łà¦¾à¦ķà¦¾à¦°Ġà¦ªà§ģà¦°à§ĭà¦Łà¦¾Ġinventory-à¦¤à§ĩĠà¦Ĩà¦Łà¦ķà§ĩĠà¦¨à¦¾Ġà¦°à§ĩà¦ĸà§ĩĠà¦Ľà§ĭà¦Ł": 2582,
      "à§¦,à§¦à§¦à§¦Ġà¦Łà¦¾à¦ķà¦¾à¥¤Ġà¦²à¦ķà§įà¦·à§įà¦¯": 2583,
      "à¦¾à¦§": 2584,
      "demonstration": 2585,
      "à§ĩĠà¦Ĺ": 2586,
      "à¦¨à§įà¦¤": 2587,
      "à§ĩĠà¦ªà§įà¦°à¦¥à¦®": 2588,
      "ĠcustomerĠstory": 2589,
      "customerĠstory": 2590,
      "à¦¾à¦£": 2591,
      "à¦¤à¦¾": 2592,
      "Ġà¦¦à§ĩà¦ĸà§ĩĠà¦ªà§įà¦°à¦¥à¦®": 2593,
      "carĠaccessories": 2594,
      "socialĠproof": 2595,
      "ĠsocialĠproof": 2596,
      "Ġà¦Ń": 2597,
      "pet-careĠproducts": 2598,
      "Ġà¦¬à§įà¦¯à¦¬à¦¸à¦¾à§ŁĠawareness": 2599,
      "awareness-à¦ıà¦°ĠbottleneckĠà¦Ĩà¦Ĺà§ĩĠidentifyĠà¦ķà¦°à§ģà¦¨à¥¤ĠčĊ": 2600,
      "awareness-à¦ķà§ĩĠà¦ªà§ģà¦°à§ĭĠcustomerĠjourney-à¦ıà¦°Ġà¦ħà¦Ĥà¦¶Ġà¦¹à¦¿à¦¸à§ĩà¦¬à§ĩĠà¦¦à§ĩà¦ĸà§ģà¦¨à¥¤Ġ": 2601,
      "Ġà¦¬à§įà¦¯à¦¬à¦¸à¦¾à§ŁĠawarenessĠstageĠà¦īà¦¨à§įà¦¨à¦¤Ġà¦ķà¦°à¦¤à§ĩĠà¦ļà¦¾à¦ĩà¥¤ĠTarget": 2602,
      "awareness-à¦ķà§ĩĠà¦ªà§ģà¦°à§ĭĠcustomerĠjourney-à¦ıà¦°Ġà¦ħà¦Ĥà¦¶Ġà¦¹à¦¿à¦¸à§ĩà¦¬à§ĩĠà¦¦à§ĩà¦ĸà§ģà¦¨à¥¤Ġawareness-à¦ıà¦°ĠbottleneckĠà¦Ĩà¦Ĺà§ĩĠidentifyĠà¦ķà¦°à§ģà¦¨à¥¤ĠčĊ": 2603,
      "Ġà¦¦à§ĩà¦ĸà§ĩĠ": 2604,
      "à¦ıà¦®": 2605,
      "à§§": 2606,
      "ĠxĠxĠxĠx": 2607,
      "à¦ķà¦¾à¦°": 2608,
      "Ġà¦ĸ": 2609,
      "à§Į": 2610,
      "ĠâĪ": 2611,
      "à¦¨à§įà¦¦": 2612,
      "Ġà¦¨à¦¿à§Łà§ĩĠbusyĠprofessional": 2613,
      "Ġà§«,à§¦à§¦à§¦Ġà¦Łà¦¾à¦ķà¦¾": 2614,
      ",Ġà¦²à¦ķà§įà¦·à§įà¦¯ĠleadĠgeneration": 2615,
      "à¦ıà¦®à¦ıà¦®": 2616,
      ",Ġà¦²à¦ķà§įà¦·à§įà¦¯ĠleadĠgenerationà¥¤Ġà¦ķà§ĢĠà¦ķà¦°à¦¬?čĊ": 2617,
      "Ġà¦¨à§ĩà¦ĩ": 2618,
      "Ġà¦¨à¦¿à§Łà§ĩĠworkingĠmothers": 2619,
      "busyĠprofessional-à¦ıà¦°Ġà¦¬à¦¾à¦¸à§įà¦¤à¦¬ĠcontextĠà¦¦à§ĩà¦ĸà¦¾à¦¨à¥¤Ġà¦ªà§įà¦°à¦¥à¦®Ġscreen/à¦ªà§įà¦°à¦¥à¦®Ġà¦ķà§Łà§ĩà¦ķĠà¦¸à§ĩà¦ķà§ĩà¦¨à§įà¦¡à§ĩĠà¦¬à¦¿à¦·à§Łà¦Łà¦¿Ġà¦ªà¦°à¦¿à¦·à§įà¦ķà¦¾à¦°Ġà¦ķà¦°à§ģà¦¨à¥¤ĠčĊ": 2620,
      "Ġangle-à¦ıĠfeatureĠlistĠà¦¨à¦¾Ġà¦¦à¦¿à§Łà§ĩĠbusyĠprofessional-à¦ıà¦°Ġà¦¬à¦¾à¦¸à§įà¦¤à¦¬ĠcontextĠà¦¦à§ĩà¦ĸà¦¾à¦¨à¥¤Ġà¦ªà§įà¦°à¦¥à¦®Ġscreen/à¦ªà§įà¦°à¦¥à¦®Ġà¦ķà§Łà§ĩà¦ķĠà¦¸à§ĩà¦ķà§ĩà¦¨à§įà¦¡à§ĩĠà¦¬à¦¿à¦·à§Łà¦Łà¦¿Ġà¦ªà¦°à¦¿à¦·à§įà¦ķà¦¾à¦°Ġà¦ķà¦°à§ģà¦¨à¥¤ĠčĊ": 2621,
      "Ġà¦¨à¦¿à§Łà§ĩĠbusyĠprofessional-à¦ķà§ĩĠtargetĠà¦ķà¦°à§ĩĠ": 2622,
      "à¦¿à¦ľà§įà¦ŀ": 2623,
      "à§Ģà¦²": 2624,
      "Ġà¦¨à¦¿à§Łà§ĩĠà¦¨à¦¤à§ģà¦¨Ġonline": 2625,
      "er-à¦ıà¦°ĠlanguageĠà¦ĵĠbuyingĠcontextĠà¦ħà¦¨à§ģà¦¯à¦¾à§Łà§ĢĠmessageĠà¦¦à¦¿à¦¨à¥¤Ġà¦ıà¦ķà¦ĩĠcreativeĠà¦¦à¦¿à§Łà§ĩĠà¦¸à¦¬ĠstageĠsolveĠà¦ķà¦°à¦¾à¦°Ġà¦ļà§ĩà¦·à§įà¦Łà¦¾Ġà¦ķà¦°à¦¬à§ĩà¦¨Ġà¦¨à¦¾à¥¤ĠčĊ": 2626,
      "Ġà¦¨à¦¿à§Łà§ĩĠà¦®à¦§à§įà¦¯à¦®Ġà¦¬à¦¾à¦ľà§ĩà¦Łà§ĩà¦°ĠonlineĠshopp": 2627,
      "Ġà¦¨à¦¿à§Łà§ĩĠà¦¬à¦¿à¦¶à§įà¦¬à¦¬à¦¿à¦¦à§įà¦¯à¦¾à¦²à§Łà§ĩà¦°Ġà¦¶à¦¿à¦ķà§įà¦·à¦¾à¦°à§įà¦¥à§Ģ": 2628,
      "-à¦ıà¦°Ġà¦ķà§įà¦·à§ĩà¦¤à§įà¦°à§ĩĠ": 2629,
      "Ġbuyer,ĠchannelĠ": 2630,
      "Ġbuyer-à¦ıà¦°ĠlanguageĠà¦ĵĠbuyingĠcontextĠà¦ħà¦¨à§ģà¦¯à¦¾à§Łà§ĢĠmessageĠà¦¦à¦¿à¦¨à¥¤Ġà¦ıà¦ķà¦ĩĠcreativeĠà¦¦à¦¿à§Łà§ĩĠà¦¸à¦¬ĠstageĠsolveĠà¦ķà¦°à¦¾à¦°Ġà¦ļà§ĩà¦·à§įà¦Łà¦¾Ġà¦ķà¦°à¦¬à§ĩà¦¨Ġà¦¨à¦¾à¥¤ĠčĊ": 2631,
      "workingĠmothers-à¦ıà¦°Ġà¦¬à¦¾à¦¸à§įà¦¤à¦¬ĠcontextĠà¦¦à§ĩà¦ĸà¦¾à¦¨à¥¤Ġà¦ªà§įà¦°à¦¥à¦®Ġscreen/à¦ªà§įà¦°à¦¥à¦®Ġà¦ķà§Łà§ĩà¦ķĠà¦¸à§ĩà¦ķà§ĩà¦¨à§įà¦¡à§ĩĠà¦¬à¦¿à¦·à§Łà¦Łà¦¿Ġà¦ªà¦°à¦¿à¦·à§įà¦ķà¦¾à¦°Ġà¦ķà¦°à§ģà¦¨à¥¤ĠčĊ": 2632,
      "Ġangle-à¦ıĠfeatureĠlistĠà¦¨à¦¾Ġà¦¦à¦¿à§Łà§ĩĠworkingĠmothers-à¦ıà¦°Ġà¦¬à¦¾à¦¸à§įà¦¤à¦¬ĠcontextĠà¦¦à§ĩà¦ĸà¦¾à¦¨à¥¤Ġà¦ªà§įà¦°à¦¥à¦®Ġscreen/à¦ªà§įà¦°à¦¥à¦®Ġà¦ķà§Łà§ĩà¦ķĠà¦¸à§ĩà¦ķà§ĩà¦¨à§įà¦¡à§ĩĠà¦¬à¦¿à¦·à§Łà¦Łà¦¿Ġà¦ªà¦°à¦¿à¦·à§įà¦ķà¦¾à¦°Ġà¦ķà¦°à§ģà¦¨à¥¤ĠčĊ": 2633,
      "Ġà¦¨à¦¿à§Łà§ĩĠworkingĠmothers-à¦ķà§ĩĠtargetĠà¦ķà¦°à§ĩĠ": 2634,
      "Ġà¦¸à¦°": 2635,
      "Ġà¦¸à¦¾à¦": 2636,
      "Ġà¦¨à¦¿à§Łà§ĩĠà¦Ľà§ĭà¦ŁĠà¦ªà¦°à¦¿à¦¬à¦¾à¦°à§ĩà¦°": 2637,
      "Ġangle-à¦ıĠfeatureĠlistĠà¦¨à¦¾Ġà¦¦à¦¿à§Łà§ĩĠà¦¨à¦¤à§ģà¦¨Ġonline": 2638,
      "Ġà¦¨à¦¿à§Łà§ĩĠà¦¨à¦¤à§ģà¦¨ĠonlineĠbuyer-à¦ķà§ĩĠtargetĠà¦ķà¦°à§ĩĠ": 2639,
      "Ġangle-à¦ıĠfeatureĠlistĠà¦¨à¦¾Ġà¦¦à¦¿à§Łà§ĩĠà¦¨à¦¤à§ģà¦¨ĠonlineĠbuyer-à¦ıà¦°Ġà¦¬à¦¾à¦¸à§įà¦¤à¦¬ĠcontextĠà¦¦à§ĩà¦ĸà¦¾à¦¨à¥¤Ġà¦ªà§įà¦°à¦¥à¦®Ġscreen/à¦ªà§įà¦°à¦¥à¦®Ġà¦ķà§Łà§ĩà¦ķĠà¦¸à§ĩà¦ķà§ĩà¦¨à§įà¦¡à§ĩĠà¦¬à¦¿à¦·à§Łà¦Łà¦¿Ġà¦ªà¦°à¦¿à¦·à§įà¦ķà¦¾à¦°Ġà¦ķà¦°à§ģà¦¨à¥¤ĠčĊ": 2640,
      "ĠâĪļ": 2641,
      ",Ġà¦²à¦ķà§įà¦·à§įà¦¯ĠprofitableĠacquisition": 2642,
      ",Ġà¦²à¦ķà§įà¦·à§įà¦¯ĠprofitableĠacquisitionà¥¤Ġà¦ķà§ĢĠà¦ķà¦°à¦¬?čĊ": 2643,
      "repeatĠpurchaseĠrate": 2644,
      "Ġangle-à¦ıĠfeatureĠlistĠà¦¨à¦¾Ġà¦¦à¦¿à§Łà§ĩĠà¦¬à¦¿à¦¶à§įà¦¬à¦¬à¦¿à¦¦à§įà¦¯à¦¾à¦²à§Łà§ĩà¦°Ġà¦¶à¦¿à¦ķà§įà¦·à¦¾à¦°à§įà¦¥à§Ģ": 2645,
      "Ġà¦¨à¦¿à§Łà§ĩĠà¦¬à¦¿à¦¶à§įà¦¬à¦¬à¦¿à¦¦à§įà¦¯à¦¾à¦²à§Łà§ĩà¦°Ġà¦¶à¦¿à¦ķà§įà¦·à¦¾à¦°à§įà¦¥à§Ģ-à¦ķà§ĩĠtargetĠà¦ķà¦°à§ĩĠ": 2646,
      "Ġangle-à¦ıĠfeatureĠlistĠà¦¨à¦¾Ġà¦¦à¦¿à§Łà§ĩĠà¦¬à¦¿à¦¶à§įà¦¬à¦¬à¦¿à¦¦à§įà¦¯à¦¾à¦²à§Łà§ĩà¦°Ġà¦¶à¦¿à¦ķà§įà¦·à¦¾à¦°à§įà¦¥à§Ģ-à¦ıà¦°Ġà¦¬à¦¾à¦¸à§įà¦¤à¦¬ĠcontextĠà¦¦à§ĩà¦ĸà¦¾à¦¨à¥¤Ġà¦ªà§įà¦°à¦¥à¦®Ġscreen/à¦ªà§įà¦°à¦¥à¦®Ġà¦ķà§Łà§ĩà¦ķĠà¦¸à§ĩà¦ķà§ĩà¦¨à§įà¦¡à§ĩĠà¦¬à¦¿à¦·à§Łà¦Łà¦¿Ġà¦ªà¦°à¦¿à¦·à§įà¦ķà¦¾à¦°Ġà¦ķà¦°à§ģà¦¨à¥¤ĠčĊ": 2647,
      "à¦¿à¦ķà§įà¦°": 2648,
      "Ġangle-à¦ıĠfeatureĠlistĠà¦¨à¦¾Ġà¦¦à¦¿à§Łà§ĩĠà¦®à¦§à§įà¦¯à¦®Ġà¦¬à¦¾à¦ľà§ĩà¦Łà§ĩà¦°ĠonlineĠshopp": 2649,
      "Ġà¦¨à¦¿à§Łà§ĩĠà¦®à¦§à§įà¦¯à¦®Ġà¦¬à¦¾à¦ľà§ĩà¦Łà§ĩà¦°ĠonlineĠshopper-à¦ķà§ĩĠtargetĠà¦ķà¦°à§ĩĠ": 2650,
      "Ġangle-à¦ıĠfeatureĠlistĠà¦¨à¦¾Ġà¦¦à¦¿à§Łà§ĩĠà¦®à¦§à§įà¦¯à¦®Ġà¦¬à¦¾à¦ľà§ĩà¦Łà§ĩà¦°ĠonlineĠshopper-à¦ıà¦°Ġà¦¬à¦¾à¦¸à§įà¦¤à¦¬ĠcontextĠà¦¦à§ĩà¦ĸà¦¾à¦¨à¥¤Ġà¦ªà§įà¦°à¦¥à¦®Ġscreen/à¦ªà§įà¦°à¦¥à¦®Ġà¦ķà§Łà§ĩà¦ķĠà¦¸à§ĩà¦ķà§ĩà¦¨à§įà¦¡à§ĩĠà¦¬à¦¿à¦·à§Łà¦Łà¦¿Ġà¦ªà¦°à¦¿à¦·à§įà¦ķà¦¾à¦°Ġà¦ķà¦°à§ģà¦¨à¥¤ĠčĊ": 2651,
      "Ġà¦¨à¦¿à§Łà§ĩĠà¦¢à¦¾à¦ķà¦¾à¦°Ġà¦¤à¦°à§ģà¦£Ġà¦ļà¦¾à¦ķà¦°à¦¿à¦ľà§Ģà¦¬à§Ģ": 2652,
      "Ġà¦¨à¦¿à§Łà§ĩĠà¦Ľà§ĭà¦ŁĠà¦¬à§įà¦¯à¦¬à¦¸à¦¾à¦°Ġow": 2653,
      "Ġà¦¨à¦¿à§Łà§ĩĠà¦Ľà§ĭà¦ŁĠà¦¬à§įà¦¯à¦¬à¦¸à¦¾à¦°Ġown": 2654,
      "·à¦¾": 2655,
      "Ġ=Ġ": 2656,
      "Ġà¦ķà¦®Ġà¦¹à¦²à§ĩĠcreative/message,Ġaudience,Ġoffer,Ġprice,Ġtrust,ĠproductĠinformation,ĠresponseĠspeed,ĠdeliveryĠà¦ıà¦¬à¦ĤĠreturn/cancellationâĢĶà¦ªà§įà¦°à¦¤à¦¿à¦Łà¦¿Ġà¦¸à¦®à§įà¦Ńà¦¾à¦¬à§įà¦¯ĠbottleneckĠà¦Ĩà¦²à¦¾à¦¦à¦¾Ġà¦ķà¦°à§ģà¦¨à¥¤ĠčĊ": 2657,
      "Ġà¦¨à¦¿à§Łà§ĩĠà¦®à¦«à¦¸à§įà¦¬à¦²à§ĩà¦°ĠsmartphoneĠus": 2658,
      "ogâĤ": 2659,
      "Ġangle-à¦ıĠfeatureĠlistĠà¦¨à¦¾Ġà¦¦à¦¿à§Łà§ĩĠà¦Ľà§ĭà¦ŁĠà¦ªà¦°à¦¿à¦¬à¦¾à¦°à§ĩà¦°": 2660,
      "Ġà¦¨à¦¿à§Łà§ĩĠà¦Ľà§ĭà¦ŁĠà¦ªà¦°à¦¿à¦¬à¦¾à¦°à§ĩà¦°Ġbuyer-à¦ķà§ĩĠtargetĠà¦ķà¦°à§ĩĠ": 2661,
      "Ġangle-à¦ıĠfeatureĠlistĠà¦¨à¦¾Ġà¦¦à¦¿à§Łà§ĩĠà¦Ľà§ĭà¦ŁĠà¦ªà¦°à¦¿à¦¬à¦¾à¦°à§ĩà¦°Ġbuyer-à¦ıà¦°Ġà¦¬à¦¾à¦¸à§įà¦¤à¦¬ĠcontextĠà¦¦à§ĩà¦ĸà¦¾à¦¨à¥¤Ġà¦ªà§įà¦°à¦¥à¦®Ġscreen/à¦ªà§įà¦°à¦¥à¦®Ġà¦ķà§Łà§ĩà¦ķĠà¦¸à§ĩà¦ķà§ĩà¦¨à§įà¦¡à§ĩĠà¦¬à¦¿à¦·à§Łà¦Łà¦¿Ġà¦ªà¦°à¦¿à¦·à§įà¦ķà¦¾à¦°Ġà¦ķà¦°à§ģà¦¨à¥¤ĠčĊ": 2662,
      "Ġangle-à¦ıĠfeatureĠlistĠà¦¨à¦¾Ġà¦¦à¦¿à§Łà§ĩĠà¦Ľà§ĭà¦ŁĠà¦¬à§įà¦¯à¦¬à¦¸à¦¾à¦°Ġowner-à¦ıà¦°": 2663,
      "Ġà¦¨à¦¿à§Łà§ĩĠà¦Ľà§ĭà¦ŁĠà¦¬à§įà¦¯à¦¬à¦¸à¦¾à¦°Ġowner-à¦ķà§ĩĠtargetĠà¦ķà¦°à§ĩĠ": 2664,
      "Ġangle-à¦ıĠfeatureĠlistĠà¦¨à¦¾Ġà¦¦à¦¿à§Łà§ĩĠà¦Ľà§ĭà¦ŁĠà¦¬à§įà¦¯à¦¬à¦¸à¦¾à¦°Ġowner-à¦ıà¦°Ġà¦¬à¦¾à¦¸à§įà¦¤à¦¬ĠcontextĠà¦¦à§ĩà¦ĸà¦¾à¦¨à¥¤Ġà¦ªà§įà¦°à¦¥à¦®Ġscreen/à¦ªà§įà¦°à¦¥à¦®Ġà¦ķà§Łà§ĩà¦ķĠà¦¸à§ĩà¦ķà§ĩà¦¨à§įà¦¡à§ĩĠà¦¬à¦¿à¦·à§Łà¦Łà¦¿Ġà¦ªà¦°à¦¿à¦·à§įà¦ķà¦¾à¦°Ġà¦ķà¦°à§ģà¦¨à¥¤ĠčĊ": 2665,
      ",Ġà¦²à¦ķà§įà¦·à§įà¦¯Ġà¦ªà§įà¦°à¦¥à¦®Ġsale": 2666,
      ",Ġà¦²à¦ķà§įà¦·à§įà¦¯Ġà¦ªà§įà¦°à¦¥à¦®Ġà§§à§¦à§¦Ġorder": 2667,
      ",Ġà¦²à¦ķà§įà¦·à§įà¦¯Ġà¦ªà§įà¦°à¦¥à¦®Ġsaleà¥¤Ġà¦ķà§ĢĠà¦ķà¦°à¦¬?čĊ": 2668,
      ",Ġà¦²à¦ķà§įà¦·à§įà¦¯Ġà¦ªà§įà¦°à¦¥à¦®Ġà§§à§¦à§¦Ġorderà¥¤Ġà¦ķà§ĢĠà¦ķà¦°à¦¬?čĊ": 2669,
      "Ġangle-à¦ıĠfeatureĠlistĠà¦¨à¦¾Ġà¦¦à¦¿à§Łà§ĩĠà¦®à¦«à¦¸à§įà¦¬à¦²à§ĩà¦°ĠsmartphoneĠus": 2670,
      "Ġà¦ķà§ĭà¦¨Ġstage-à¦ıà¦°ĠsignalĠà¦¸à§ĩà¦Łà¦¿Ġà¦Ĩà¦Ĺà§ĩĠà¦¨à¦¿à¦°à§įà¦§à¦¾à¦°à¦£Ġà¦ķà¦°à§ģà¦¨à¥¤": 2671,
      "Ġà¦¨à¦¿à§Łà§ĩĠà¦®à¦«à¦¸à§įà¦¬à¦²à§ĩà¦°ĠsmartphoneĠuser-à¦ķà§ĩĠtargetĠà¦ķà¦°à§ĩĠ": 2672,
      "Ġangle-à¦ıĠfeatureĠlistĠà¦¨à¦¾Ġà¦¦à¦¿à§Łà§ĩĠà¦®à¦«à¦¸à§įà¦¬à¦²à§ĩà¦°ĠsmartphoneĠuser-à¦ıà¦°Ġà¦¬à¦¾à¦¸à§įà¦¤à¦¬ĠcontextĠà¦¦à§ĩà¦ĸà¦¾à¦¨à¥¤Ġà¦ªà§įà¦°à¦¥à¦®Ġscreen/à¦ªà§įà¦°à¦¥à¦®Ġà¦ķà§Łà§ĩà¦ķĠà¦¸à§ĩà¦ķà§ĩà¦¨à§įà¦¡à§ĩĠà¦¬à¦¿à¦·à§Łà¦Łà¦¿Ġà¦ªà¦°à¦¿à¦·à§įà¦ķà¦¾à¦°Ġà¦ķà¦°à§ģà¦¨à¥¤ĠčĊ": 2673,
      "Ġangle-à¦ıĠfeatureĠlistĠà¦¨à¦¾Ġà¦¦à¦¿à§Łà§ĩĠà¦¢à¦¾à¦ķà¦¾à¦°Ġà¦¤à¦°à§ģà¦£Ġà¦ļà¦¾à¦ķà¦°à¦¿à¦ľà§Ģà¦¬à§Ģ": 2674,
      "à¦Ĺà§ģà¦²à¦¿": 2675,
      "Ġà¦¨à¦¿à§Łà§ĩĠà¦¢à¦¾à¦ķà¦¾à¦°Ġà¦¤à¦°à§ģà¦£Ġà¦ļà¦¾à¦ķà¦°à¦¿à¦ľà§Ģà¦¬à§Ģ-à¦ķà§ĩĠtargetĠà¦ķà¦°à§ĩĠ": 2676,
      "Ġangle-à¦ıĠfeatureĠlistĠà¦¨à¦¾Ġà¦¦à¦¿à§Łà§ĩĠà¦¢à¦¾à¦ķà¦¾à¦°Ġà¦¤à¦°à§ģà¦£Ġà¦ļà¦¾à¦ķà¦°à¦¿à¦ľà§Ģà¦¬à§Ģ-à¦ıà¦°Ġà¦¬à¦¾à¦¸à§įà¦¤à¦¬ĠcontextĠà¦¦à§ĩà¦ĸà¦¾à¦¨à¥¤Ġà¦ªà§įà¦°à¦¥à¦®Ġscreen/à¦ªà§įà¦°à¦¥à¦®Ġà¦ķà§Łà§ĩà¦ķĠà¦¸à§ĩà¦ķà§ĩà¦¨à§įà¦¡à§ĩĠà¦¬à¦¿à¦·à§Łà¦Łà¦¿Ġà¦ªà¦°à¦¿à¦·à§įà¦ķà¦¾à¦°Ġà¦ķà¦°à§ģà¦¨à¥¤ĠčĊ": 2677,
      "à¦¿à¦®": 2678,
      "à¦°à¦¿": 2679,
      "ket": 2680,
      "=1": 2681,
      "Ġà¦¨à¦¿à§Łà§ĩĠspecificĠhobbyĠenthusiast": 2682,
      "à§įà¦¸": 2683,
      "à§İ": 2684,
      "Ġangle-à¦ıĠfeatureĠlistĠà¦¨à¦¾Ġà¦¦à¦¿à§Łà§ĩĠspecificĠhobbyĠenthusiast": 2685,
      "Ġà¦¨à¦¿à§Łà§ĩĠspecificĠhobbyĠenthusiast-à¦ķà§ĩĠtargetĠà¦ķà¦°à§ĩĠ": 2686,
      "Ġangle-à¦ıĠfeatureĠlistĠà¦¨à¦¾Ġà¦¦à¦¿à§Łà§ĩĠspecificĠhobbyĠenthusiast-à¦ıà¦°Ġà¦¬à¦¾à¦¸à§įà¦¤à¦¬ĠcontextĠà¦¦à§ĩà¦ĸà¦¾à¦¨à¥¤Ġà¦ªà§įà¦°à¦¥à¦®Ġscreen/à¦ªà§įà¦°à¦¥à¦®Ġà¦ķà§Łà§ĩà¦ķĠà¦¸à§ĩà¦ķà§ĩà¦¨à§įà¦¡à§ĩĠà¦¬à¦¿à¦·à§Łà¦Łà¦¿Ġà¦ªà¦°à¦¿à¦·à§įà¦ķà¦¾à¦°Ġà¦ķà¦°à§ģà¦¨à¥¤ĠčĊ": 2687,
      "Ġà¦¸à§ģà¦": 2688,
      ",Ġà¦²à¦ķà§įà¦·à§įà¦¯ĠrepeatĠpurchase": 2689,
      "Ġà¦¸à¦Ĥà¦ĸà§įà¦¯à¦¾": 2690,
      ",Ġà¦²à¦ķà§įà¦·à§įà¦¯ĠrepeatĠpurchaseà¥¤Ġà¦ķà§ĢĠà¦ķà¦°à¦¬?čĊ": 2691,
      "ĠâĢĶ": 2692,
      "à¦¹": 2693,
      "Ġpage": 2694,
      "Ġà¦¬à¦¾à¦Ĥ": 2695,
      "Ġpage-à¦ı": 2696,
      "à¦Ĩà¦®à¦¿Ġà§¨à§¦à§¨à§ŃĠà¦¸à¦¾à¦²à§ĩĠà¦": 2697,
      "x+": 2698,
      "Ġà¦¬à§įà¦¯à¦¬à¦¸à¦¾à¦°Ġown": 2699,
      "à§ģà¦ķà§įà¦¤": 2700,
      "à§ģà¦·": 2701,
      "Ġà¦¨à¦¿à¦°à§įà¦£": 2702,
      "Ġà¦ĩ": 2703,
      "à¦¨à¦¾": 2704,
      "Ġà¦¸à§Ĥ": 2705,
      "Ġà¦ķà§Ģ?čĊ": 2706,
      "Ġà¦īà¦ª": 2707,
      "à¦²à¦¾à¦¦à§ĩà¦¶": 2708,
      "à¦¿à¥¤čĊ": 2709,
      "Ġà¦¯à¦¾": 2710,
      "à¦ªà§įà¦°à¦¶à§įà¦¨:Ġ": 2711,
      "Ġà¦ıà¦ķ": 2712,
      "à§ģà¦Ł": 2713,
      "à§ĩĠà¦¯": 2714,
      "à§ĩà¦¸": 2715,
      "à§ĥà¦¤": 2716,
      "Ġà¦ľà§Ģà¦¬": 2717,
      "Ġà¦¡": 2718,
      "Ġà¦¨à¦¿à¦°à§įà¦£à§Ł": 2719,
      "ĠrateĠà¦¦à§ĩà¦ĸà¦Ľà¦¿à¥¤Ġà¦ķà§Ģà¦Ńà¦¾à¦¬à§ĩĠdiagnosisĠà¦ķà¦°à¦¬?čĊ": 2720,
      "ÃĹ": 2721,
      "=2": 2722,
      "à§Ģà¦ķ": 2723,
      ",Ġà¦¬": 2724,
      "à¦¡à¦¼": 2725,
      "·à§įà¦Ł": 2726,
      "à§ĩà¦°Ġà¦ľà¦¨à§įà¦¯": 2727,
      "Ġà¦«": 2728,
      "Ġà§§à§¦,à§¦à§¦à§¦Ġà¦¹à¦²à§ĩĠtest-à¦ıà¦°Ġà¦Ĩà¦Ĺà§ĩĠmaximumĠacceptableĠCACĠà¦ıà¦¬à¦ĤĠstop/scaleĠruleĠà¦²à¦¿à¦ĸà§ĩĠà¦°à¦¾à¦ĸà§ģà¦¨à¥¤Ġà¦«à¦²Ġà¦Ńà¦¾à¦²à§ĭĠà¦¹à¦²à§ĩĠà¦§à§Ģà¦°à§ĩĠscaleĠà¦ķà¦°à§ģà¦¨;Ġà¦ĸà¦¾à¦°à¦¾à¦ªĠà¦¹à¦²à§ĩĠcreative,Ġoffer,ĠaudienceĠà¦¬à¦¾Ġfunnel-à¦ıà¦°Ġà¦ķà§ĭà¦¨ĠlayerĠà¦¬à¦¦à¦²à¦¾à¦¤à§ĩĠà¦¹à¦¬à§ĩĠà¦¤à¦¾ĠevidenceĠà¦¦à¦¿à§Łà§ĩĠà¦¨à¦¿à¦°à§įà¦§à¦¾à¦°à¦£Ġà¦ķà¦°à§ģà¦¨à¥¤čĊ": 2729,
      "BudgetĠà§§à§¦,à§¦à§¦à§¦Ġà¦¹à¦²à§ĩĠtest-à¦ıà¦°Ġà¦Ĩà¦Ĺà§ĩĠmaximumĠacceptableĠCACĠà¦ıà¦¬à¦ĤĠstop/scaleĠruleĠà¦²à¦¿à¦ĸà§ĩĠà¦°à¦¾à¦ĸà§ģà¦¨à¥¤Ġà¦«à¦²Ġà¦Ńà¦¾à¦²à§ĭĠà¦¹à¦²à§ĩĠà¦§à§Ģà¦°à§ĩĠscaleĠà¦ķà¦°à§ģà¦¨;Ġà¦ĸà¦¾à¦°à¦¾à¦ªĠà¦¹à¦²à§ĩĠcreative,Ġoffer,ĠaudienceĠà¦¬à¦¾Ġfunnel-à¦ıà¦°Ġà¦ķà§ĭà¦¨ĠlayerĠà¦¬à¦¦à¦²à¦¾à¦¤à§ĩĠà¦¹à¦¬à§ĩĠà¦¤à¦¾ĠevidenceĠà¦¦à¦¿à§Łà§ĩĠà¦¨à¦¿à¦°à§įà¦§à¦¾à¦°à¦£Ġà¦ķà¦°à§ģà¦¨à¥¤čĊ": 2730,
      "Ġ(": 2731,
      "à¦¿Ġà¦ķà¦°": 2732,
      "à§¦,à§¦à§¦à§¦Ġà¦Łà¦¾à¦ķà¦¾à¦°Ġà¦ªà§ģà¦°à§ĭà¦Łà¦¾Ġinventory-à¦¤à§ĩĠà¦Ĩà¦Łà¦ķà§ĩĠà¦¨à¦¾Ġà¦°à§ĩà¦ĸà§ĩĠà¦Ľà§ĭà¦ŁĠtestĠà¦ķà¦°à§ģà¦¨à¥¤Ġ": 2733,
      "Ġà¦®à¦§à§įà¦¯à¦®Ġà¦¬à¦¾à¦ľà§ĩà¦Łà§ĩà¦°ĠonlineĠshopp": 2734,
      "Â²+": 2735,
      "à§Ģà¦¯à¦¼": 2736,
      "Ġà¦¬à¦¿à¦¶à§įà¦¬à¦¬à¦¿à¦¦à§įà¦¯à¦¾à¦²à§Łà§ĩà¦°Ġà¦¶à¦¿à¦ķà§įà¦·à¦¾à¦°à§įà¦¥à§Ģ": 2737,
      "BudgetĠà§«,à§¦à§¦à§¦": 2738,
      "BudgetĠà§«,à§¦à§¦à§¦Ġà¦¹à¦²à§ĩĠtest-à¦ıà¦°Ġà¦Ĩà¦Ĺà§ĩĠmaximumĠacceptableĠCACĠà¦ıà¦¬à¦ĤĠstop/scaleĠruleĠà¦²à¦¿à¦ĸà§ĩĠà¦°à¦¾à¦ĸà§ģà¦¨à¥¤Ġà¦«à¦²Ġà¦Ńà¦¾à¦²à§ĭĠà¦¹à¦²à§ĩĠà¦§à§Ģà¦°à§ĩĠscaleĠà¦ķà¦°à§ģà¦¨;Ġà¦ĸà¦¾à¦°à¦¾à¦ªĠà¦¹à¦²à§ĩĠcreative,Ġoffer,ĠaudienceĠà¦¬à¦¾Ġfunnel-à¦ıà¦°Ġà¦ķà§ĭà¦¨ĠlayerĠà¦¬à¦¦à¦²à¦¾à¦¤à§ĩĠà¦¹à¦¬à§ĩĠà¦¤à¦¾ĠevidenceĠà¦¦à¦¿à§Łà§ĩĠà¦¨à¦¿à¦°à§įà¦§à¦¾à¦°à¦£Ġà¦ķà¦°à§ģà¦¨à¥¤čĊ": 2739,
      "erĠà¦ıà¦ķà¦ľà¦¨Ġbuyer": 2740,
      "à§ĩà¦°Ġà¦®": 2741,
      "Ġà¦¨à¦¿à¦°à§įà¦£à§ŁĠà¦ķà¦°à¥¤čĊ": 2742,
      "à§ĩ,": 2743,
      "arch": 2744,
      "0.": 2745,
      "Ġà¦¨à§Ģà¦²": 2746,
      "à¦Ĩà¦ªà¦¨à¦¿Ġà¦¬à¦²à¦¤à§ĩĠà¦ªà¦¾à¦°à§ĩà¦¨:ĠâĢľà¦¬à§ģà¦Ŀà¦¤à§ĩĠà¦ªà¦¾à¦°à¦Ľà¦¿à¥¤Ġà¦Ĩà¦ªà¦¨à¦¾à¦°Ġconcernà¦Łà¦¾Ġà¦ķà¦¿Ġà¦®à§Ĥà¦²à¦¤Ġà¦¦à¦¾à¦®,Ġà¦¨à¦¾à¦ķà¦¿Ġquality/valueĠà¦¨à¦¿à§Łà§ĩ?âĢĿĠà¦ıà¦°à¦ªà¦°Ġ": 2747,
      "ffic": 2748,
      "Ġà¦¨à¦¤à§ģà¦¨Ġonline": 2749,
      "Ġà¦Ĩà¦®à¦¾à¦¦à§ĩà¦°": 2750,
      "ĠbusyĠprofessional": 2751,
      "à¦¿à¦¬": 2752,
      "Ġà¦Ĩà¦ªà¦¨": 2753,
      "ĠtestĠà¦ķà¦°à§ģà¦¨à¥¤": 2754,
      "Ġà¦Ľ": 2755,
      "à¦¸à¦¬": 2756,
      "ĠspecificĠhobbyĠenthusiast": 2757,
      "tributionĠmargin": 2758,
      "Ġà§©à§¦,à§¦à§¦à§¦Ġà¦¹à¦²à§ĩĠtest-à¦ıà¦°Ġà¦Ĩà¦Ĺà§ĩĠmaximumĠacceptableĠCACĠà¦ıà¦¬à¦ĤĠstop/scaleĠruleĠà¦²à¦¿à¦ĸà§ĩĠà¦°à¦¾à¦ĸà§ģà¦¨à¥¤Ġà¦«à¦²Ġà¦Ńà¦¾à¦²à§ĭĠà¦¹à¦²à§ĩĠà¦§à§Ģà¦°à§ĩĠscaleĠà¦ķà¦°à§ģà¦¨;Ġà¦ĸà¦¾à¦°à¦¾à¦ªĠà¦¹à¦²à§ĩĠcreative,Ġoffer,ĠaudienceĠà¦¬à¦¾Ġfunnel-à¦ıà¦°Ġà¦ķà§ĭà¦¨ĠlayerĠà¦¬à¦¦à¦²à¦¾à¦¤à§ĩĠà¦¹à¦¬à§ĩĠà¦¤à¦¾ĠevidenceĠà¦¦à¦¿à§Łà§ĩĠà¦¨à¦¿à¦°à§įà¦§à¦¾à¦°à¦£Ġà¦ķà¦°à§ģà¦¨à¥¤čĊ": 2759,
      "BudgetĠà§©à§¦,à§¦à§¦à§¦Ġà¦¹à¦²à§ĩĠtest-à¦ıà¦°Ġà¦Ĩà¦Ĺà§ĩĠmaximumĠacceptableĠCACĠà¦ıà¦¬à¦ĤĠstop/scaleĠruleĠà¦²à¦¿à¦ĸà§ĩĠà¦°à¦¾à¦ĸà§ģà¦¨à¥¤Ġà¦«à¦²Ġà¦Ńà¦¾à¦²à§ĭĠà¦¹à¦²à§ĩĠà¦§à§Ģà¦°à§ĩĠscaleĠà¦ķà¦°à§ģà¦¨;Ġà¦ĸà¦¾à¦°à¦¾à¦ªĠà¦¹à¦²à§ĩĠcreative,Ġoffer,ĠaudienceĠà¦¬à¦¾Ġfunnel-à¦ıà¦°Ġà¦ķà§ĭà¦¨ĠlayerĠà¦¬à¦¦à¦²à¦¾à¦¤à§ĩĠà¦¹à¦¬à§ĩĠà¦¤à¦¾ĠevidenceĠà¦¦à¦¿à§Łà§ĩĠà¦¨à¦¿à¦°à§įà¦§à¦¾à¦°à¦£Ġà¦ķà¦°à§ģà¦¨à¥¤čĊ": 2760,
      "contributionĠmargin": 2761,
      "Ġà¦¦à¦ķà§įà¦·": 2762,
      "Ġà¦¸à§įà¦¬": 2763,
      "Ġà¦ķà¦°à§ģà¦¨à¥¤čĊ": 2764,
      "à§ĩĠà¦ħ": 2765,
      "à§ĩĠà¦¨à¦¤à§ģà¦¨Ġonline": 2766,
      "conversionĠrate": 2767,
      "Ġpers": 2768,
      "Ġà¦¨à§Ģà¦²Ġà¦¨à§Ģà¦²": 2769,
      "à§ĭà¦®": 2770,
      "ROASĠà¦Ńà¦¾à¦²à§ĭĠà¦ķà¦¿à¦¨à§įà¦¤à§ģ": 2771,
      "ROASĠà¦Ńà¦¾à¦²à§ĭĠà¦ķà¦¿à¦¨à§įà¦¤à§ģĠprofit": 2772,
      "Ġà¦Ľà§ĭà¦ŁĠà¦ªà¦°à¦¿à¦¬à¦¾à¦°à§ĩà¦°": 2773,
      "Ġà¦ķà¦®à¥¤Ġà¦Ĩà¦®à¦¿Ġ": 2774,
      "à§ģĠqualifiedĠlead": 2775,
      "à§ĩĠà¦¬à¦¿à¦ķà§įà¦°": 2776,
      "engagementĠà¦Ĩà¦Ľà§ĩĠà¦ķà¦¿à¦¨à§įà¦¤": 2777,
      "BudgetĠà§¨": 2778,
      "à§ģĠqualifiedĠleadĠà¦¨à§ĩà¦ĩ": 2779,
      "engagementĠà¦Ĩà¦Ľà§ĩĠà¦ķà¦¿à¦¨à§įà¦¤à§ģĠqualifiedĠleadĠà¦¨à§ĩà¦ĩ": 2780,
      "BudgetĠà§¨à§¦,à§¦à§¦à§¦Ġà¦¹à¦²à§ĩĠtest-à¦ıà¦°Ġà¦Ĩà¦Ĺà§ĩĠmaximumĠacceptableĠCACĠà¦ıà¦¬à¦ĤĠstop/scaleĠruleĠà¦²à¦¿à¦ĸà§ĩĠà¦°à¦¾à¦ĸà§ģà¦¨à¥¤Ġà¦«à¦²Ġà¦Ńà¦¾à¦²à§ĭĠà¦¹à¦²à§ĩĠà¦§à§Ģà¦°à§ĩĠscaleĠà¦ķà¦°à§ģà¦¨;Ġà¦ĸà¦¾à¦°à¦¾à¦ªĠà¦¹à¦²à§ĩĠcreative,Ġoffer,ĠaudienceĠà¦¬à¦¾Ġfunnel-à¦ıà¦°Ġà¦ķà§ĭà¦¨ĠlayerĠà¦¬à¦¦à¦²à¦¾à¦¤à§ĩĠà¦¹à¦¬à§ĩĠà¦¤à¦¾ĠevidenceĠà¦¦à¦¿à§Łà§ĩĠà¦¨à¦¿à¦°à§įà¦§à¦¾à¦°à¦£Ġà¦ķà¦°à§ģà¦¨à¥¤čĊ": 2781,
      "Ġà¦ķà¦¤": 2782,
      "Ġà¦®à¦«à¦¸à§įà¦¬à¦²à§ĩà¦°ĠsmartphoneĠus": 2783,
      "ĠcancellationĠà¦¬à§ĩà¦¶à¦¿": 2784,
      "CODĠcancellationĠà¦¬à§ĩà¦¶à¦¿": 2785,
      ",à§¦à§¦,à§¦à§¦à§¦": 2786,
      "Ġà¦¬à¦¾à¦Ĥà¦²à¦¾à¦¦à§ĩà¦¶": 2787,
      "Ġà¦®à¦§à§įà¦¯": 2788,
      "à¦°à¦¾": 2789,
      "à§įà¦®": 2790,
      "à§įà¦¯à¦¾à¦": 2791,
      "arket": 2792,
      "Ġà¦ķà¦°à§ĩà¦Ľ": 2793,
      "à§ĩà¦¯à¦¼": 2794,
      "Ġtra": 2795,
      "Ġcheck": 2796,
      "Ġà¦¹à¦ļà§įà¦Ľà§ĩĠà¦¨à¦¾": 2797,
      "Ġà¦¢à¦¾à¦ķà¦¾à¦°Ġà¦¤à¦°à§ģà¦£Ġà¦ļà¦¾à¦ķà¦°à¦¿à¦ľà§Ģà¦¬à§Ģ": 2798,
      "ĠclickĠà¦¹à¦ļà§įà¦Ľ": 2799,
      "Ġà¦Ľà§ĭà¦ŁĠà¦¬à§įà¦¯à¦¬à¦¸à¦¾à¦°Ġown": 2800,
      "à§ĩĠà¦ķà¦¿à¦¨à§įà¦¤à§ģĠorderĠà¦¹à¦ļà§įà¦Ľà§ĩĠà¦¨à¦¾": 2801,
      "ĠclickĠà¦¹à¦ļà§įà¦Ľà§ĩĠà¦ķà¦¿à¦¨à§įà¦¤à§ģĠorderĠà¦¹à¦ļà§įà¦Ľà§ĩĠà¦¨à¦¾": 2802,
      "à¦¿à¦Ĥ": 2803,
      "Ġà¦®à¦¾à¦¨à§ģà¦·": 2804,
      "¯à§ĭà¦Ĺ": 2805,
      "market": 2806,
      "Ġà¦Ĩà¦Ľà§ĩĠà¦ķà¦¿à¦¨à§įà¦¤à§ģ": 2807,
      "à§ĩĠà¦¬à¦¿à¦ķà§įà¦°à¦¿Ġà¦ķà¦°": 2808,
      "à¦ĥ": 2809,
      "à§ĩà§ľ": 2810,
      "Ġà¦¬à§ĩà§ľ": 2811,
      "Ġpet-careĠproducts": 2812,
      "à¦¤à¦¿": 2813,
      "Ġà¦ķà¦®Ġà¦¦à¦¾à¦®": 2814,
      "Ġà¦¤à§Ī": 2815,
      "ĠproductĠpage-à¦ı": 2816,
      "à§ĩĠcreative/message,Ġaudience,Ġoffer,Ġprice,Ġtrust,ĠproductĠinformation,ĠresponseĠspeed,ĠdeliveryĠà¦ıà¦¬à¦ĤĠreturn/cancellationâĢĶà¦ªà§įà¦°à¦¤à¦¿à¦Łà¦¿Ġà¦¸à¦®à§įà¦Ńà¦¾à¦¬à§įà¦¯ĠbottleneckĠà¦Ĩà¦²à¦¾à¦¦à¦¾Ġà¦ķà¦°à§ģà¦¨à¥¤ĠčĊ": 2817,
      "ĠcompetitorĠà¦ķà¦®Ġà¦¦à¦¾à¦®": 2818,
      "à§ĩĠà¦¹à¦²à§ĩĠcreative/message,Ġaudience,Ġoffer,Ġprice,Ġtrust,ĠproductĠinformation,ĠresponseĠspeed,ĠdeliveryĠà¦ıà¦¬à¦ĤĠreturn/cancellationâĢĶà¦ªà§įà¦°à¦¤à¦¿à¦Łà¦¿Ġà¦¸à¦®à§įà¦Ńà¦¾à¦¬à§įà¦¯ĠbottleneckĠà¦Ĩà¦²à¦¾à¦¦à¦¾Ġà¦ķà¦°à§ģà¦¨à¥¤ĠčĊ": 2819,
      "CPAĠà¦¬à§ĩà§ľ": 2820,
      "fficĠà¦Ĩà¦Ľà§ĩĠà¦ķà¦¿à¦¨à§įà¦¤à§ģ": 2821,
      "ĠtrafficĠà¦Ĩà¦Ľà§ĩĠà¦ķà¦¿à¦¨à§įà¦¤à§ģ": 2822,
      "Ġcheckout": 2823,
      "à§ĩĠà¦¬à¦¿à¦ķà§įà¦°à¦¿Ġà¦ķà¦°à¦Ľ": 2824,
      "ĠproductĠpage-à¦ıĠtrafficĠà¦Ĩà¦Ľà§ĩĠà¦ķà¦¿à¦¨à§įà¦¤à§ģ": 2825,
      "ĠcompetitorĠà¦ķà¦®Ġà¦¦à¦¾à¦®à§ĩĠà¦¬à¦¿à¦ķà§įà¦°à¦¿Ġà¦ķà¦°à¦Ľ": 2826,
      "CPAĠà¦¬à§ĩà§ľà§ĩĠà¦Ĺ": 2827,
      "ĠproductĠpage-à¦ıĠtrafficĠà¦Ĩà¦Ľà§ĩĠà¦ķà¦¿à¦¨à§įà¦¤à§ģĠcheckout": 2828,
      "Ġà¦¨à¦¿à§Łà§ĩĠà¦¬à§įà¦¯à¦¬à¦¸à¦¾Ġà¦¶à§ģà¦°à§ģĠà¦ķà¦°à¦¤à§ĩĠà¦ļà¦¾à¦ĩà¥¤Ġà¦¬à¦¾à¦ľà§ĩà¦ŁĠà§§": 2829,
      "à§įà¦°à¦¿à¦¯à¦¼": 2830,
      "Ġcar": 2831,
      "à¦¾à¦§à¦¾à¦¨": 2832,
      "ĠcarĠaccessories": 2833,
      "à§ĩĠà¦®": 2834,
      "Ġà¦¨à¦¿à¦ľ": 2835,
      "à¦ĩà¦¨": 2836,
      ")Â²": 2837,
      "::::::::": 2838,
      "Ġà¦Ńà¦¾à¦·à¦¾": 2839,
      "à¦Ĥ": 2840,
      "Ġà¦¸à¦®à¦¾à¦§à¦¾à¦¨": 2841,
      "à§įà¦°à¦¯à¦¼": 2842,
      "Ġà¦¹à§ŁĠà¦¨à¦¾": 2843,
      ":čĊ": 2844,
      "Ġà¦¦à§ĩà¦¶": 2845,
      "à§ĩĠà¦ıà¦¬à¦Ĥ": 2846,
      "ĠbudgetĠà¦¬à§įà¦¯à¦¬à¦¹à¦¾à¦°Ġà¦ķà¦°à¦Ľà¦¿à¥¤": 2847,
      "à§ĭà¦°": 2848,
      "à§¨à§¦à§¨à§ŃĠà¦¸à¦¾à¦²à§ĩ": 2849,
      "à§įà¦ķ": 2850,
      "Ġà¦¸à¦¾à¦¥": 2851,
      "Ġà¦ķà§ĭ": 2852,
      "Ġà¦¬à§ģà¦Ŀà¦¤à§ĩĠà¦ªà¦¾à¦°à¦Ľà¦¿": 2853,
      "Ġniche": 2854,
      "Ġà¦¬à¦¿à¦": 2855,
      "à¦¿à¦£": 2856,
      "Ġà¦¨à§ĩà¦¬Ġà¦¬à§ģà¦Ŀà¦¤à§ĩĠà¦ªà¦¾à¦°à¦Ľà¦¿": 2857,
      "Ġà¦Ĩà¦¸à§ĩĠà¦ķà¦¿à¦¨à§įà¦¤à§ģĠorder": 2858,
      "ĠnicheĠà¦¨à§ĩà¦¬Ġà¦¬à§ģà¦Ŀà¦¤à§ĩĠà¦ªà¦¾à¦°à¦Ľà¦¿": 2859,
      "Ġà¦Ĩà¦¸à§ĩĠà¦ķà¦¿à¦¨à§įà¦¤à§ģĠorderĠà¦¹à§ŁĠà¦¨à¦¾": 2860,
      "ĠnicheĠà¦¨à§ĩà¦¬Ġà¦¬à§ģà¦Ŀà¦¤à§ĩĠà¦ªà¦¾à¦°à¦Ľà¦¿Ġà¦¨à¦¾": 2861,
      "âģ": 2862,
      "à¦ıà¦ı": 2863,
      "à¦¾à¦°à¦¾": 2864,
      "Ġà¦¤à§Īà¦°à¦¿": 2865,
      "10": 2866,
      "Ġpersonal-careĠproducts": 2867,
      ",Ġà¦ª": 2868,
      "à§ĩà¥¤čĊ": 2869,
      "Ġà¦¦à§ĩà¦ĸà§ĩ": 2870,
      "ĠsaleĠà¦ķà¦°à¦¤à§ĩĠà¦ļà¦¾à¦ĩà¥¤Ġà¦ķà§Ģà¦Ńà¦¾à¦¬à§ĩĠbusinessĠdecisionĠà¦¨à§ĩà¦¬?čĊ": 2871,
      "Ġà§§à§¦,à§¦à§¦à§¦Ġà¦Łà¦¾à¦ķà¦¾ĠbudgetĠà¦¬à§įà¦¯à¦¬à¦¹à¦¾à¦°Ġà¦ķà¦°à¦Ľà¦¿à¥¤Ġ": 2872,
      "Ġà¦ªà§įà¦°à¦¥à¦®Ġsale-à¦ıà¦°Ġà¦¸à¦Ļà§įà¦Ĺà§ĩĠdirectlyĠà¦¸à¦®à§įà¦ªà¦°à§įà¦ķà¦¿à¦¤ĠdownstreamĠmetric-à¦ķà§ĩĠpriorityĠà¦¦à¦¿à¦¨à¥¤ĠčĊ": 2873,
      "ROASĠà¦Ńà¦¾à¦²à§ĭĠà¦¹à¦²à§ĩà¦ĵĠcontributionĠprofitĠnegativeĠà¦¹à¦¤à§ĩĠà¦ªà¦¾à¦°à§ĩ;Ġà¦Ĩà¦¬à¦¾à¦°ĠCTRĠà¦ķà¦®Ġà¦¹à¦²à§ĩà¦ĵĠqualifiedĠbuyer-à¦ıà¦°ĠeconomicsĠà¦Ńà¦¾à¦²à§ĭĠà¦¹à¦¤à§ĩĠà¦ªà¦¾à¦°à§ĩà¥¤Ġà¦¤à¦¾à¦ĩĠà¦ªà§įà¦°à¦¥à¦®Ġsale-à¦ıà¦°Ġà¦¸à¦Ļà§įà¦Ĺà§ĩĠdirectlyĠà¦¸à¦®à§įà¦ªà¦°à§įà¦ķà¦¿à¦¤ĠdownstreamĠmetric-à¦ķà§ĩĠpriorityĠà¦¦à¦¿à¦¨à¥¤ĠčĊ": 2874,
      "Ġà¦¦à§ĩà¦ĸà§ĩĠà¦ªà§įà¦°à¦¥à¦®ĠsaleĠà¦ķà¦°à¦¤à§ĩĠà¦ļà¦¾à¦ĩà¥¤Ġà¦ķà§Ģà¦Ńà¦¾à¦¬à§ĩĠbusinessĠdecisionĠà¦¨à§ĩà¦¬?čĊ": 2875,
      "à¦ķà¦¾à¦¶": 2876,
      "ĠprofitableĠacquisitionĠà¦ķà¦°à¦¤à§ĩĠà¦ļà¦¾à¦ĩà¥¤Ġà¦ķà§Ģà¦Ńà¦¾à¦¬à§ĩĠbusinessĠdecisionĠà¦¨à§ĩà¦¬?čĊ": 2877,
      "ĠprofitableĠacquisition-à¦ıà¦°Ġà¦¸à¦Ļà§įà¦Ĺà§ĩĠdirectlyĠà¦¸à¦®à§įà¦ªà¦°à§įà¦ķà¦¿à¦¤ĠdownstreamĠmetric-à¦ķà§ĩĠpriorityĠà¦¦à¦¿à¦¨à¥¤ĠčĊ": 2878,
      "ROASĠà¦Ńà¦¾à¦²à§ĭĠà¦¹à¦²à§ĩà¦ĵĠcontributionĠprofitĠnegativeĠà¦¹à¦¤à§ĩĠà¦ªà¦¾à¦°à§ĩ;Ġà¦Ĩà¦¬à¦¾à¦°ĠCTRĠà¦ķà¦®Ġà¦¹à¦²à§ĩà¦ĵĠqualifiedĠbuyer-à¦ıà¦°ĠeconomicsĠà¦Ńà¦¾à¦²à§ĭĠà¦¹à¦¤à§ĩĠà¦ªà¦¾à¦°à§ĩà¥¤Ġà¦¤à¦¾à¦ĩĠprofitableĠacquisition-à¦ıà¦°Ġà¦¸à¦Ļà§įà¦Ĺà§ĩĠdirectlyĠà¦¸à¦®à§įà¦ªà¦°à§įà¦ķà¦¿à¦¤ĠdownstreamĠmetric-à¦ķà§ĩĠpriorityĠà¦¦à¦¿à¦¨à¥¤ĠčĊ": 2879,
      "Ġà¦¦à§ĩà¦ĸà§ĩĠprofitableĠacquisitionĠà¦ķà¦°à¦¤à§ĩĠà¦ļà¦¾à¦ĩà¥¤Ġà¦ķà§Ģà¦Ńà¦¾à¦¬à§ĩĠbusinessĠdecisionĠà¦¨à§ĩà¦¬?čĊ": 2880,
      "à§ĥà¦": 2881,
      "(x": 2882,
      "Ġà§«,à§¦à§¦à§¦Ġà¦Łà¦¾à¦ķà¦¾ĠbudgetĠà¦¬à§įà¦¯à¦¬à¦¹à¦¾à¦°Ġà¦ķà¦°à¦Ľà¦¿à¥¤Ġ": 2883,
      "Ġà¦¥à¦¾à¦ķ": 2884,
      "================": 2885,
      "à¦¬à¦¸": 2886,
      "à¥¤Ġà¦ıà¦Łà¦¿": 2887,
      "à¦¨à§įà¦¯": 2888,
      "Ġà§§à§¦à§¦ĠorderĠà¦ķà¦°à¦¤à§ĩĠà¦ļà¦¾à¦ĩà¥¤Ġà¦ķà§Ģà¦Ńà¦¾à¦¬à§ĩĠbusinessĠdecisionĠà¦¨à§ĩà¦¬?čĊ": 2889,
      "Ġà¦ªà§įà¦°à¦¥à¦®Ġà§§à§¦à§¦Ġorder-à¦ıà¦°Ġà¦¸à¦Ļà§įà¦Ĺà§ĩĠdirectlyĠà¦¸à¦®à§įà¦ªà¦°à§įà¦ķà¦¿à¦¤ĠdownstreamĠmetric-à¦ķà§ĩĠpriorityĠà¦¦à¦¿à¦¨à¥¤ĠčĊ": 2890,
      "ROASĠà¦Ńà¦¾à¦²à§ĭĠà¦¹à¦²à§ĩà¦ĵĠcontributionĠprofitĠnegativeĠà¦¹à¦¤à§ĩĠà¦ªà¦¾à¦°à§ĩ;Ġà¦Ĩà¦¬à¦¾à¦°ĠCTRĠà¦ķà¦®Ġà¦¹à¦²à§ĩà¦ĵĠqualifiedĠbuyer-à¦ıà¦°ĠeconomicsĠà¦Ńà¦¾à¦²à§ĭĠà¦¹à¦¤à§ĩĠà¦ªà¦¾à¦°à§ĩà¥¤Ġà¦¤à¦¾à¦ĩĠà¦ªà§įà¦°à¦¥à¦®Ġà§§à§¦à§¦Ġorder-à¦ıà¦°Ġà¦¸à¦Ļà§įà¦Ĺà§ĩĠdirectlyĠà¦¸à¦®à§įà¦ªà¦°à§įà¦ķà¦¿à¦¤ĠdownstreamĠmetric-à¦ķà§ĩĠpriorityĠà¦¦à¦¿à¦¨à¥¤ĠčĊ": 2891,
      "Ġà¦¦à§ĩà¦ĸà§ĩĠà¦ªà§įà¦°à¦¥à¦®Ġà§§à§¦à§¦ĠorderĠà¦ķà¦°à¦¤à§ĩĠà¦ļà¦¾à¦ĩà¥¤Ġà¦ķà§Ģà¦Ńà¦¾à¦¬à§ĩĠbusinessĠdecisionĠà¦¨à§ĩà¦¬?čĊ": 2892,
      "logâĤ": 2893,
      "Â³": 2894,
      "à§ĩ?čĊ": 2895,
      "return": 2896,
      "ĠrepeatĠpurchase-à¦ıà¦°Ġà¦¸à¦Ļà§įà¦Ĺà§ĩĠdirectlyĠà¦¸à¦®à§įà¦ªà¦°à§įà¦ķà¦¿à¦¤ĠdownstreamĠmetric-à¦ķà§ĩĠpriorityĠà¦¦à¦¿à¦¨à¥¤ĠčĊ": 2897,
      "repeatĠpurchaseĠà¦ķà¦°à¦¤à§ĩĠà¦ļà¦¾à¦ĩà¥¤Ġà¦ķà§Ģà¦Ńà¦¾à¦¬à§ĩĠbusinessĠdecisionĠà¦¨à§ĩà¦¬?čĊ": 2898,
      "ROASĠà¦Ńà¦¾à¦²à§ĭĠà¦¹à¦²à§ĩà¦ĵĠcontributionĠprofitĠnegativeĠà¦¹à¦¤à§ĩĠà¦ªà¦¾à¦°à§ĩ;Ġà¦Ĩà¦¬à¦¾à¦°ĠCTRĠà¦ķà¦®Ġà¦¹à¦²à§ĩà¦ĵĠqualifiedĠbuyer-à¦ıà¦°ĠeconomicsĠà¦Ńà¦¾à¦²à§ĭĠà¦¹à¦¤à§ĩĠà¦ªà¦¾à¦°à§ĩà¥¤Ġà¦¤à¦¾à¦ĩĠrepeatĠpurchase-à¦ıà¦°Ġà¦¸à¦Ļà§įà¦Ĺà§ĩĠdirectlyĠà¦¸à¦®à§įà¦ªà¦°à§įà¦ķà¦¿à¦¤ĠdownstreamĠmetric-à¦ķà§ĩĠpriorityĠà¦¦à¦¿à¦¨à¥¤ĠčĊ": 2899,
      "Ġà¦¦à§ĩà¦ĸà§ĩĠrepeatĠpurchaseĠà¦ķà¦°à¦¤à§ĩĠà¦ļà¦¾à¦ĩà¥¤Ġà¦ķà§Ģà¦Ńà¦¾à¦¬à§ĩĠbusinessĠdecisionĠà¦¨à§ĩà¦¬?čĊ": 2900,
      "à§Ģà¦®": 2901,
      "à§Ģà¦ķà¦°à¦£": 2902,
      "à§ĩĠà¦ªà§įà¦°": 2903,
      "leadĠgenerationĠà¦ķà¦°à¦¤à§ĩĠà¦ļà¦¾à¦ĩà¥¤Ġà¦ķà§Ģà¦Ńà¦¾à¦¬à§ĩĠbusinessĠdecisionĠà¦¨à§ĩà¦¬?čĊ": 2904,
      "ĠleadĠgeneration-à¦ıà¦°Ġà¦¸à¦Ļà§įà¦Ĺà§ĩĠdirectlyĠà¦¸à¦®à§įà¦ªà¦°à§įà¦ķà¦¿à¦¤ĠdownstreamĠmetric-à¦ķà§ĩĠpriorityĠà¦¦à¦¿à¦¨à¥¤ĠčĊ": 2905,
      "ROASĠà¦Ńà¦¾à¦²à§ĭĠà¦¹à¦²à§ĩà¦ĵĠcontributionĠprofitĠnegativeĠà¦¹à¦¤à§ĩĠà¦ªà¦¾à¦°à§ĩ;Ġà¦Ĩà¦¬à¦¾à¦°ĠCTRĠà¦ķà¦®Ġà¦¹à¦²à§ĩà¦ĵĠqualifiedĠbuyer-à¦ıà¦°ĠeconomicsĠà¦Ńà¦¾à¦²à§ĭĠà¦¹à¦¤à§ĩĠà¦ªà¦¾à¦°à§ĩà¥¤Ġà¦¤à¦¾à¦ĩĠleadĠgeneration-à¦ıà¦°Ġà¦¸à¦Ļà§įà¦Ĺà§ĩĠdirectlyĠà¦¸à¦®à§įà¦ªà¦°à§įà¦ķà¦¿à¦¤ĠdownstreamĠmetric-à¦ķà§ĩĠpriorityĠà¦¦à¦¿à¦¨à¥¤ĠčĊ": 2906,
      "Ġà¦¦à§ĩà¦ĸà§ĩĠleadĠgenerationĠà¦ķà¦°à¦¤à§ĩĠà¦ļà¦¾à¦ĩà¥¤Ġà¦ķà§Ģà¦Ńà¦¾à¦¬à§ĩĠbusinessĠdecisionĠà¦¨à§ĩà¦¬?čĊ": 2907,
      "enc": 2908,
      "à¦ªà§ģà¦Ł": 2909,
      "à¦¾à¦ĵ": 2910,
      "à¦Ľà¦¨à§įà¦¦": 2911,
      "Ġà§¨à§¦,à§¦à§¦à§¦Ġà¦Łà¦¾à¦ķà¦¾ĠbudgetĠà¦¬à§įà¦¯à¦¬à¦¹à¦¾à¦°Ġà¦ķà¦°à¦Ľà¦¿à¥¤Ġ": 2912,
      "erĠcombination-à¦ıà¦°Ġà¦ķà§įà¦·à§ĩà¦¤à§įà¦°à§ĩĠà¦Ĩà¦Ĺà§ĩĠbuyer-à¦ıà¦°Ġà¦¨à¦¿à¦°à§įà¦¦à¦¿à¦·à§įà¦ŁĠproblem,ĠbuyingĠoccasionĠà¦ıà¦¬à¦ĤĠwillingnessĠtoĠpayĠà¦¯à¦¾à¦ļà¦¾à¦ĩĠà¦ķà¦°à§ģà¦¨à¥¤ĠčĊ": 2913,
      "à¦ªà§įà¦°à¦¶à§įà¦¨:Ġà¦ħà¦§à§įà¦¯à¦¾à§ŁĠà§§": 2914,
      "à§ĩĠà¦¦": 2915,
      "Ġà¦¦à¦ķà§įà¦·à¦¿à¦£": 2916,
      "à¦¾à¦°Ġà¦ľà¦¨à§įà¦¯": 2917,
      "ĠxĠxĠxĠxĠxĠxĠxĠx": 2918,
      "ency": 2919,
      ")=": 2920,
      "Ġà¦ķà¦¾à¦°à¦£": 2921,
      "à¦¿à¦ī": 2922,
      "à§ĩĠà¦ī": 2923,
      "Ġà§©à§¦,à§¦à§¦à§¦Ġà¦Łà¦¾à¦ķà¦¾ĠbudgetĠà¦¬à§įà¦¯à¦¬à¦¹à¦¾à¦°Ġà¦ķà¦°à¦Ľà¦¿à¥¤Ġ": 2924,
      "Ġà¦Ĩà¦°": 2925,
      "ĠworkingĠmothers": 2926,
      "ĠS": 2927,
      "à¦°à§įà¦¥": 2928,
      ",Ġà¦Ĩà¦®": 2929,
      "Ġà¦¬à§įà¦¯à¦¬à¦¸à¦¾à§ŁĠYouTube": 2930,
      "Ġ-Ġà¦ı": 2931,
      "à¦ıà¦®à¦ıà¦®à¦ıà¦®à¦ıà¦®": 2932,
      "Ġà¦¬à¦°à§įà¦": 2933,
      "Ġà¦ªà¦¦": 2934,
      "à¦®à¦": 2935,
      "-à¦ıà¦°Ġà¦ķà§įà¦·à§ĩà¦¤à§įà¦°à§ĩĠà¦¨à¦¤à§ģà¦¨Ġonline": 2936,
      "Ġà¦¨à¦¿à§Łà§ĩĠTikTok-à¦ı": 2937,
      "Ġà¦¨à¦¤à§ģà¦¨ĠonlineĠbuyer,ĠchannelĠ": 2938,
      "-à¦ıà¦°Ġà¦ķà§įà¦·à§ĩà¦¤à§įà¦°à§ĩĠà¦¨à¦¤à§ģà¦¨ĠonlineĠbuyer-à¦ıà¦°ĠlanguageĠà¦ĵĠbuyingĠcontextĠà¦ħà¦¨à§ģà¦¯à¦¾à§Łà§ĢĠmessageĠà¦¦à¦¿à¦¨à¥¤Ġà¦ıà¦ķà¦ĩĠcreativeĠà¦¦à¦¿à§Łà§ĩĠà¦¸à¦¬ĠstageĠsolveĠà¦ķà¦°à¦¾à¦°Ġà¦ļà§ĩà¦·à§įà¦Łà¦¾Ġà¦ķà¦°à¦¬à§ĩà¦¨Ġà¦¨à¦¾à¥¤ĠčĊ": 2939,
      "-à¦ıà¦°Ġà¦ķà§įà¦·à§ĩà¦¤à§įà¦°à§ĩĠà¦®à¦§à§įà¦¯à¦®Ġà¦¬à¦¾à¦ľà§ĩà¦Łà§ĩà¦°ĠonlineĠshopp": 2940,
      "Ġà¦¸à§ģà¦ĸ": 2941,
      "Ġà¦®à¦§à§įà¦¯à¦®Ġà¦¬à¦¾à¦ľà§ĩà¦Łà§ĩà¦°ĠonlineĠshopper,ĠchannelĠ": 2942,
      "-à¦ıà¦°Ġà¦ķà§įà¦·à§ĩà¦¤à§įà¦°à§ĩĠà¦®à¦§à§įà¦¯à¦®Ġà¦¬à¦¾à¦ľà§ĩà¦Łà§ĩà¦°ĠonlineĠshopper-à¦ıà¦°ĠlanguageĠà¦ĵĠbuyingĠcontextĠà¦ħà¦¨à§ģà¦¯à¦¾à§Łà§ĢĠmessageĠà¦¦à¦¿à¦¨à¥¤Ġà¦ıà¦ķà¦ĩĠcreativeĠà¦¦à¦¿à§Łà§ĩĠà¦¸à¦¬ĠstageĠsolveĠà¦ķà¦°à¦¾à¦°Ġà¦ļà§ĩà¦·à§įà¦Łà¦¾Ġà¦ķà¦°à¦¬à§ĩà¦¨Ġà¦¨à¦¾à¥¤ĠčĊ": 2943,
      "busyĠprofessional-à¦ıà¦°ĠlanguageĠà¦ĵĠbuyingĠcontextĠà¦ħà¦¨à§ģà¦¯à¦¾à§Łà§ĢĠmessageĠà¦¦à¦¿à¦¨à¥¤Ġà¦ıà¦ķà¦ĩĠcreativeĠà¦¦à¦¿à§Łà§ĩĠà¦¸à¦¬ĠstageĠsolveĠà¦ķà¦°à¦¾à¦°Ġà¦ļà§ĩà¦·à§įà¦Łà¦¾Ġà¦ķà¦°à¦¬à§ĩà¦¨Ġà¦¨à¦¾à¥¤ĠčĊ": 2944,
      "-à¦ıà¦°Ġà¦ķà§įà¦·à§ĩà¦¤à§įà¦°à§ĩĠbusyĠprofessional-à¦ıà¦°ĠlanguageĠà¦ĵĠbuyingĠcontextĠà¦ħà¦¨à§ģà¦¯à¦¾à§Łà§ĢĠmessageĠà¦¦à¦¿à¦¨à¥¤Ġà¦ıà¦ķà¦ĩĠcreativeĠà¦¦à¦¿à§Łà§ĩĠà¦¸à¦¬ĠstageĠsolveĠà¦ķà¦°à¦¾à¦°Ġà¦ļà§ĩà¦·à§įà¦Łà¦¾Ġà¦ķà¦°à¦¬à§ĩà¦¨Ġà¦¨à¦¾à¥¤ĠčĊ": 2945,
      "ĠbusyĠprofessional,ĠchannelĠ": 2946,
      "Ġà¦¤à¦¾à¦¦à§ĩà¦°": 2947,
      "__": 2948,
      "Ġ1": 2949,
      "à¦²à¦¾": 2950,
      "à¦¿à¦¦à¦®": 2951,
      "Ġà¦¬à§įà¦¯à¦¬à¦¸à¦¾à§ŁĠWhatsApp": 2952,
      "à¦²à§įà¦ª": 2953,
      "à¦ļà¦ķ": 2954,
      "-à¦ıà¦°Ġà¦ķà§įà¦·à§ĩà¦¤à§įà¦°à§ĩĠà¦®à¦«à¦¸à§įà¦¬à¦²à§ĩà¦°ĠsmartphoneĠus": 2955,
      "Ġà¦®à¦«à¦¸à§įà¦¬à¦²à§ĩà¦°ĠsmartphoneĠuser,ĠchannelĠ": 2956,
      "-à¦ıà¦°Ġà¦ķà§įà¦·à§ĩà¦¤à§įà¦°à§ĩĠà¦®à¦«à¦¸à§įà¦¬à¦²à§ĩà¦°ĠsmartphoneĠuser-à¦ıà¦°ĠlanguageĠà¦ĵĠbuyingĠcontextĠà¦ħà¦¨à§ģà¦¯à¦¾à§Łà§ĢĠmessageĠà¦¦à¦¿à¦¨à¥¤Ġà¦ıà¦ķà¦ĩĠcreativeĠà¦¦à¦¿à§Łà§ĩĠà¦¸à¦¬ĠstageĠsolveĠà¦ķà¦°à¦¾à¦°Ġà¦ļà§ĩà¦·à§įà¦Łà¦¾Ġà¦ķà¦°à¦¬à§ĩà¦¨Ġà¦¨à¦¾à¥¤ĠčĊ": 2957,
      "à¦Ĩà¦®": 2958,
      "Ġà¦¨à¦¿à§Łà§ĩĠWhatsApp-à¦ı": 2959,
      "Ġà¦ķà¦°à§ĩà¦Ľà§ĩà¦¨": 2960,
      "-à¦ıà¦°Ġà¦ķà§įà¦·à§ĩà¦¤à§įà¦°à§ĩĠspecificĠhobbyĠenthusiast": 2961,
      "Ġà¦ıà¦ķà¦ľà¦¨ĠbuyerĠ": 2962,
      "ĠspecificĠhobbyĠenthusiast,ĠchannelĠ": 2963,
      "-à¦ıà¦°Ġà¦ķà§įà¦·à§ĩà¦¤à§įà¦°à§ĩĠspecificĠhobbyĠenthusiast-à¦ıà¦°ĠlanguageĠà¦ĵĠbuyingĠcontextĠà¦ħà¦¨à§ģà¦¯à¦¾à§Łà§ĢĠmessageĠà¦¦à¦¿à¦¨à¥¤Ġà¦ıà¦ķà¦ĩĠcreativeĠà¦¦à¦¿à§Łà§ĩĠà¦¸à¦¬ĠstageĠsolveĠà¦ķà¦°à¦¾à¦°Ġà¦ļà§ĩà¦·à§įà¦Łà¦¾Ġà¦ķà¦°à¦¬à§ĩà¦¨Ġà¦¨à¦¾à¥¤ĠčĊ": 2964,
      "-à¦ıà¦°Ġà¦ķà§įà¦·à§ĩà¦¤à§įà¦°à§ĩĠà¦¬à¦¿à¦¶à§įà¦¬à¦¬à¦¿à¦¦à§įà¦¯à¦¾à¦²à§Łà§ĩà¦°Ġà¦¶à¦¿à¦ķà§įà¦·à¦¾à¦°à§įà¦¥à§Ģ": 2965,
      "Ġà¦¬à¦¿à¦¶à§įà¦¬à¦¬à¦¿à¦¦à§įà¦¯à¦¾à¦²à§Łà§ĩà¦°Ġà¦¶à¦¿à¦ķà§įà¦·à¦¾à¦°à§įà¦¥à§Ģ,ĠchannelĠ": 2966,
      "-à¦ıà¦°Ġà¦ķà§įà¦·à§ĩà¦¤à§įà¦°à§ĩĠà¦¬à¦¿à¦¶à§įà¦¬à¦¬à¦¿à¦¦à§įà¦¯à¦¾à¦²à§Łà§ĩà¦°Ġà¦¶à¦¿à¦ķà§įà¦·à¦¾à¦°à§įà¦¥à§Ģ-à¦ıà¦°ĠlanguageĠà¦ĵĠbuyingĠcontextĠà¦ħà¦¨à§ģà¦¯à¦¾à§Łà§ĢĠmessageĠà¦¦à¦¿à¦¨à¥¤Ġà¦ıà¦ķà¦ĩĠcreativeĠà¦¦à¦¿à§Łà§ĩĠà¦¸à¦¬ĠstageĠsolveĠà¦ķà¦°à¦¾à¦°Ġà¦ļà§ĩà¦·à§įà¦Łà¦¾Ġà¦ķà¦°à¦¬à§ĩà¦¨Ġà¦¨à¦¾à¥¤ĠčĊ": 2967,
      ",Ġà¦¸à§ģà¦ĸ": 2968,
      "Ġà¦ķà§ĩà¦¨": 2969,
      "workingĠmothers-à¦ıà¦°ĠlanguageĠà¦ĵĠbuyingĠcontextĠà¦ħà¦¨à§ģà¦¯à¦¾à§Łà§ĢĠmessageĠà¦¦à¦¿à¦¨à¥¤Ġà¦ıà¦ķà¦ĩĠcreativeĠà¦¦à¦¿à§Łà§ĩĠà¦¸à¦¬ĠstageĠsolveĠà¦ķà¦°à¦¾à¦°Ġà¦ļà§ĩà¦·à§įà¦Łà¦¾Ġà¦ķà¦°à¦¬à§ĩà¦¨Ġà¦¨à¦¾à¥¤ĠčĊ": 2970,
      "-à¦ıà¦°Ġà¦ķà§įà¦·à§ĩà¦¤à§įà¦°à§ĩĠworkingĠmothers-à¦ıà¦°ĠlanguageĠà¦ĵĠbuyingĠcontextĠà¦ħà¦¨à§ģà¦¯à¦¾à§Łà§ĢĠmessageĠà¦¦à¦¿à¦¨à¥¤Ġà¦ıà¦ķà¦ĩĠcreativeĠà¦¦à¦¿à§Łà§ĩĠà¦¸à¦¬ĠstageĠsolveĠà¦ķà¦°à¦¾à¦°Ġà¦ļà§ĩà¦·à§įà¦Łà¦¾Ġà¦ķà¦°à¦¬à§ĩà¦¨Ġà¦¨à¦¾à¥¤ĠčĊ": 2971,
      "ĠworkingĠmothers,ĠchannelĠ": 2972,
      "-à¦ıà¦°Ġà¦ķà§įà¦·à§ĩà¦¤à§įà¦°à§ĩĠà¦Ľà§ĭà¦ŁĠà¦ªà¦°à¦¿à¦¬à¦¾à¦°à§ĩà¦°": 2973,
      "Ġà¦Ľà§ĭà¦ŁĠà¦ªà¦°à¦¿à¦¬à¦¾à¦°à§ĩà¦°Ġbuyer,ĠchannelĠ": 2974,
      ",Ġà¦¸à§ģà¦ĸ,Ġà¦¸à§ģà¦ĸ": 2975,
      "-à¦ıà¦°Ġà¦ķà§įà¦·à§ĩà¦¤à§įà¦°à§ĩĠà¦Ľà§ĭà¦ŁĠà¦ªà¦°à¦¿à¦¬à¦¾à¦°à§ĩà¦°Ġbuyer-à¦ıà¦°ĠlanguageĠà¦ĵĠbuyingĠcontextĠà¦ħà¦¨à§ģà¦¯à¦¾à§Łà§ĢĠmessageĠà¦¦à¦¿à¦¨à¥¤Ġà¦ıà¦ķà¦ĩĠcreativeĠà¦¦à¦¿à§Łà§ĩĠà¦¸à¦¬ĠstageĠsolveĠà¦ķà¦°à¦¾à¦°Ġà¦ļà§ĩà¦·à§įà¦Łà¦¾Ġà¦ķà¦°à¦¬à§ĩà¦¨Ġà¦¨à¦¾à¥¤ĠčĊ": 2976,
      "Ġà¦¸à¦¹": 2977,
      "?âĢĿà¥¤Ġà¦Ĩà¦®à¦¿Ġà¦ķà§Ģà¦Ńà¦¾à¦¬à§ĩĠconversion-à¦ıà¦°Ġà¦¦à¦¿à¦ķà§ĩĠethicalĠconversationĠà¦ļà¦¾à¦²à¦¾à¦¬?čĊ": 2978,
      "à¦¾à¦Ĥ": 2979,
      "à¦ķà§ĩĠà¦¸": 2980,
      "âĢĶà¦ı": 2981,
      "Ġà¦¨à¦¿à§Łà§ĩĠInstagram-à¦ı": 2982,
      "Ġà¦¬à§įà¦¯à¦¬à¦¸à¦¾à§ŁĠInstagram": 2983,
      "à¦¾,Ġà¦": 2984,
      "Ġvalidation": 2985,
      "Ġà¦¬à§įà¦¯à¦¬à¦¸à¦¾à§ŁĠTikTok": 2986,
      "Ġà¦ľà¦¿à¦ľà§įà¦ŀ": 2987,
      "Ġà¦¨à¦¿à¦ľà¦¸à§įà¦¬": 2988,
      "à¦ĩà¦¨à¦ªà§ģà¦Ł": 2989,
      "à¦ĩà¦¨à¦ªà§ģà¦Ł:čĊ": 2990,
      "Goo": 2991,
      "Ġà¦²à¦Ĺ": 2992,
      "à§ĩĠà¦Ĩ": 2993,
      "Google": 2994,
      "ha": 2995,
      "à¦ł": 2996,
      "à¦²à¦¿à¦ķ": 2997,
      "à¦Łà¦¿Ġà¦ª": 2998,
      "Ġà¦¨à¦¿à§Łà§ĩĠYouTube-à¦ı": 2999,
      "Ġà¦¬à§įà¦¯à¦¬à¦¸à¦¾à§ŁĠFacebook": 3000,
      "Ġà¦ľà¦¿à¦ľà§įà¦ŀà§ĩà¦¸": 3001,
      "earch": 3002,
      "requ": 3003,
      "à¥¤Ġà¦ħ": 3004,
      "vior": 3005,
      "à¦Ľà§ĭà¦Ł": 3006,
      "Ġà¦¬à§įà¦¯à¦¬à¦¸à¦¾à§ŁĠGoogle": 3007,
      "ĠSearch": 3008,
      "havior": 3009,
      "requency": 3010,
      "Ġà¦¬à§įà¦¯à¦¬à¦¸à¦¾à§ŁĠGoogleĠSearch": 3011,
      "à§ĩà¦°Ġà¦ª": 3012,
      "à¦¾Ġà¦ıà¦¬à¦Ĥ": 3013,
      "à§¦,à§¦à§¦à§¦Ġà¦Łà¦¾à¦ķà¦¾à¦°Ġà¦ªà§ģà¦°à§ĭà¦Łà¦¾Ġinventory-à¦¤à§ĩĠà¦Ĩà¦Łà¦ķà§ĩĠà¦¨à¦¾Ġà¦°à§ĩà¦ĸà§ĩĠà¦Ľà§ĭà¦ŁĠtestĠà¦ķà¦°à§ģà¦¨à¥¤": 3014,
      "à§¦,à§¦à§¦à§¦Ġà¦Łà¦¾à¦ķà¦¾ĠbudgetĠà¦¬à§įà¦¯à¦¬à¦¹à¦¾à¦°Ġà¦ķà¦°à¦Ľà¦¿à¥¤": 3015,
      "Ġà¦¹à¦¬à§ĩ": 3016,
      "Ġà¦¬à§įà¦¯à¦¬à¦¸à¦¾à§ŁĠMessenger": 3017,
      "buil": 3018,
      "andĠ": 3019,
      "à¦¿à¦¨à¦¿": 3020,
      "Ġà¦Ĺà§ģà¦£": 3021,
      "Ġà¦¨à¦¿à§Łà§ĩĠFacebook-à¦ı": 3022,
      "Ġà§®": 3023,
      "Ġà¦¦à§įà¦¬": 3024,
      "à§ĭà¦ª": 3025,
      "Ġà¦¸à§Ĥà¦ļà¦ķ": 3026,
      "à¦®à¦¿à¦ķ": 3027,
      "Ġà¦ıà¦°": 3028,
      "à§ģà¦ĩ": 3029,
      "à§ĩà¦°Ġà¦¬": 3030,
      "à¦¨à§įà¦¤à§įà¦°": 3031,
      ",Ġà¦®": 3032,
      "=3": 3033,
      "site": 3034,
      "ding": 3035,
      "randĠ": 3036,
      "Ġweb": 3037,
      "Ġà¦¬à§įà¦¯à¦¬à¦¸à¦¾à§ŁĠà¦¨à¦¿à¦ľà¦¸à§įà¦¬": 3038,
      "-à¦ıà¦°Ġà¦ķà§įà¦·à§ĩà¦¤à§įà¦°à§ĩĠà¦Ľà§ĭà¦ŁĠà¦¬à§įà¦¯à¦¬à¦¸à¦¾à¦°Ġowner-à¦ıà¦°": 3039,
      "à¦ĸà¦¨": 3040,
      "Ġà¦Ľà§ĭà¦ŁĠà¦¬à§įà¦¯à¦¬à¦¸à¦¾à¦°Ġowner,ĠchannelĠ": 3041,
      "building": 3042,
      "randĠbuilding": 3043,
      "Ġwebsite": 3044,
      "Ġà¦¬à§įà¦¯à¦¬à¦¸à¦¾à§ŁĠà¦¨à¦¿à¦ľà¦¸à§įà¦¬Ġwebsite": 3045,
      "-à¦ıà¦°Ġà¦ķà§įà¦·à§ĩà¦¤à§įà¦°à§ĩĠà¦Ľà§ĭà¦ŁĠà¦¬à§įà¦¯à¦¬à¦¸à¦¾à¦°Ġowner-à¦ıà¦°ĠlanguageĠà¦ĵĠbuyingĠcontextĠà¦ħà¦¨à§ģà¦¯à¦¾à§Łà§ĢĠmessageĠà¦¦à¦¿à¦¨à¥¤Ġà¦ıà¦ķà¦ĩĠcreativeĠà¦¦à¦¿à§Łà§ĩĠà¦¸à¦¬ĠstageĠsolveĠà¦ķà¦°à¦¾à¦°Ġà¦ļà§ĩà¦·à§įà¦Łà¦¾Ġà¦ķà¦°à¦¬à§ĩà¦¨Ġà¦¨à¦¾à¥¤ĠčĊ": 3046,
      "à¦Ļà§įà¦Ĺ": 3047,
      "Ġà¦¸à¦®à¦¯à¦¼": 3048,
      "à§Īà¦¤": 3049,
      "à§Įà¦²à¦¿à¦ķ": 3050,
      "Ġà¦¸à¦°à¦²": 3051,
      "à¦¾à¦°à¦¿à¦¦à¦®": 3052,
      "Ġà¦¨à¦¿à§Łà§ĩĠMessenger-à¦ı": 3053,
      "à§Ĥà¦°à§įà¦¬": 3054,
      "-à¦ıà¦°Ġà¦ķà§įà¦·à§ĩà¦¤à§įà¦°à§ĩĠà¦¢à¦¾à¦ķà¦¾à¦°Ġà¦¤à¦°à§ģà¦£Ġà¦ļà¦¾à¦ķà¦°à¦¿à¦ľà§Ģà¦¬à§Ģ": 3055,
      "Ġà¦¢à¦¾à¦ķà¦¾à¦°Ġà¦¤à¦°à§ģà¦£Ġà¦ļà¦¾à¦ķà¦°à¦¿à¦ľà§Ģà¦¬à§Ģ,ĠchannelĠ": 3056,
      "-à¦ıà¦°Ġà¦ķà§įà¦·à§ĩà¦¤à§įà¦°à§ĩĠà¦¢à¦¾à¦ķà¦¾à¦°Ġà¦¤à¦°à§ģà¦£Ġà¦ļà¦¾à¦ķà¦°à¦¿à¦ľà§Ģà¦¬à§Ģ-à¦ıà¦°ĠlanguageĠà¦ĵĠbuyingĠcontextĠà¦ħà¦¨à§ģà¦¯à¦¾à§Łà§ĢĠmessageĠà¦¦à¦¿à¦¨à¥¤Ġà¦ıà¦ķà¦ĩĠcreativeĠà¦¦à¦¿à§Łà§ĩĠà¦¸à¦¬ĠstageĠsolveĠà¦ķà¦°à¦¾à¦°Ġà¦ļà§ĩà¦·à§įà¦Łà¦¾Ġà¦ķà¦°à¦¬à§ĩà¦¨Ġà¦¨à¦¾à¥¤ĠčĊ": 3057,
      "à¦°à§įà¦¬": 3058,
      "à¦¾à¦Ľ": 3059,
      "Ġà¦ľà§Ģà¦¬à¦¨à§ĩà¦°": 3060,
      "CACĠà¦¦à§ĩà¦ĸà¦Ľà¦¿à¥¤Ġà¦ķà§Ģà¦Ńà¦¾à¦¬à§ĩĠdiagnosisĠà¦ķà¦°à¦¬?čĊ": 3061,
      "(a": 3062,
      "à¦¾à¦¡à¦¼": 3063,
      "Ġà¦¦à§ģ": 3064,
      "Ġ2": 3065,
      "Messenger-à¦ıĠà¦¬à¦²à§ĩà¦Ľà§ĩ:ĠâĢľ": 3066,
      "Ġà¦¸à¦®à§įà¦ªà¦°à§įà¦ķà§ĩĠMessenger-à¦ıĠà¦¬à¦²à§ĩà¦Ľà§ĩ:ĠâĢľ": 3067,
      "LTVĠà¦¦à§ĩà¦ĸà¦Ľà¦¿à¥¤Ġà¦ķà§Ģà¦Ńà¦¾à¦¬à§ĩĠdiagnosisĠà¦ķà¦°à¦¬?čĊ": 3068,
      "à¦¿à¦ľà§įà¦ŀà¦¾à¦¨": 3069,
      "100": 3070,
      "à§ĩà¦Ľà¦¿à¦²": 3071,
      "Ġà¦²à¦Ĺà¦¾à¦°à¦¿à¦¦à¦®": 3072,
      "Ġà¦¸à¦®à§Ģà¦ķà¦°à¦£": 3073,
      "YouTube-à¦ıĠà¦¬à¦²à§ĩà¦Ľà§ĩ:ĠâĢľ": 3074,
      "Ġà¦¸à¦®à§įà¦ªà¦°à§įà¦ķà§ĩĠYouTube-à¦ıĠà¦¬à¦²à§ĩà¦Ľà§ĩ:ĠâĢľ": 3075,
      "Ġà¦°à¦¾à¦¶": 3076,
      "à¦¤à§įà¦°": 3077,
      "à§įà¦Łà¦¾à¦°": 3078,
      "à¦¯à¦¼à¦¾à¦°": 3079,
      "Ġà¦¸à§Ģà¦®": 3080,
      "Ġà¦Łà¦¾à¦ķà¦¾à¦°Ġà¦ªà§ģà¦°à§ĭà¦Łà¦¾Ġinventory-à¦¤à§ĩĠà¦Ĩà¦Łà¦ķà§ĩĠà¦¨à¦¾Ġà¦°à§ĩà¦ĸà§ĩĠà¦Ľà§ĭà¦ŁĠtestĠà¦ķà¦°à§ģà¦¨à¥¤Ġ": 3081,
      "à¦¿à¦īà¦Ł": 3082,
      "Ġà¦¶à¦ķà§įà¦¤": 3083,
      "Ġà¦¬à§įà¦¯à¦¬à¦¹à¦¾à¦°Ġà¦ķà¦°": 3084,
      "ĠconversionĠrateĠà¦¦à§ĩà¦ĸà¦Ľà¦¿à¥¤Ġà¦ķà§Ģà¦Ńà¦¾à¦¬à§ĩĠdiagnosisĠà¦ķà¦°à¦¬?čĊ": 3085,
      "à¥¤Ġà¦Ĩà¦®à¦¿ĠconversionĠrateĠà¦¦à§ĩà¦ĸà¦Ľà¦¿à¥¤Ġà¦ķà§Ģà¦Ńà¦¾à¦¬à§ĩĠdiagnosisĠà¦ķà¦°à¦¬?čĊ": 3086,
      "à§ĩà¦·à¦£": 3087,
      "Instagram-à¦ıĠà¦¬à¦²à§ĩà¦Ľà§ĩ:ĠâĢľ": 3088,
      "Ġà¦¸à¦®à§įà¦ªà¦°à§įà¦ķà§ĩĠInstagram-à¦ıĠà¦¬à¦²à§ĩà¦Ľà§ĩ:ĠâĢľ": 3089,
      "à§įà¦°à¦¾à¦£": 3090,
      "Ġà¦ıà¦¬à¦ĤĠ": 3091,
      "âĪļ": 3092,
      "ģâĤ": 3093,
      "à¦ªà§įà¦°à¦¶à§įà¦¨:Ġà¦ħà¦§à§įà¦¯à¦¾à§ŁĠà§§:": 3094,
      "à¦¿à¦ª": 3095,
      ",Ġà¦¯": 3096,
      "Â°": 3097,
      "ģâĤĢ": 3098,
      "à¦¿à¦Ł": 3099,
      "Ġà¦ªà§įà¦°à¦¤": 3100,
      "Ġà¦īà¦¤à§įà¦¤à¦°": 3101,
      "à¥¤Ġà¦Ĩà¦®à¦¿ĠrepeatĠpurchase": 3102,
      "CPAĠà¦¦à§ĩà¦ĸà¦Ľà¦¿à¥¤Ġà¦ķà§Ģà¦Ńà¦¾à¦¬à§ĩĠdiagnosisĠà¦ķà¦°à¦¬?čĊ": 3103,
      "à¥¤Ġà¦Ĩà¦®à¦¿ĠrepeatĠpurchaseĠrateĠà¦¦à§ĩà¦ĸà¦Ľà¦¿à¥¤Ġà¦ķà§Ģà¦Ńà¦¾à¦¬à§ĩĠdiagnosisĠà¦ķà¦°à¦¬?čĊ": 3104,
      "Ġà¦Ńà¦¾à¦Ĺ": 3105,
      "ĠlogâĤ": 3106,
      "TikTok-à¦ıĠà¦¬à¦²à§ĩà¦Ľà§ĩ:ĠâĢľ": 3107,
      "Ġà¦¸à¦®à§įà¦ªà¦°à§įà¦ķà§ĩĠTikTok-à¦ıĠà¦¬à¦²à§ĩà¦Ľà§ĩ:ĠâĢľ": 3108,
      ",Ġà¦¹": 3109,
      "poth": 3110,
      "ypoth": 3111,
      "Ġà¦ķà§įà¦°": 3112,
      "à§ģà¦®": 3113,
      "à§įà¦¯à¦¾à¦°": 3114,
      "esis": 3115,
      "Ġà¦ķà¦°à§ĩà¥¤čĊ": 3116,
      "ypothesis": 3117,
      "à¦ªà§įà¦°à¦¶à§įà¦¨:Ġà¦ħà¦§à§įà¦¯à¦¾à§ŁĠà§®": 3118,
      "à¦¯à¦¼à¦¾": 3119,
      "à¦Ĩà¦®à¦¿Ġà§¨à§¦à§¨à§ŃĠà¦¸à¦¾à¦²à§ĩĠ": 3120,
      "à¦ªà¦¾à¦¦": 3121,
      "ĠhealthyĠsnackĠproducts": 3122,
      "Ġà¦¶à¦¿à¦ķà§įà¦·à¦¾": 3123,
      "WhatsApp-à¦ıĠà¦¬à¦²à§ĩà¦Ľà§ĩ:ĠâĢľ": 3124,
      "Ġà¦¸à¦®à§įà¦ªà¦°à§įà¦ķà§ĩĠWhatsApp-à¦ıĠà¦¬à¦²à§ĩà¦Ľà§ĩ:ĠâĢľ": 3125,
      "25": 3126,
      "ate": 3127,
      "..": 3128,
      "ĠmodestĠfashion": 3129,
      "Ġà¦ķà¦®à§įà¦ª": 3130,
      "à§įà¦ľ": 3131,
      "Ġà¦¯à§ĭà¦Ĺ": 3132,
      "CPCĠà¦¦à§ĩà¦ĸà¦Ľà¦¿à¥¤Ġà¦ķà§Ģà¦Ńà¦¾à¦¬à§ĩĠdiagnosisĠà¦ķà¦°à¦¬?čĊ": 3133,
      "Ġà¦Ĩà¦ªà¦¨à¦¾à¦°": 3134,
      "à§ģà¦¤": 3135,
      "Ġà¦¨à¦¾à¦®": 3136,
      "Ġà¦īà¦¨à§įà¦¨à¦¤à¦¿": 3137,
      "à§ĭà¦®à¦¾à¦°": 3138,
      "ĠcontributionĠmarginĠà¦¦à§ĩà¦ĸà¦Ľà¦¿à¥¤Ġà¦ķà§Ģà¦Ńà¦¾à¦¬à§ĩĠdiagnosisĠà¦ķà¦°à¦¬?čĊ": 3139,
      "à¥¤Ġà¦Ĩà¦®à¦¿ĠcontributionĠmarginĠà¦¦à§ĩà¦ĸà¦Ľà¦¿à¥¤Ġà¦ķà§Ģà¦Ńà¦¾à¦¬à§ĩĠdiagnosisĠà¦ķà¦°à¦¬?čĊ": 3140,
      "Ġà¦°à¦¾à¦·à§įà¦Ł": 3141,
      "Ġà¦īà§İ": 3142,
      "Ġà¦¤à¦¾à¦°": 3143,
      "Ġà¦ķà¦®à§įà¦ªà¦¿à¦īà¦Ł": 3144,
      "à¦¿à¦¤à¦¿à¦ķ": 3145,
      "à¦¯à¦¼à¦¾Ġà¦īà¦ļà¦¿à¦¤": 3146,
      "1/": 3147,
      "à¦¯à§ĭà¦Ĺ": 3148,
      "CTRĠà¦¦à§ĩà¦ĸà¦Ľà¦¿à¥¤Ġà¦ķà§Ģà¦Ńà¦¾à¦¬à§ĩĠdiagnosisĠà¦ķà¦°à¦¬?čĊ": 3149,
      "Ġà¦ķà§ĭà¦£": 3150,
      "à¦ªà§įà¦°à¦¶à§įà¦¨:Ġà¦ħà¦§à§įà¦¯à¦¾à§ŁĠà§®:": 3151,
      "nt": 3152,
      "à§ĩĠà¦ķ": 3153,
      "à§ģà¦¦": 3154,
      "Ġà¦ķà¦°à¦²": 3155,
      "Ġà¦¦à¦¿à¦¯à¦¼": 3156,
      "Facebook-à¦ıĠà¦¬à¦²à§ĩà¦Ľà§ĩ:ĠâĢľ": 3157,
      "Ġà¦¸à¦®à§įà¦ªà¦°à§įà¦ķà§ĩĠFacebook-à¦ıĠà¦¬à¦²à§ĩà¦Ľà§ĩ:ĠâĢľ": 3158,
      "¯à§ģà¦ķà§įà¦¤": 3159,
      "Ġcur": 3160,
      "rent": 3161,
      "Ġà¦ķà¦°à¦¤à§ĩĠà¦ªà¦¾à¦°": 3162,
      "à¦Ĺà§ģà¦²à¦¿à¦°": 3163,
      "Ġà¦¸à§Ģà¦®à¦¾à¦¨à§įà¦¤": 3164,
      "Ġcurrent": 3165,
      "Ìĩ": 3166,
      "ĠÌĩ": 3167,
      "Ńà¦¾à¦·à¦¾": 3168,
      "à¦ĵĠà¦®": 3169,
      "ROASĠà¦¦à§ĩà¦ĸà¦Ľà¦¿à¥¤Ġà¦ķà§Ģà¦Ńà¦¾à¦¬à§ĩĠdiagnosisĠà¦ķà¦°à¦¬?čĊ": 3170,
      "à¦¿à¦ķà§įà¦·à¦¾": 3171,
      "Ġà¦§à¦°à¦¨à§ĩà¦°": 3172,
      "Ġà¦®à¦¾à¦¨à§ģà¦·à§ĩà¦°Ġà¦®": 3173,
      "à¦ªà§įà¦°à¦¶à§įà¦¨:Ġà¦ħà¦§à§įà¦¯à¦¾à§ŁĠà§®:Ġà¦¸à§Ĥà¦ļà¦ķ": 3174,
      "à¦¿à¦Ĺ": 3175,
      "Ġà¦ĵĠà¦²à¦Ĺà¦¾à¦°à¦¿à¦¦à¦®": 3176,
      "er-à¦ıà¦°Ġà¦ľà¦¨à§įà¦¯": 3177,
      "à¦¿à¦¯à¦¼à¦¾": 3178,
      "ĠÌĩĠÌĩ": 3179,
      "Ġà§©:": 3180,
      "à¦¾Ġà¦Ĩà¦®à¦¾à¦¦à§ĩà¦°": 3181,
      "à¥¤Ġà¦ª": 3182,
      "Ġlaptop/deskĠaccessories": 3183,
      "à¦ªà§įà¦°à¦¶à§įà¦¨:Ġà¦ħà¦§à§įà¦¯à¦¾à§ŁĠà§®:Ġà¦¸à§Ĥà¦ļà¦ķĠà¦ĵĠà¦²à¦Ĺà¦¾à¦°à¦¿à¦¦à¦®": 3184,
      "Ġà¦¬à¦¿à¦¶à§įà¦¬": 3185,
      "à¦ªà§įà¦°à¦¶à§įà¦¨:Ġà¦ħà¦§à§įà¦¯à¦¾à§ŁĠà§©:": 3186,
      "Ġ-Ġx": 3187,
      "Ġà¦ķà¦®à§įà¦ªà¦¿à¦īà¦Łà¦¾à¦°": 3188,
      "à¦¬à¦¾à¦Ĥ": 3189,
      "à¦¾à¦¸à¦¿à¥¤čĊ": 3190,
      "à¦ªà§įà¦°à¦¶à§įà¦¨:Ġà¦ħà¦§à§įà¦¯à¦¾à§ŁĠà§®:Ġà¦¸à§Ĥà¦ļà¦ķĠà¦ĵĠà¦²à¦Ĺà¦¾à¦°à¦¿à¦¦à¦®ĠâĢĶ": 3191,
      "à¦ľà¦¨": 3192,
      "à§ĩĠà¦¤à§ĭà¦°": 3193,
      "à¦¶à¦®à¦¿à¦ķ": 3194,
      "Ġ-Ġà¦ıà¦¸à¦¬": 3195,
      "à§Ĥà¦°à§įà¦¬Ġà¦¸à§Ģà¦®à¦¾à¦¨à§įà¦¤": 3196,
      "à¦§": 3197,
      "Ġà¦²à¦¿à¦ĸ": 3198,
      "Ġà¦¬à¦¾à¦ķ": 3199,
      "à¦¬à¦¸à§įà¦¥": 3200,
      "à¦¾à¦Łà¦¿": 3201,
      "à¦¿à¦ĸ": 3202,
      "à¦¿à¦ķà§įà¦°à¦¯à¦¼": 3203,
      "Ġà¦°à¦¯à¦¼": 3204,
      "à¦ªà§įà¦°à¦¶à§įà¦¨:Ġà¦ħà¦§à§įà¦¯à¦¾à§ŁĠà§¨": 3205,
      "CPMĠà¦¦à§ĩà¦ĸà¦Ľà¦¿à¥¤Ġà¦ķà§Ģà¦Ńà¦¾à¦¬à§ĩĠdiagnosisĠà¦ķà¦°à¦¬?čĊ": 3206,
      "Ġà¦¨à§Ģà¦²Ġà¦¨à§Ģà¦²Ġà¦¨à§Ģà¦²Ġà¦¨à§Ģà¦²": 3207,
      "ab": 3208,
      "Ġà¦ļà¦²": 3209,
      "Ġà¦ķà§ĭà¦¨Ġstage-à¦ıà¦°ĠsignalĠà¦¸à§ĩà¦Łà¦¿Ġà¦Ĩà¦Ĺà§ĩĠà¦¨à¦¿à¦°à§įà¦§à¦¾à¦°à¦£Ġà¦ķà¦°à§ģà¦¨à¥¤ĠROASĠà¦Ńà¦¾à¦²à§ĭĠà¦ķà¦¿à¦¨à§įà¦¤à§ģĠprofit": 3210,
      "-à¦ıĠà¦ķà¦¾à¦ľĠà¦ķà¦°à¦Ľà¦¿à¥¤Ġà¦¸à¦®à¦¸à§įà¦¯à¦¾:ĠROASĠà¦Ńà¦¾à¦²à§ĭĠà¦ķà¦¿à¦¨à§įà¦¤à§ģĠprofit": 3211,
      "Ġà¦ķà§ĭà¦¨Ġstage-à¦ıà¦°ĠsignalĠà¦¸à§ĩà¦Łà¦¿Ġà¦Ĩà¦Ĺà§ĩĠà¦¨à¦¿à¦°à§įà¦§à¦¾à¦°à¦£Ġà¦ķà¦°à§ģà¦¨à¥¤ĠROASĠà¦Ńà¦¾à¦²à§ĭĠà¦ķà¦¿à¦¨à§įà¦¤à§ģĠprofitĠà¦ķà¦®Ġà¦¹à¦²à§ĩĠcreative/message,Ġaudience,Ġoffer,Ġprice,Ġtrust,ĠproductĠinformation,ĠresponseĠspeed,ĠdeliveryĠà¦ıà¦¬à¦ĤĠreturn/cancellationâĢĶà¦ªà§įà¦°à¦¤à¦¿à¦Łà¦¿Ġà¦¸à¦®à§įà¦Ńà¦¾à¦¬à§įà¦¯ĠbottleneckĠà¦Ĩà¦²à¦¾à¦¦à¦¾Ġà¦ķà¦°à§ģà¦¨à¥¤ĠčĊ": 3212,
      "à§Ĥà¦ª": 3213,
      "à¦¦à§ĩà¦°": 3214,
      "Ġà¦°à¦¾à¦¶à¦¿": 3215,
      "2)": 3216,
      "=4": 3217,
      "Ġstationery/educationĠproducts": 3218,
      "Ġà¦ķà§ĭà¦¨Ġstage-à¦ıà¦°ĠsignalĠà¦¸à§ĩà¦Łà¦¿Ġà¦Ĩà¦Ĺà§ĩĠà¦¨à¦¿à¦°à§įà¦§à¦¾à¦°à¦£Ġà¦ķà¦°à§ģà¦¨à¥¤ĠengagementĠà¦Ĩà¦Ľà§ĩĠà¦ķà¦¿à¦¨à§įà¦¤à§ģĠqualifiedĠleadĠà¦¨à§ĩà¦ĩ": 3219,
      "à¦ľà¦Ĺ": 3220,
      "-à¦ıĠà¦ķà¦¾à¦ľĠà¦ķà¦°à¦Ľà¦¿à¥¤Ġà¦¸à¦®à¦¸à§įà¦¯à¦¾:ĠengagementĠà¦Ĩà¦Ľà§ĩĠà¦ķà¦¿à¦¨à§įà¦¤à§ģĠqualifiedĠleadĠà¦¨à§ĩà¦ĩ": 3221,
      "Ġà¦ķà¦¤?čĊ": 3222,
      "Ġà¦ķà§ĭà¦¨Ġstage-à¦ıà¦°ĠsignalĠà¦¸à§ĩà¦Łà¦¿Ġà¦Ĩà¦Ĺà§ĩĠà¦¨à¦¿à¦°à§įà¦§à¦¾à¦°à¦£Ġà¦ķà¦°à§ģà¦¨à¥¤ĠengagementĠà¦Ĩà¦Ľà§ĩĠà¦ķà¦¿à¦¨à§įà¦¤à§ģĠqualifiedĠleadĠà¦¨à§ĩà¦ĩĠà¦¹à¦²à§ĩĠcreative/message,Ġaudience,Ġoffer,Ġprice,Ġtrust,ĠproductĠinformation,ĠresponseĠspeed,ĠdeliveryĠà¦ıà¦¬à¦ĤĠreturn/cancellationâĢĶà¦ªà§įà¦°à¦¤à¦¿à¦Łà¦¿Ġà¦¸à¦®à§įà¦Ńà¦¾à¦¬à§įà¦¯ĠbottleneckĠà¦Ĩà¦²à¦¾à¦¦à¦¾Ġà¦ķà¦°à§ģà¦¨à¥¤ĠčĊ": 3223,
      "+b": 3224,
      "à¦¿à¦ķà¦²à§įà¦ª": 3225,
      "Ġà¦ķà§ĭà¦¨Ġstage-à¦ıà¦°ĠsignalĠà¦¸à§ĩà¦Łà¦¿Ġà¦Ĩà¦Ĺà§ĩĠà¦¨à¦¿à¦°à§įà¦§à¦¾à¦°à¦£Ġà¦ķà¦°à§ģà¦¨à¥¤ĠCODĠcancellationĠà¦¬à§ĩà¦¶à¦¿": 3226,
      "-à¦ıĠà¦ķà¦¾à¦ľĠà¦ķà¦°à¦Ľà¦¿à¥¤Ġà¦¸à¦®à¦¸à§įà¦¯à¦¾:ĠCODĠcancellationĠà¦¬à§ĩà¦¶à¦¿": 3227,
      "à¦¾à¦£à¦¿à¦¤à¦¿à¦ķ": 3228,
      "Ġà¦ķà§ĭà¦¨Ġstage-à¦ıà¦°ĠsignalĠà¦¸à§ĩà¦Łà¦¿Ġà¦Ĩà¦Ĺà§ĩĠà¦¨à¦¿à¦°à§įà¦§à¦¾à¦°à¦£Ġà¦ķà¦°à§ģà¦¨à¥¤ĠCODĠcancellationĠà¦¬à§ĩà¦¶à¦¿Ġà¦¹à¦²à§ĩĠcreative/message,Ġaudience,Ġoffer,Ġprice,Ġtrust,ĠproductĠinformation,ĠresponseĠspeed,ĠdeliveryĠà¦ıà¦¬à¦ĤĠreturn/cancellationâĢĶà¦ªà§įà¦°à¦¤à¦¿à¦Łà¦¿Ġà¦¸à¦®à§įà¦Ńà¦¾à¦¬à§įà¦¯ĠbottleneckĠà¦Ĩà¦²à¦¾à¦¦à¦¾Ġà¦ķà¦°à§ģà¦¨à¥¤ĠčĊ": 3229,
      "ĠbuyerĠcombination-à¦ıà¦°Ġà¦ķà§įà¦·à§ĩà¦¤à§įà¦°à§ĩĠà¦Ĩà¦Ĺà§ĩĠbuyer-à¦ıà¦°Ġà¦¨à¦¿à¦°à§įà¦¦à¦¿à¦·à§įà¦ŁĠproblem,ĠbuyingĠoccasionĠà¦ıà¦¬à¦ĤĠwillingnessĠtoĠpayĠà¦¯à¦¾à¦ļà¦¾à¦ĩĠà¦ķà¦°à§ģà¦¨à¥¤ĠčĊ": 3230,
      "Ġà¦Łà¦¾à¦ķà¦¾à¥¤Ġà¦²à¦ķà§įà¦·à§įà¦¯": 3231,
      "ĠhobbyĠproducts": 3232,
      "à§įà¦²à§ĩà¦·à¦£": 3233,
      "à§§,à§¦à§¦,à§¦à§¦à§¦": 3234,
      ",à§¦à§¦,à§¦à§¦à§¦Ġà¦Łà¦¾à¦ķà¦¾à¥¤Ġà¦²à¦ķà§įà¦·à§įà¦¯": 3235,
      "Ġà¦¨à¦¿à§Łà§ĩĠà¦¬à§įà¦¯à¦¬à¦¸à¦¾Ġà¦¶à§ģà¦°à§ģĠà¦ķà¦°à¦¤à§ĩĠà¦ļà¦¾à¦ĩà¥¤Ġà¦¬à¦¾à¦ľà§ĩà¦ŁĠà§§,à§¦à§¦,à§¦à§¦à§¦Ġà¦Łà¦¾à¦ķà¦¾à¥¤Ġà¦²à¦ķà§įà¦·à§įà¦¯": 3236,
      "à¦®à§Ĥà¦²": 3237,
      "Ġà¦ķà¦°à§ĩà¦Ľà§ĩ": 3238,
      "ĠhomeĠorganization": 3239,
      "ump": 3240,
      "à¦«": 3241,
      "Ġà¦¬à¦¾à¦¸à§įà¦¤à¦¬Ġà¦¸à¦Ĥà¦ĸà§įà¦¯à¦¾": 3242,
      "ssump": 3243,
      "Ġà¦ļà¦¾à¦°": 3244,
      "ĠreturnĠà¦¬à§ĩà¦¶à¦¿": 3245,
      "Ġà¦ķà§ĭà¦¨Ġstage-à¦ıà¦°ĠsignalĠà¦¸à§ĩà¦Łà¦¿Ġà¦Ĩà¦Ĺà§ĩĠà¦¨à¦¿à¦°à§įà¦§à¦¾à¦°à¦£Ġà¦ķà¦°à§ģà¦¨à¥¤Ġreturn": 3246,
      "-à¦ıĠà¦ķà¦¾à¦ľĠà¦ķà¦°à¦Ľà¦¿à¥¤Ġà¦¸à¦®à¦¸à§įà¦¯à¦¾:ĠreturnĠà¦¬à§ĩà¦¶à¦¿": 3247,
      "Ġà¦¬à§ĩà¦¶à¦¿Ġà¦¹à¦²à§ĩĠcreative/message,Ġaudience,Ġoffer,Ġprice,Ġtrust,ĠproductĠinformation,ĠresponseĠspeed,ĠdeliveryĠà¦ıà¦¬à¦ĤĠreturn/cancellationâĢĶà¦ªà§įà¦°à¦¤à¦¿à¦Łà¦¿Ġà¦¸à¦®à§įà¦Ńà¦¾à¦¬à§įà¦¯ĠbottleneckĠà¦Ĩà¦²à¦¾à¦¦à¦¾Ġà¦ķà¦°à§ģà¦¨à¥¤ĠčĊ": 3248,
      "ssumption": 3249,
      "Ġà¦ķà§ĭà¦¨Ġstage-à¦ıà¦°ĠsignalĠà¦¸à§ĩà¦Łà¦¿Ġà¦Ĩà¦Ĺà§ĩĠà¦¨à¦¿à¦°à§įà¦§à¦¾à¦°à¦£Ġà¦ķà¦°à§ģà¦¨à¥¤ĠreturnĠà¦¬à§ĩà¦¶à¦¿Ġà¦¹à¦²à§ĩĠcreative/message,Ġaudience,Ġoffer,Ġprice,Ġtrust,ĠproductĠinformation,ĠresponseĠspeed,ĠdeliveryĠà¦ıà¦¬à¦ĤĠreturn/cancellationâĢĶà¦ªà§įà¦°à¦¤à¦¿à¦Łà¦¿Ġà¦¸à¦®à§įà¦Ńà¦¾à¦¬à§įà¦¯ĠbottleneckĠà¦Ĩà¦²à¦¾à¦¦à¦¾Ġà¦ķà¦°à§ģà¦¨à¥¤ĠčĊ": 3250,
      "à§ĩĠà¦Ń": 3251,
      "à¥¤Ġà¦Ĩà¦®": 3252,
      "Ġà§¨à§¦,à§¦à§¦à§¦Ġà¦Łà¦¾à¦ķà¦¾à¥¤Ġà¦²à¦ķà§įà¦·à§įà¦¯": 3253,
      "Ġà¦¨à¦¿à§Łà§ĩĠà¦¬à§įà¦¯à¦¬à¦¸à¦¾Ġà¦¶à§ģà¦°à§ģĠà¦ķà¦°à¦¤à§ĩĠà¦ļà¦¾à¦ĩà¥¤Ġà¦¬à¦¾à¦ľà§ĩà¦ŁĠà§¨à§¦,à§¦à§¦à§¦Ġà¦Łà¦¾à¦ķà¦¾à¥¤Ġà¦²à¦ķà§įà¦·à§įà¦¯": 3254,
      "contributionĠmargin-à¦ķà§ĩĠbusinessĠoutcomeĠà¦¥à§ĩà¦ķà§ĩĠà¦¬à¦¿à¦ļà§įà¦Ľà¦¿à¦¨à§įà¦¨Ġà¦ķà¦°à¦¬à§ĩà¦¨Ġà¦¨à¦¾à¥¤Ġà¦ıà¦ķà¦Łà¦¿ĠsimpleĠfunnelĠsheetĠà¦°à¦¾à¦ĸà§ģà¦¨:ĠspendĠâĨĴĠimpressions/reachĠâĨĴĠclicksĠâĨĴĠqualifiedĠleads/messagesĠâĨĴĠordersĠâĨĴĠdeliveredĠordersĠâĨĴĠrevenueĠâĨĴĠvariableĠcostsĠâĨĴĠcontributionĠprofità¥¤ĠčĊ": 3255,
      "ĠsmallĠhomeĠdecor": 3256,
      "-à¦ıĠà¦ķà¦¾à¦ľĠà¦ķà¦°à¦Ľà¦¿à¥¤Ġà¦¸à¦®à¦¸à§įà¦¯à¦¾:ĠclickĠà¦¹à¦ļà§įà¦Ľà§ĩĠà¦ķà¦¿à¦¨à§įà¦¤à§ģĠorderĠà¦¹à¦ļà§įà¦Ľà§ĩĠà¦¨à¦¾": 3257,
      "Ġà¦ķà§ĭà¦¨Ġstage-à¦ıà¦°ĠsignalĠà¦¸à§ĩà¦Łà¦¿Ġà¦Ĩà¦Ĺà§ĩĠà¦¨à¦¿à¦°à§įà¦§à¦¾à¦°à¦£Ġà¦ķà¦°à§ģà¦¨à¥¤ĠclickĠà¦¹à¦ļà§įà¦Ľà§ĩĠà¦ķà¦¿à¦¨à§įà¦¤à§ģĠorderĠà¦¹à¦ļà§įà¦Ľà§ĩĠà¦¨à¦¾": 3258,
      "Ġà¦ķà§ĭà¦¨Ġstage-à¦ıà¦°ĠsignalĠà¦¸à§ĩà¦Łà¦¿Ġà¦Ĩà¦Ĺà§ĩĠà¦¨à¦¿à¦°à§įà¦§à¦¾à¦°à¦£Ġà¦ķà¦°à§ģà¦¨à¥¤ĠclickĠà¦¹à¦ļà§įà¦Ľà§ĩĠà¦ķà¦¿à¦¨à§įà¦¤à§ģĠorderĠà¦¹à¦ļà§įà¦Ľà§ĩĠà¦¨à¦¾Ġà¦¹à¦²à§ĩĠcreative/message,Ġaudience,Ġoffer,Ġprice,Ġtrust,ĠproductĠinformation,ĠresponseĠspeed,ĠdeliveryĠà¦ıà¦¬à¦ĤĠreturn/cancellationâĢĶà¦ªà§įà¦°à¦¤à¦¿à¦Łà¦¿Ġà¦¸à¦®à§įà¦Ńà¦¾à¦¬à§įà¦¯ĠbottleneckĠà¦Ĩà¦²à¦¾à¦¦à¦¾Ġà¦ķà¦°à§ģà¦¨à¥¤ĠčĊ": 3259,
      "à¦¬à§ĩà¦¶": 3260,
      "à¦¸à§įà¦¥": 3261,
      "à¥¤Ġà¦ıà¦ĩ": 3262,
      "à§«,à§¦à§¦à§¦": 3263,
      "à¦Ńà§Ģà¦°": 3264,
      "Ġà¦¨à¦¿à§Łà§ĩĠà¦¬à§įà¦¯à¦¬à¦¸à¦¾Ġà¦¶à§ģà¦°à§ģĠà¦ķà¦°à¦¤à§ĩĠà¦ļà¦¾à¦ĩà¥¤Ġà¦¬à¦¾à¦ľà§ĩà¦ŁĠà§«,à§¦à§¦à§¦Ġà¦Łà¦¾à¦ķà¦¾": 3265,
      "Ġà¦¸à¦¾à¦§à¦¾à¦°à¦£": 3266,
      "Ġà¦¨à¦¿à§Łà§ĩĠà¦¬à§įà¦¯à¦¬à¦¸à¦¾Ġà¦¶à§ģà¦°à§ģĠà¦ķà¦°à¦¤à§ĩĠà¦ļà¦¾à¦ĩà¥¤Ġà¦¬à¦¾à¦ľà§ĩà¦ŁĠà§«,à§¦à§¦à§¦Ġà¦Łà¦¾à¦ķà¦¾à¥¤Ġà¦²à¦ķà§įà¦·à§įà¦¯": 3267,
      "à§ĩà¦Ľà§ĩĠà¦¹à¦²à§ĩĠcreative/message,Ġaudience,Ġoffer,Ġprice,Ġtrust,ĠproductĠinformation,ĠresponseĠspeed,ĠdeliveryĠà¦ıà¦¬à¦ĤĠreturn/cancellationâĢĶà¦ªà§įà¦°à¦¤à¦¿à¦Łà¦¿Ġà¦¸à¦®à§įà¦Ńà¦¾à¦¬à§įà¦¯ĠbottleneckĠà¦Ĩà¦²à¦¾à¦¦à¦¾Ġà¦ķà¦°à§ģà¦¨à¥¤ĠčĊ": 3268,
      "repeatĠpurchaseĠà¦ķà¦®Ġà¦¹à¦²à§ĩĠcreative/message,Ġaudience,Ġoffer,Ġprice,Ġtrust,ĠproductĠinformation,ĠresponseĠspeed,ĠdeliveryĠà¦ıà¦¬à¦ĤĠreturn/cancellationâĢĶà¦ªà§įà¦°à¦¤à¦¿à¦Łà¦¿Ġà¦¸à¦®à§įà¦Ńà¦¾à¦¬à§įà¦¯ĠbottleneckĠà¦Ĩà¦²à¦¾à¦¦à¦¾Ġà¦ķà¦°à§ģà¦¨à¥¤ĠčĊ": 3269,
      "Ġà¦ķà§Ģà¦Ńà¦¾à¦¬à§ĩĠà¦ķà¦°à¦¬": 3270,
      "Ġà¦ķà§ĭà¦¨Ġstage-à¦ıà¦°ĠsignalĠà¦¸à§ĩà¦Łà¦¿Ġà¦Ĩà¦Ĺà§ĩĠà¦¨à¦¿à¦°à§įà¦§à¦¾à¦°à¦£Ġà¦ķà¦°à§ģà¦¨à¥¤ĠCPAĠà¦¬à§ĩà§ľà§ĩĠà¦Ĺ": 3271,
      "Ġà¦ķà§ĭà¦¨Ġstage-à¦ıà¦°ĠsignalĠà¦¸à§ĩà¦Łà¦¿Ġà¦Ĩà¦Ĺà§ĩĠà¦¨à¦¿à¦°à§įà¦§à¦¾à¦°à¦£Ġà¦ķà¦°à§ģà¦¨à¥¤ĠrepeatĠpurchaseĠà¦ķà¦®Ġà¦¹à¦²à§ĩĠcreative/message,Ġaudience,Ġoffer,Ġprice,Ġtrust,ĠproductĠinformation,ĠresponseĠspeed,ĠdeliveryĠà¦ıà¦¬à¦ĤĠreturn/cancellationâĢĶà¦ªà§įà¦°à¦¤à¦¿à¦Łà¦¿Ġà¦¸à¦®à§įà¦Ńà¦¾à¦¬à§įà¦¯ĠbottleneckĠà¦Ĩà¦²à¦¾à¦¦à¦¾Ġà¦ķà¦°à§ģà¦¨à¥¤ĠčĊ": 3272,
      "-à¦ıĠà¦ķà¦¾à¦ľĠà¦ķà¦°à¦Ľà¦¿à¥¤Ġà¦¸à¦®à¦¸à§įà¦¯à¦¾:ĠrepeatĠpurchase": 3273,
      "-à¦ıĠà¦ķà¦¾à¦ľĠà¦ķà¦°à¦Ľà¦¿à¥¤Ġà¦¸à¦®à¦¸à§įà¦¯à¦¾:ĠcompetitorĠà¦ķà¦®Ġà¦¦à¦¾à¦®à§ĩĠà¦¬à¦¿à¦ķà§įà¦°à¦¿Ġà¦ķà¦°à¦Ľ": 3274,
      "-à¦ıĠà¦ķà¦¾à¦ľĠà¦ķà¦°à¦Ľà¦¿à¥¤Ġà¦¸à¦®à¦¸à§įà¦¯à¦¾:ĠproductĠpage-à¦ıĠtrafficĠà¦Ĩà¦Ľà§ĩĠà¦ķà¦¿à¦¨à§įà¦¤à§ģĠcheckout": 3275,
      "-à¦ıĠà¦ķà¦¾à¦ľĠà¦ķà¦°à¦Ľà¦¿à¥¤Ġà¦¸à¦®à¦¸à§įà¦¯à¦¾:ĠCPAĠà¦¬à§ĩà§ľà§ĩĠà¦Ĺ": 3276,
      "Ġà¦ķà§ĭà¦¨Ġstage-à¦ıà¦°ĠsignalĠà¦¸à§ĩà¦Łà¦¿Ġà¦Ĩà¦Ĺà§ĩĠà¦¨à¦¿à¦°à§įà¦§à¦¾à¦°à¦£Ġà¦ķà¦°à§ģà¦¨à¥¤ĠcompetitorĠà¦ķà¦®Ġà¦¦à¦¾à¦®à§ĩĠà¦¬à¦¿à¦ķà§įà¦°à¦¿Ġà¦ķà¦°à¦Ľ": 3277,
      "Ġà¦ķà§ĭà¦¨Ġstage-à¦ıà¦°ĠsignalĠà¦¸à§ĩà¦Łà¦¿Ġà¦Ĩà¦Ĺà§ĩĠà¦¨à¦¿à¦°à§įà¦§à¦¾à¦°à¦£Ġà¦ķà¦°à§ģà¦¨à¥¤ĠproductĠpage-à¦ıĠtrafficĠà¦Ĩà¦Ľà§ĩĠà¦ķà¦¿à¦¨à§įà¦¤à§ģĠcheckout": 3278,
      "Ġà¦ķà§ĭà¦¨Ġstage-à¦ıà¦°ĠsignalĠà¦¸à§ĩà¦Łà¦¿Ġà¦Ĩà¦Ĺà§ĩĠà¦¨à¦¿à¦°à§įà¦§à¦¾à¦°à¦£Ġà¦ķà¦°à§ģà¦¨à¥¤ĠCPAĠà¦¬à§ĩà§ľà§ĩĠà¦Ĺà§ĩà¦Ľà§ĩĠà¦¹à¦²à§ĩĠcreative/message,Ġaudience,Ġoffer,Ġprice,Ġtrust,ĠproductĠinformation,ĠresponseĠspeed,ĠdeliveryĠà¦ıà¦¬à¦ĤĠreturn/cancellationâĢĶà¦ªà§įà¦°à¦¤à¦¿à¦Łà¦¿Ġà¦¸à¦®à§įà¦Ńà¦¾à¦¬à§įà¦¯ĠbottleneckĠà¦Ĩà¦²à¦¾à¦¦à¦¾Ġà¦ķà¦°à§ģà¦¨à¥¤ĠčĊ": 3279,
      "-à¦ıĠà¦ķà¦¾à¦ľĠà¦ķà¦°à¦Ľà¦¿à¥¤Ġà¦¸à¦®à¦¸à§įà¦¯à¦¾:ĠcompetitorĠà¦ķà¦®Ġà¦¦à¦¾à¦®à§ĩĠà¦¬à¦¿à¦ķà§įà¦°à¦¿Ġà¦ķà¦°à¦Ľà§ĩ": 3280,
      "-à¦ıĠà¦ķà¦¾à¦ľĠà¦ķà¦°à¦Ľà¦¿à¥¤Ġà¦¸à¦®à¦¸à§įà¦¯à¦¾:ĠCPAĠà¦¬à§ĩà§ľà§ĩĠà¦Ĺà§ĩà¦Ľà§ĩ": 3281,
      "Ġà¦ķà§ĭà¦¨Ġstage-à¦ıà¦°ĠsignalĠà¦¸à§ĩà¦Łà¦¿Ġà¦Ĩà¦Ĺà§ĩĠà¦¨à¦¿à¦°à§įà¦§à¦¾à¦°à¦£Ġà¦ķà¦°à§ģà¦¨à¥¤ĠcompetitorĠà¦ķà¦®Ġà¦¦à¦¾à¦®à§ĩĠà¦¬à¦¿à¦ķà§įà¦°à¦¿Ġà¦ķà¦°à¦Ľà§ĩĠà¦¹à¦²à§ĩĠcreative/message,Ġaudience,Ġoffer,Ġprice,Ġtrust,ĠproductĠinformation,ĠresponseĠspeed,ĠdeliveryĠà¦ıà¦¬à¦ĤĠreturn/cancellationâĢĶà¦ªà§įà¦°à¦¤à¦¿à¦Łà¦¿Ġà¦¸à¦®à§įà¦Ńà¦¾à¦¬à§įà¦¯ĠbottleneckĠà¦Ĩà¦²à¦¾à¦¦à¦¾Ġà¦ķà¦°à§ģà¦¨à¥¤ĠčĊ": 3282,
      "Ġà¦ķà§ĭà¦¨Ġstage-à¦ıà¦°ĠsignalĠà¦¸à§ĩà¦Łà¦¿Ġà¦Ĩà¦Ĺà§ĩĠà¦¨à¦¿à¦°à§įà¦§à¦¾à¦°à¦£Ġà¦ķà¦°à§ģà¦¨à¥¤ĠproductĠpage-à¦ıĠtrafficĠà¦Ĩà¦Ľà§ĩĠà¦ķà¦¿à¦¨à§įà¦¤à§ģĠcheckoutĠà¦ķà¦®Ġà¦¹à¦²à§ĩĠcreative/message,Ġaudience,Ġoffer,Ġprice,Ġtrust,ĠproductĠinformation,ĠresponseĠspeed,ĠdeliveryĠà¦ıà¦¬à¦ĤĠreturn/cancellationâĢĶà¦ªà§įà¦°à¦¤à¦¿à¦Łà¦¿Ġà¦¸à¦®à§įà¦Ńà¦¾à¦¬à§įà¦¯ĠbottleneckĠà¦Ĩà¦²à¦¾à¦¦à¦¾Ġà¦ķà¦°à§ģà¦¨à¥¤ĠčĊ": 3283,
      "={": 3284,
      "ea": 3285,
      "à¦¨à§įà¦§": 3286,
      "Ġrec": 3287,
      "Ġhandmade/localĠproducts": 3288,
      "Ġà¦ķà¦°à¦¾à¦°Ġà¦ľà¦¨à§įà¦¯": 3289,
      "pea": 3290,
      "¯à§įà¦¯": 3291,
      "ĠmobileĠaccessories": 3292,
      "à¦¦à§įà¦§": 3293,
      "CPA-à¦ķà§ĩĠbusinessĠoutcomeĠà¦¥à§ĩà¦ķà§ĩĠà¦¬à¦¿à¦ļà§įà¦Ľà¦¿à¦¨à§įà¦¨Ġà¦ķà¦°à¦¬à§ĩà¦¨Ġà¦¨à¦¾à¥¤Ġà¦ıà¦ķà¦Łà¦¿ĠsimpleĠfunnelĠsheetĠà¦°à¦¾à¦ĸà§ģà¦¨:ĠspendĠâĨĴĠimpressions/reachĠâĨĴĠclicksĠâĨĴĠqualifiedĠleads/messagesĠâĨĴĠordersĠâĨĴĠdeliveredĠordersĠâĨĴĠrevenueĠâĨĴĠvariableĠcostsĠâĨĴĠcontributionĠprofità¥¤ĠčĊ": 3294,
      "Ġà¦īà¦ªà¦¾à¦¦": 3295,
      "Ġtr": 3296,
      "Ġà¦ķà¦°à¦¿": 3297,
      "à§Ģà¦ľà¦Ĺ": 3298,
      ",Ġrepea": 3299,
      "Ġbaby-careĠaccessories": 3300,
      "alidate": 3301,
      "à§Ģà¦ľà¦Ĺà¦¾à¦£à¦¿à¦¤à¦¿à¦ķ": 3302,
      ",ĠrepeatedĠ": 3303,
      "à¦¡": 3304,
      "à¦¾à¦ģ": 3305,
      "à¦®à¦¨": 3306,
      "à§ĩà¦¬à§ĩà¦¨Ġà¦¨à¦¾": 3307,
      "::::::::::::::::": 3308,
      "à¦¾à¦¯à§įà¦¯": 3309,
      "à§ģà¦ģ": 3310,
      "Ġà¦ħà¦¬à¦¸à§įà¦¥": 3311,
      "à¦¾à¦¹à¦¾à¦¯à§įà¦¯": 3312,
      "à§ĭà¦ľà¦¨": 3313,
      "à¥¤Ġà¦Ĩà¦®à¦¿ĠLTVĠà¦¦à§ĩà¦ĸà¦Ľà¦¿à¥¤Ġà¦ķà§Ģà¦Ńà¦¾à¦¬à§ĩĠdiagnosisĠà¦ķà¦°à¦¬?čĊ": 3314,
      "Ġà¦ªà§įà¦°à¦¯à§ģà¦ķà§įà¦¤": 3315,
      "uth": 3316,
      "à¦¬à§įà¦¦": 3317,
      "à§Ģà¦¨": 3318,
      "-à¦ķà§ĩĠmarket": 3319,
      "Ġtruth": 3320,
      "-à¦ķà§ĩĠmarketĠtruth": 3321,
      "Ġà¦¬à§Ģà¦ľà¦Ĺà¦¾à¦£à¦¿à¦¤à¦¿à¦ķ": 3322,
      "Ġà¦¨à¦¿à¦¯à¦¼": 3323,
      "Ġà¦ıà¦ĩ": 3324,
      "Ġà¦ķà¦°à¦¾Ġà¦¹à¦¯à¦¼": 3325,
      "Ġà§«à§¦,à§¦à§¦à§¦Ġà¦Łà¦¾à¦ķà¦¾à¥¤Ġà¦²à¦ķà§įà¦·à§įà¦¯": 3326,
      "Ġà¦¨à¦¿à§Łà§ĩĠà¦¬à§įà¦¯à¦¬à¦¸à¦¾Ġà¦¶à§ģà¦°à§ģĠà¦ķà¦°à¦¤à§ĩĠà¦ļà¦¾à¦ĩà¥¤Ġà¦¬à¦¾à¦ľà§ĩà¦ŁĠà§«à§¦,à§¦à§¦à§¦Ġà¦Łà¦¾à¦ķà¦¾à¥¤Ġà¦²à¦ķà§įà¦·à§įà¦¯": 3327,
      "Ġà¦ľà§Ģà¦¬à¦¨": 3328,
      "Ġà¦īà§İà¦ªà¦¾à¦¦": 3329,
      "Ġà¦īà¦ªà¦¾à¦¦à¦¾à¦¨": 3330,
      "xÂ²": 3331,
      "-à¦ıà¦°Ġà¦ľà¦¨à§įà¦¯Ġ": 3332,
      "à¦¿à¦¶à§įà¦²à§ĩà¦·à¦£": 3333,
      "à¥¤Ġà¦Ĩà¦®à¦¿ĠCACĠà¦¦à§ĩà¦ĸà¦Ľà¦¿à¥¤Ġà¦ķà§Ģà¦Ńà¦¾à¦¬à§ĩĠdiagnosisĠà¦ķà¦°à¦¬?čĊ": 3334,
      "Ġà¦ªà§įà¦°à¦¾à¦¯à¦¼": 3335,
      "Ġà¦ķà¦°à§ģà¦¨à¥¤Ġ": 3336,
      "CTRĠà¦ķà¦®Ġà¦¹à¦²à§ĩĠcreative/message,Ġaudience,Ġoffer,Ġprice,Ġtrust,ĠproductĠinformation,ĠresponseĠspeed,ĠdeliveryĠà¦ıà¦¬à¦ĤĠreturn/cancellationâĢĶà¦ªà§įà¦°à¦¤à¦¿à¦Łà¦¿Ġà¦¸à¦®à§įà¦Ńà¦¾à¦¬à§įà¦¯ĠbottleneckĠà¦Ĩà¦²à¦¾à¦¦à¦¾Ġà¦ķà¦°à§ģà¦¨à¥¤ĠčĊ": 3337,
      "à¥¤Ġà¦Ĩà¦®à¦¿ĠCPCĠà¦¦à§ĩà¦ĸà¦Ľà¦¿à¥¤Ġà¦ķà§Ģà¦Ńà¦¾à¦¬à§ĩĠdiagnosisĠà¦ķà¦°à¦¬?čĊ": 3338,
      "Ġà¦ķà§ĭà¦¨Ġstage-à¦ıà¦°ĠsignalĠà¦¸à§ĩà¦Łà¦¿Ġà¦Ĩà¦Ĺà§ĩĠà¦¨à¦¿à¦°à§įà¦§à¦¾à¦°à¦£Ġà¦ķà¦°à§ģà¦¨à¥¤ĠCTRĠà¦ķà¦®Ġà¦¹à¦²à§ĩĠcreative/message,Ġaudience,Ġoffer,Ġprice,Ġtrust,ĠproductĠinformation,ĠresponseĠspeed,ĠdeliveryĠà¦ıà¦¬à¦ĤĠreturn/cancellationâĢĶà¦ªà§įà¦°à¦¤à¦¿à¦Łà¦¿Ġà¦¸à¦®à§įà¦Ńà¦¾à¦¬à§įà¦¯ĠbottleneckĠà¦Ĩà¦²à¦¾à¦¦à¦¾Ġà¦ķà¦°à§ģà¦¨à¥¤ĠčĊ": 3339,
      "-à¦ıĠà¦ķà¦¾à¦ľĠà¦ķà¦°à¦Ľà¦¿à¥¤Ġà¦¸à¦®à¦¸à§įà¦¯à¦¾:ĠCTRĠà¦ķà¦®": 3340,
      ",Ġà¦¬à¦¿à¦ķà§įà¦°à¦¯à¦¼": 3341,
      "Ġà¦¨à¦¿à§Łà§ĩĠà¦¬à§įà¦¯à¦¬à¦¸à¦¾Ġà¦¶à§ģà¦°à§ģĠà¦ķà¦°à¦¤à§ĩĠà¦ļà¦¾à¦ĩà¥¤Ġà¦¬à¦¾à¦ľà§ĩà¦ŁĠà§§à§¦,à§¦à§¦à§¦Ġà¦Łà¦¾à¦ķà¦¾à¥¤Ġà¦²à¦ķà§įà¦·à§įà¦¯": 3342,
      "Ġà¦¦à§ģà¦Łà¦¿": 3343,
      ",Ġà¦¯à¦¾": 3344,
      "=(": 3345,
      "message": 3346,
      "ĩĴ": 3347,
      "Ġà¦¸à¦°à§įà¦¬": 3348,
      "ĠbuyerĠà¦ıà¦ķà¦ľà¦¨Ġbuyer": 3349,
      "ĠmessageĠà¦Ĩà¦¸à§ĩĠà¦ķà¦¿à¦¨à§įà¦¤à§ģĠorderĠà¦¹à§ŁĠà¦¨à¦¾": 3350,
      "Ġà¦ķà§ĭà¦¨ĠnicheĠà¦¨à§ĩà¦¬Ġà¦¬à§ģà¦Ŀà¦¤à§ĩĠà¦ªà¦¾à¦°à¦Ľà¦¿Ġà¦¨à¦¾": 3351,
      "-à¦ıĠofferĠcontentĠà¦¬à¦¾à¦¨à¦¾à¦¤à§ĩĠà¦ļà¦¾à¦ĩà¥¤Ġà¦²à¦ķà§įà¦·à§įà¦¯ĠrepeatĠpurchaseà¥¤Ġà¦ķà§Ģà¦Ńà¦¾à¦¬à§ĩĠà¦²à¦¿à¦ĸà¦¬?čĊ": 3352,
      "Ġà¦ķà§ĭà¦¨Ġstage-à¦ıà¦°ĠsignalĠà¦¸à§ĩà¦Łà¦¿Ġà¦Ĩà¦Ĺà§ĩĠà¦¨à¦¿à¦°à§įà¦§à¦¾à¦°à¦£Ġà¦ķà¦°à§ģà¦¨à¥¤Ġà¦ķà§ĭà¦¨": 3353,
      "Ġà¦ķà§ĭà¦¨Ġstage-à¦ıà¦°ĠsignalĠà¦¸à§ĩà¦Łà¦¿Ġà¦Ĩà¦Ĺà§ĩĠà¦¨à¦¿à¦°à§įà¦§à¦¾à¦°à¦£Ġà¦ķà¦°à§ģà¦¨à¥¤Ġmessage": 3354,
      "à§ĥà¦£": 3355,
      "-à¦ıĠà¦ķà¦¾à¦ľĠà¦ķà¦°à¦Ľà¦¿à¥¤Ġà¦¸à¦®à¦¸à§įà¦¯à¦¾:ĠmessageĠà¦Ĩà¦¸à§ĩĠà¦ķà¦¿à¦¨à§įà¦¤à§ģĠorderĠà¦¹à§ŁĠà¦¨à¦¾": 3356,
      "-à¦ıĠà¦ķà¦¾à¦ľĠà¦ķà¦°à¦Ľà¦¿à¥¤Ġà¦¸à¦®à¦¸à§įà¦¯à¦¾:Ġà¦ķà§ĭà¦¨ĠnicheĠà¦¨à§ĩà¦¬Ġà¦¬à§ģà¦Ŀà¦¤à§ĩĠà¦ªà¦¾à¦°à¦Ľà¦¿Ġà¦¨à¦¾": 3357,
      "repeatĠpurchaseĠrate-à¦ķà§ĩĠbusinessĠoutcomeĠà¦¥à§ĩà¦ķà§ĩĠà¦¬à¦¿à¦ļà§įà¦Ľà¦¿à¦¨à§įà¦¨Ġà¦ķà¦°à¦¬à§ĩà¦¨Ġà¦¨à¦¾à¥¤Ġà¦ıà¦ķà¦Łà¦¿ĠsimpleĠfunnelĠsheetĠà¦°à¦¾à¦ĸà§ģà¦¨:ĠspendĠâĨĴĠimpressions/reachĠâĨĴĠclicksĠâĨĴĠqualifiedĠleads/messagesĠâĨĴĠordersĠâĨĴĠdeliveredĠordersĠâĨĴĠrevenueĠâĨĴĠvariableĠcostsĠâĨĴĠcontributionĠprofità¥¤ĠčĊ": 3358,
      "Ġà¦Ĩà¦¸à§ĩĠà¦ķà¦¿à¦¨à§įà¦¤à§ģĠorderĠà¦¹à§ŁĠà¦¨à¦¾Ġà¦¹à¦²à§ĩĠcreative/message,Ġaudience,Ġoffer,Ġprice,Ġtrust,ĠproductĠinformation,ĠresponseĠspeed,ĠdeliveryĠà¦ıà¦¬à¦ĤĠreturn/cancellationâĢĶà¦ªà§įà¦°à¦¤à¦¿à¦Łà¦¿Ġà¦¸à¦®à§įà¦Ńà¦¾à¦¬à§įà¦¯ĠbottleneckĠà¦Ĩà¦²à¦¾à¦¦à¦¾Ġà¦ķà¦°à§ģà¦¨à¥¤ĠčĊ": 3359,
      "ĠnicheĠà¦¨à§ĩà¦¬Ġà¦¬à§ģà¦Ŀà¦¤à§ĩĠà¦ªà¦¾à¦°à¦Ľà¦¿Ġà¦¨à¦¾Ġà¦¹à¦²à§ĩĠcreative/message,Ġaudience,Ġoffer,Ġprice,Ġtrust,ĠproductĠinformation,ĠresponseĠspeed,ĠdeliveryĠà¦ıà¦¬à¦ĤĠreturn/cancellationâĢĶà¦ªà§įà¦°à¦¤à¦¿à¦Łà¦¿Ġà¦¸à¦®à§įà¦Ńà¦¾à¦¬à§įà¦¯ĠbottleneckĠà¦Ĩà¦²à¦¾à¦¦à¦¾Ġà¦ķà¦°à§ģà¦¨à¥¤ĠčĊ": 3360,
      "Ġà¦¦à§įà¦¬à¦¾à¦°à¦¾": 3361,
      "Ġà¦ķà§ĭà¦¨Ġstage-à¦ıà¦°ĠsignalĠà¦¸à§ĩà¦Łà¦¿Ġà¦Ĩà¦Ĺà§ĩĠà¦¨à¦¿à¦°à§įà¦§à¦¾à¦°à¦£Ġà¦ķà¦°à§ģà¦¨à¥¤Ġà¦ķà§ĭà¦¨ĠnicheĠà¦¨à§ĩà¦¬Ġà¦¬à§ģà¦Ŀà¦¤à§ĩĠà¦ªà¦¾à¦°à¦Ľà¦¿Ġà¦¨à¦¾Ġà¦¹à¦²à§ĩĠcreative/message,Ġaudience,Ġoffer,Ġprice,Ġtrust,ĠproductĠinformation,ĠresponseĠspeed,ĠdeliveryĠà¦ıà¦¬à¦ĤĠreturn/cancellationâĢĶà¦ªà§įà¦°à¦¤à¦¿à¦Łà¦¿Ġà¦¸à¦®à§įà¦Ńà¦¾à¦¬à§įà¦¯ĠbottleneckĠà¦Ĩà¦²à¦¾à¦¦à¦¾Ġà¦ķà¦°à§ģà¦¨à¥¤ĠčĊ": 3362,
      "Ġà¦ķà§ĭà¦¨Ġstage-à¦ıà¦°ĠsignalĠà¦¸à§ĩà¦Łà¦¿Ġà¦Ĩà¦Ĺà§ĩĠà¦¨à¦¿à¦°à§įà¦§à¦¾à¦°à¦£Ġà¦ķà¦°à§ģà¦¨à¥¤ĠmessageĠà¦Ĩà¦¸à§ĩĠà¦ķà¦¿à¦¨à§įà¦¤à§ģĠorderĠà¦¹à§ŁĠà¦¨à¦¾Ġà¦¹à¦²à§ĩĠcreative/message,Ġaudience,Ġoffer,Ġprice,Ġtrust,ĠproductĠinformation,ĠresponseĠspeed,ĠdeliveryĠà¦ıà¦¬à¦ĤĠreturn/cancellationâĢĶà¦ªà§įà¦°à¦¤à¦¿à¦Łà¦¿Ġà¦¸à¦®à§įà¦Ńà¦¾à¦¬à§įà¦¯ĠbottleneckĠà¦Ĩà¦²à¦¾à¦¦à¦¾Ġà¦ķà¦°à§ģà¦¨à¥¤ĠčĊ": 3363,
      "Ġà¦¯à¦¾à§Ł": 3364,
      "Ġà¦ħà¦°à§įà¦¥": 3365,
      "à§ĩĠà¦¸à¦®": 3366,
      "à¥¤Ġà¦Ĩà¦®à¦¿ĠCPAĠà¦¦à§ĩà¦ĸà¦Ľà¦¿à¥¤Ġà¦ķà§Ģà¦Ńà¦¾à¦¬à§ĩĠdiagnosisĠà¦ķà¦°à¦¬?čĊ": 3367,
      "Ġà¦¬à§Ģà¦ľà¦Ĺà¦¾à¦£à¦¿à¦¤à¦¿à¦ķĠà¦°à¦¾à¦¶à¦¿": 3368,
      "à¦¾à¦Ĥà¦¶": 3369,
      "à§ģà¦ķ": 3370,
      "Ġà¦Ĺà§įà¦°": 3371,
      "à¦ıà¦ıà¦ıà¦ı": 3372,
      ",Ġà¦¬à¦¿à¦ķà§įà¦°à¦¯à¦¼,Ġà¦¬à¦¿à¦ķà§įà¦°à¦¯à¦¼": 3373,
      "12": 3374,
      "Ġà¦ķà¦¥": 3375,
      "à¦¿à¦ķà¦¾à¦°": 3376,
      "à¦ªà§įà¦°à¦¶à§įà¦¨:Ġà¦ħà¦§à§įà¦¯à¦¾à§ŁĠà§§:Ġà¦¬à¦¾à¦¸à§įà¦¤à¦¬Ġà¦¸à¦Ĥà¦ĸà§įà¦¯à¦¾": 3377,
      "=5": 3378,
      "ĠdemonstrationĠcontentĠà¦¬à¦¾à¦¨à¦¾à¦¤à§ĩĠà¦ļà¦¾à¦ĩà¥¤Ġà¦²à¦ķà§įà¦·à§įà¦¯Ġà¦ªà§įà¦°à¦¥à¦®Ġà§§à§¦à§¦Ġorderà¥¤Ġà¦ķà§Ģà¦Ńà¦¾à¦¬à§ĩĠà¦²à¦¿à¦ĸà¦¬?čĊ": 3379,
      "Ġà¦¸à§Ĥà¦¤à§įà¦°": 3380,
      "à¦ªà§įà¦°à¦¶à§įà¦¨:Ġà¦ħà¦§à§įà¦¯à¦¾à§ŁĠà§©:Ġà¦¬à§Ģà¦ľà¦Ĺà¦¾à¦£à¦¿à¦¤à¦¿à¦ķĠà¦°à¦¾à¦¶à¦¿": 3381,
      "à¦ªà§įà¦°à¦¶à§įà¦¨:Ġà¦ħà¦§à§įà¦¯à¦¾à§ŁĠà§©:Ġà¦¬à§Ģà¦ľà¦Ĺà¦¾à¦£à¦¿à¦¤à¦¿à¦ķĠà¦°à¦¾à¦¶à¦¿ĠâĢĶ": 3382,
      "à§ĩà¦°Ġà¦¸à¦¾à¦¥": 3383,
      "à§ĩà¦Ľà§ĩà¥¤čĊ": 3384,
      ",Ġà¦Ĩà¦®à¦¿": 3385,
      "à¦¾,": 3386,
      "à¦¨à§įà¦Łà¦¾à¦°": 3387,
      "à§ĩĠà¦ĺ": 3388,
      "à§ĩà¦ª": 3389,
      "à¦¾à¦¨à¦¿": 3390,
      "Ġà¦ıà¦ķà¦Łà¦¿Ġà¦¸": 3391,
      "ĠconversionĠrate": 3392,
      "Ġà¦ĸà§ĩà¦²": 3393,
      "conversionĠrate-à¦ķà§ĩĠbusinessĠoutcomeĠà¦¥à§ĩà¦ķà§ĩĠà¦¬à¦¿à¦ļà§įà¦Ľà¦¿à¦¨à§įà¦¨Ġà¦ķà¦°à¦¬à§ĩà¦¨Ġà¦¨à¦¾à¥¤Ġà¦ıà¦ķà¦Łà¦¿ĠsimpleĠfunnelĠsheetĠà¦°à¦¾à¦ĸà§ģà¦¨:ĠspendĠâĨĴĠimpressions/reachĠâĨĴĠclicksĠâĨĴĠqualifiedĠleads/messagesĠâĨĴĠordersĠâĨĴĠdeliveredĠordersĠâĨĴĠrevenueĠâĨĴĠvariableĠcostsĠâĨĴĠcontributionĠprofità¥¤ĠčĊ": 3394,
      "Ńà¦¬": 3395,
      "Ńà§Ĥ": 3396,
      "à¥¤Ġà¦ıà¦°": 3397,
      "Ġà¦¬à¦¾à¦ķà§įà¦¯": 3398,
      ",Ġà¦ıà¦¬à¦Ĥ": 3399,
      "Ġà¦ķà¦°à¦¤à§ĩĠà¦ªà¦¾à¦°à§ĩ": 3400,
      "Ġà¦ħà¦¬": 3401,
      "à¥¤Ġà¦ıà¦°à¦ªà¦°": 3402,
      "CPC-à¦ķà§ĩĠbusinessĠoutcomeĠà¦¥à§ĩà¦ķà§ĩĠà¦¬à¦¿à¦ļà§įà¦Ľà¦¿à¦¨à§įà¦¨Ġà¦ķà¦°à¦¬à§ĩà¦¨Ġà¦¨à¦¾à¥¤Ġà¦ıà¦ķà¦Łà¦¿ĠsimpleĠfunnelĠsheetĠà¦°à¦¾à¦ĸà§ģà¦¨:ĠspendĠâĨĴĠimpressions/reachĠâĨĴĠclicksĠâĨĴĠqualifiedĠleads/messagesĠâĨĴĠordersĠâĨĴĠdeliveredĠordersĠâĨĴĠrevenueĠâĨĴĠvariableĠcostsĠâĨĴĠcontributionĠprofità¥¤ĠčĊ": 3403,
      "ĠcomparisonĠcontentĠà¦¬à¦¾à¦¨à¦¾à¦¤à§ĩĠà¦ļà¦¾à¦ĩà¥¤Ġà¦²à¦ķà§įà¦·à§įà¦¯ĠprofitableĠacquisitionà¥¤Ġà¦ķà§Ģà¦Ńà¦¾à¦¬à§ĩĠà¦²à¦¿à¦ĸà¦¬?čĊ": 3404,
      "alĠ": 3405,
      "Ġà¦ªà¦¾à¦ĵ": 3406,
      "Ġà¦ªà¦°à¦¿à¦¬à§ĩà¦¶": 3407,
      "CTR-à¦ķà§ĩĠbusinessĠoutcomeĠà¦¥à§ĩà¦ķà§ĩĠà¦¬à¦¿à¦ļà§įà¦Ľà¦¿à¦¨à§įà¦¨Ġà¦ķà¦°à¦¬à§ĩà¦¨Ġà¦¨à¦¾à¥¤Ġà¦ıà¦ķà¦Łà¦¿ĠsimpleĠfunnelĠsheetĠà¦°à¦¾à¦ĸà§ģà¦¨:ĠspendĠâĨĴĠimpressions/reachĠâĨĴĠclicksĠâĨĴĠqualifiedĠleads/messagesĠâĨĴĠordersĠâĨĴĠdeliveredĠordersĠâĨĴĠrevenueĠâĨĴĠvariableĠcostsĠâĨĴĠcontributionĠprofità¥¤ĠčĊ": 3408,
      "ĺà§ĥà¦£": 3409,
      "à¦¿à¦Ń": 3410,
      "Ġmarket": 3411,
      "Ġà¦ªà§įà¦°à¦ķ": 3412,
      "Ġà¦¤à§ĭ": 3413,
      "à¦¾,Ġà¦ĺà§ĥà¦£": 3414,
      "Ġà¦īà§İà¦ªà¦¾à¦¦à¦ķ": 3415,
      "à§ĩĠà¦Ĩà¦®": 3416,
      "à¦¿à¦¹": 3417,
      "ĠcompetitorĠ": 3418,
      "Ġà¦¬à¦¾à¦Ĥà¦²à¦¾à¦¦à§ĩà¦¶à§ĩà¦°": 3419,
      "à¦¨à¦¿à¦ķ": 3420,
      "Ġà¦¨à¦¯à¦¼": 3421,
      "Ġà§©à§¦,à§¦à§¦à§¦Ġà¦Łà¦¾à¦ķà¦¾à¥¤Ġà¦²à¦ķà§įà¦·à§įà¦¯": 3422,
      "Ġà¦¨à¦¿à§Łà§ĩĠà¦¬à§įà¦¯à¦¬à¦¸à¦¾Ġà¦¶à§ģà¦°à§ģĠà¦ķà¦°à¦¤à§ĩĠà¦ļà¦¾à¦ĩà¥¤Ġà¦¬à¦¾à¦ľà§ĩà¦ŁĠà§©à§¦,à§¦à§¦à§¦Ġà¦Łà¦¾à¦ķà¦¾à¥¤Ġà¦²à¦ķà§įà¦·à§įà¦¯": 3423,
      "à¦¾,Ġà¦ĺà§ĥà¦£à¦¾,Ġà¦ĺà§ĥà¦£": 3424,
      "ľà¦¾à¦¨": 3425,
      "à§ĩĠà¦ªà¦¾à¦°": 3426,
      "à¦¸à§įà¦¯": 3427,
      "baby-careĠaccessories-à¦ıà¦°ĠcontributionĠmarginĠà¦¬à§ĩà¦°Ġà¦ķà¦°à§ģà¦¨:ĠsellingĠpriceĠà¦¥à§ĩà¦ķà§ĩĠproductĠcost,Ġpackaging,ĠdeliveryĠsubsidy,ĠexpectedĠreturn/cancellation,Ġpayment/transactionĠcostĠà¦ıà¦¬à¦ĤĠà¦ħà¦¨à§įà¦¯à¦¾à¦¨à§įà¦¯ĠvariableĠfulfillmentĠcostĠà¦¬à¦¾à¦¦Ġà¦¦à¦¿à¦¨à¥¤Ġà¦ıà¦°à¦ªà¦°ĠacquisitionĠcost-à¦ıà¦°Ġà¦¸à¦Ļà§įà¦Ĺà§ĩĠà¦¤à§ģà¦²à¦¨à¦¾Ġà¦ķà¦°à§ģà¦¨à¥¤ĠčĊ": 3428,
      "ĠFAQĠcontentĠà¦¬à¦¾à¦¨à¦¾à¦¤à§ĩĠà¦ļà¦¾à¦ĩà¥¤Ġà¦²à¦ķà§įà¦·à§įà¦¯Ġà¦ªà§įà¦°à¦¥à¦®Ġsaleà¥¤Ġà¦ķà§Ģà¦Ńà¦¾à¦¬à§ĩĠà¦²à¦¿à¦ĸà¦¬?čĊ": 3429,
      "Ġà¦ªà§įà¦°à¦¥à¦®Ġsaleà¥¤Ġà¦ķà§ĭà¦¨à¦Ńà¦¾à¦¬à§ĩĠà¦¸à¦¿à¦¦à§įà¦§à¦¾à¦¨à§įà¦¤Ġà¦¨à§ĩà¦¬?čĊ": 3430,
      "Ġà¦ªà§įà¦°à¦¥à¦®Ġsale-à¦ıà¦°Ġà¦ľà¦¨à§įà¦¯Ġà¦ıà¦ķà¦Łà¦¿ĠprimaryĠmetricĠà¦łà¦¿à¦ķĠà¦ķà¦°à§ģà¦¨âĢĶà¦¯à§ĩà¦®à¦¨ĠdeliveredĠorder,ĠqualifiedĠleadĠà¦¬à¦¾ĠcontributionĠprofità¥¤ĠčĊ": 3431,
      "§à§įà¦¯à¦®Ġà¦¬à¦¾à¦ľà§ĩà¦Łà§ĩà¦°ĠonlineĠshopperĠà¦ıà¦ķà¦ľà¦¨Ġbuyer": 3432,
      "Ġà¦°à¦¾à¦ĸ": 3433,
      "à¦®à¦§à§įà¦¯à¦®Ġà¦¬à¦¾à¦ľà§ĩà¦Łà§ĩà¦°ĠonlineĠshopperĠà¦ıà¦ķà¦ľà¦¨Ġbuyer": 3434,
      "Ġ-ĠxĠ-Ġx": 3435,
      "Ġà¦¸à¦¾à¦®": 3436,
      "ableĠà¦¤à§ĭ": 3437,
      "ĠsuitableĠà¦¤à§ĭ": 3438,
      "CPM-à¦ķà§ĩĠbusinessĠoutcomeĠà¦¥à§ĩà¦ķà§ĩĠà¦¬à¦¿à¦ļà§įà¦Ľà¦¿à¦¨à§įà¦¨Ġà¦ķà¦°à¦¬à§ĩà¦¨Ġà¦¨à¦¾à¥¤Ġà¦ıà¦ķà¦Łà¦¿ĠsimpleĠfunnelĠsheetĠà¦°à¦¾à¦ĸà§ģà¦¨:ĠspendĠâĨĴĠimpressions/reachĠâĨĴĠclicksĠâĨĴĠqualifiedĠleads/messagesĠâĨĴĠordersĠâĨĴĠdeliveredĠordersĠâĨĴĠrevenueĠâĨĴĠvariableĠcostsĠâĨĴĠcontributionĠprofità¥¤ĠčĊ": 3439,
      "à¦¾à¦°Ġà¦ľà¦¨à§įà¦¯ĠsuitableĠà¦¤à§ĭ": 3440,
      "à¦Ĩà¦®à¦¾à¦°Ġà¦ľà¦¨à§įà¦¯ĠsuitableĠà¦¤à§ĭ": 3441,
      "à¥¤Ġà¦ħà¦¤": 3442,
      "à¦Ĩà¦®à¦¾à¦°Ġà¦ľà¦¨à§įà¦¯ĠsuitableĠà¦¤à§ĭ?âĢĿà¥¤Ġà¦Ĩà¦®à¦¿Ġà¦ķà§Ģà¦Ńà¦¾à¦¬à§ĩĠconversion-à¦ıà¦°Ġà¦¦à¦¿à¦ķà§ĩĠethicalĠconversationĠà¦ļà¦¾à¦²à¦¾à¦¬?čĊ": 3443,
      "Ġà¦ķà¦¾à¦°": 3444,
      "Ġà¦¬à§ĥ": 3445,
      "Ġà¦¬à§įà¦¯à¦ķà§įà¦¤": 3446,
      "ROAS-à¦ķà§ĩĠbusinessĠoutcomeĠà¦¥à§ĩà¦ķà§ĩĠà¦¬à¦¿à¦ļà§įà¦Ľà¦¿à¦¨à§įà¦¨Ġà¦ķà¦°à¦¬à§ĩà¦¨Ġà¦¨à¦¾à¥¤Ġà¦ıà¦ķà¦Łà¦¿ĠsimpleĠfunnelĠsheetĠà¦°à¦¾à¦ĸà§ģà¦¨:ĠspendĠâĨĴĠimpressions/reachĠâĨĴĠclicksĠâĨĴĠqualifiedĠleads/messagesĠâĨĴĠordersĠâĨĴĠdeliveredĠordersĠâĨĴĠrevenueĠâĨĴĠvariableĠcostsĠâĨĴĠcontributionĠprofità¥¤ĠčĊ": 3447,
      "à¦ħà¦¨à§įà¦¯": 3448,
      "à¥¤Ġà¦ªà§įà¦°à¦¤à¦¿à¦Łà¦¿": 3449,
      "-2": 3450,
      "ľà¦¾à¦¤": 3451,
      "à¦¾à¦ļ": 3452,
      "à§ģà¦¨à¦°": 3453,
      "Ġà¦¸à¦¾à¦°": 3454,
      "Ġà¦ķà¦®âĢĿà¥¤Ġà¦Ĩà¦®à¦¿Ġà¦ķà§Ģà¦Ńà¦¾à¦¬à§ĩĠconversion-à¦ıà¦°Ġà¦¦à¦¿à¦ķà§ĩĠethicalĠconversationĠà¦ļà¦¾à¦²à¦¾à¦¬?čĊ": 3455,
      "à¥¤Ġà¦ıà¦ķ": 3456,
      "Ġà¦§à¦¾à¦°à¦£": 3457,
      "à¦¾à¦ĩà¦²": 3458,
      "LTV-à¦ķà§ĩĠbusinessĠoutcomeĠà¦¥à§ĩà¦ķà§ĩĠà¦¬à¦¿à¦ļà§įà¦Ľà¦¿à¦¨à§įà¦¨Ġà¦ķà¦°à¦¬à§ĩà¦¨Ġà¦¨à¦¾à¥¤Ġà¦ıà¦ķà¦Łà¦¿ĠsimpleĠfunnelĠsheetĠà¦°à¦¾à¦ĸà§ģà¦¨:ĠspendĠâĨĴĠimpressions/reachĠâĨĴĠclicksĠâĨĴĠqualifiedĠleads/messagesĠâĨĴĠordersĠâĨĴĠdeliveredĠordersĠâĨĴĠrevenueĠâĨĴĠvariableĠcostsĠâĨĴĠcontributionĠprofità¥¤ĠčĊ": 3459,
      "Ġpage-à¦ıĠà¦ķà¦®âĢĿà¥¤Ġà¦Ĩà¦®à¦¿Ġà¦ķà§Ģà¦Ńà¦¾à¦¬à§ĩĠconversion-à¦ıà¦°Ġà¦¦à¦¿à¦ķà§ĩĠethicalĠconversationĠà¦ļà¦¾à¦²à¦¾à¦¬?čĊ": 3460,
      "ĠxĠxĠxĠxĠxĠxĠxĠxĠxĠxĠxĠxĠxĠxĠxĠx": 3461,
      "à¦ħà¦¨à§įà¦¯Ġpage-à¦ıĠà¦ķà¦®âĢĿà¥¤Ġà¦Ĩà¦®à¦¿Ġà¦ķà§Ģà¦Ńà¦¾à¦¬à§ĩĠconversion-à¦ıà¦°Ġà¦¦à¦¿à¦ķà§ĩĠethicalĠconversationĠà¦ļà¦¾à¦²à¦¾à¦¬?čĊ": 3462,
      "16": 3463,
      "à¦°à¦ļ": 3464,
      "à§ģà¦¬": 3465,
      "Ġà¦¦à§Ī": 3466,
      "Ġà¦¦à¦¶à¦®à¦¿à¦ķ": 3467,
      "the": 3468,
      "Ġà¦īà¦ªà¦°": 3469,
      "à¦¾à¦®Ġà¦¬à§ĩà¦¶à¦¿": 3470,
      "à¦¬à¦°à¦¾à¦¹": 3471,
      "à¥¤Ġà¦Ĩà¦®à¦¿ĠCTRĠà¦¦à§ĩà¦ĸà¦Ľà¦¿à¥¤Ġà¦ķà§Ģà¦Ńà¦¾à¦¬à§ĩĠdiagnosisĠà¦ķà¦°à¦¬?čĊ": 3472,
      "à¥¤Ġà¦Ĩà¦®à¦¿ĠCPMĠà¦¦à§ĩà¦ĸà¦Ľà¦¿à¥¤Ġà¦ķà§Ģà¦Ńà¦¾à¦¬à§ĩĠdiagnosisĠà¦ķà¦°à¦¬?čĊ": 3473,
      "ĠFAQĠcontentĠà¦¬à¦¾à¦¨à¦¾à¦¤à§ĩĠà¦ļà¦¾à¦ĩà¥¤Ġà¦²à¦ķà§įà¦·à§įà¦¯ĠrepeatĠpurchaseà¥¤Ġà¦ķà§Ģà¦Ńà¦¾à¦¬à§ĩĠà¦²à¦¿à¦ĸà¦¬?čĊ": 3474,
      "Ġproblem-solutionĠcontentĠà¦¬à¦¾à¦¨à¦¾à¦¤à§ĩĠà¦ļà¦¾à¦ĩà¥¤Ġà¦²à¦ķà§įà¦·à§įà¦¯ĠrepeatĠpurchaseà¥¤Ġà¦ķà§Ģà¦Ńà¦¾à¦¬à§ĩĠà¦²à¦¿à¦ĸà¦¬?čĊ": 3475,
      "Ġme": 3476,
      "à¦¦à¦¾à¦®Ġà¦¬à§ĩà¦¶à¦¿": 3477,
      "laptop/deskĠaccessories-à¦ıà¦°ĠcontributionĠmarginĠà¦¬à§ĩà¦°Ġà¦ķà¦°à§ģà¦¨:ĠsellingĠpriceĠà¦¥à§ĩà¦ķà§ĩĠproductĠcost,Ġpackaging,ĠdeliveryĠsubsidy,ĠexpectedĠreturn/cancellation,Ġpayment/transactionĠcostĠà¦ıà¦¬à¦ĤĠà¦ħà¦¨à§įà¦¯à¦¾à¦¨à§įà¦¯ĠvariableĠfulfillmentĠcostĠà¦¬à¦¾à¦¦Ġà¦¦à¦¿à¦¨à¥¤Ġà¦ıà¦°à¦ªà¦°ĠacquisitionĠcost-à¦ıà¦°Ġà¦¸à¦Ļà§įà¦Ĺà§ĩĠà¦¤à§ģà¦²à¦¨à¦¾Ġà¦ķà¦°à§ģà¦¨à¥¤ĠčĊ": 3478,
      "Ġà¦ĸà¦°à¦ļ": 3479,
      "à§Īà¦¤à¦¿à¦ķ": 3480,
      "à¦¯à§ĭà¦Ĺà§įà¦¯": 3481,
      "Ġà¦ļà¦²à¦ķ": 3482,
      "à¦¦à¦¾à¦®Ġà¦¬à§ĩà¦¶à¦¿âĢĿà¥¤Ġà¦Ĩà¦®à¦¿Ġà¦ķà§Ģà¦Ńà¦¾à¦¬à§ĩĠconversion-à¦ıà¦°Ġà¦¦à¦¿à¦ķà§ĩĠethicalĠconversationĠà¦ļà¦¾à¦²à¦¾à¦¬?čĊ": 3483,
      ",Ġcurrent": 3484,
      "à¦¬à§ĩà¦¨": 3485,
      "Ġà¦¶à¦¬à§įà¦¦": 3486,
      "CAC-à¦ķà§ĩĠbusinessĠoutcomeĠà¦¥à§ĩà¦ķà§ĩĠà¦¬à¦¿à¦ļà§įà¦Ľà¦¿à¦¨à§įà¦¨Ġà¦ķà¦°à¦¬à§ĩà¦¨Ġà¦¨à¦¾à¥¤Ġà¦ıà¦ķà¦Łà¦¿ĠsimpleĠfunnelĠsheetĠà¦°à¦¾à¦ĸà§ģà¦¨:ĠspendĠâĨĴĠimpressions/reachĠâĨĴĠclicksĠâĨĴĠqualifiedĠleads/messagesĠâĨĴĠordersĠâĨĴĠdeliveredĠordersĠâĨĴĠrevenueĠâĨĴĠvariableĠcostsĠâĨĴĠcontributionĠprofità¥¤ĠčĊ": 3487,
      "Ġà¦Ĺà¦£": 3488,
      "à¦¾à¦ĩà¦¨": 3489,
      "Ġ`": 3490,
      "à¥¤Ġà¦Ĩà¦®à¦¿ĠROASĠà¦¦à§ĩà¦ĸà¦Ľà¦¿à¥¤Ġà¦ķà§Ģà¦Ńà¦¾à¦¬à§ĩĠdiagnosisĠà¦ķà¦°à¦¬?čĊ": 3491,
      "à¦ıà¦®à¦ıà¦®à¦ıà¦®à¦ıà¦®à¦ıà¦®à¦ıà¦®à¦ıà¦®à¦ıà¦®": 3492,
      "à¦¨à§ĩà¦Ł": 3493,
      "à¦¿à¦ļà¦¾à¦°": 3494,
      "ĠfitnessĠaccessories": 3495,
      "kitchenĠproblem-solvingĠtools-à¦ıà¦°ĠcontributionĠmarginĠà¦¬à§ĩà¦°Ġà¦ķà¦°à§ģà¦¨:ĠsellingĠpriceĠà¦¥à§ĩà¦ķà§ĩĠproductĠcost,Ġpackaging,ĠdeliveryĠsubsidy,ĠexpectedĠreturn/cancellation,Ġpayment/transactionĠcostĠà¦ıà¦¬à¦ĤĠà¦ħà¦¨à§įà¦¯à¦¾à¦¨à§įà¦¯ĠvariableĠfulfillmentĠcostĠà¦¬à¦¾à¦¦Ġà¦¦à¦¿à¦¨à¥¤Ġà¦ıà¦°à¦ªà¦°ĠacquisitionĠcost-à¦ıà¦°Ġà¦¸à¦Ļà§įà¦Ĺà§ĩĠà¦¤à§ģà¦²à¦¨à¦¾Ġà¦ķà¦°à§ģà¦¨à¥¤ĠčĊ": 3496,
      "Ġmyth-vs-factĠcontentĠà¦¬à¦¾à¦¨à¦¾à¦¤à§ĩĠà¦ļà¦¾à¦ĩà¥¤Ġà¦²à¦ķà§įà¦·à§įà¦¯ĠprofitableĠacquisitionà¥¤Ġà¦ķà§Ģà¦Ńà¦¾à¦¬à§ĩĠà¦²à¦¿à¦ĸà¦¬?čĊ": 3497,
      "Ġà¦¸à¦°à¦¬à¦°à¦¾à¦¹": 3498,
      "à¦Ĩ": 3499,
      "Ġà¦ķà¦¿à¦": 3500,
      "à¦¤à§ĩĠà¦¸": 3501,
      "Ġproblem-solutionĠcontentĠà¦¬à¦¾à¦¨à¦¾à¦¤à§ĩĠà¦ļà¦¾à¦ĩà¥¤Ġà¦²à¦ķà§įà¦·à§įà¦¯Ġà¦ªà§įà¦°à¦¥à¦®Ġsaleà¥¤Ġà¦ķà§Ģà¦Ńà¦¾à¦¬à§ĩĠà¦²à¦¿à¦ĸà¦¬?čĊ": 3502,
      "================================": 3503,
      "à¦¾Ġà¦¬à¦²": 3504,
      "Ġà¦ķà§ĩà¦®à¦¨": 3505,
      "à¦¿à¦¤à§įà¦¬": 3506,
      "Ġà¦¤à§įà¦°": 3507,
      "(2": 3508,
      "ings": 3509,
      "à¦ķà§įà¦·à§ĩà¦ª": 3510,
      "à§ĩà¦¬à§ĩĠà¦ľà¦¾à¦¨": 3511,
      "à¦Ńà§ĩà¦¬à§ĩĠà¦ľà¦¾à¦¨": 3512,
      "à§Ĥà¦²à¦ķ": 3513,
      "à¦¾à¦¬âĢĿà¥¤Ġà¦Ĩà¦®à¦¿Ġà¦ķà§Ģà¦Ńà¦¾à¦¬à§ĩĠconversion-à¦ıà¦°Ġà¦¦à¦¿à¦ķà§ĩĠethicalĠconversationĠà¦ļà¦¾à¦²à¦¾à¦¬?čĊ": 3514,
      "Ġproblem-solutionĠcontentĠà¦¬à¦¾à¦¨à¦¾à¦¤à§ĩĠà¦ļà¦¾à¦ĩà¥¤Ġà¦²à¦ķà§įà¦·à§įà¦¯Ġà¦ªà§įà¦°à¦¥à¦®Ġà§§à§¦à§¦Ġorderà¥¤Ġà¦ķà§Ģà¦Ńà¦¾à¦¬à§ĩĠà¦²à¦¿à¦ĸà¦¬?čĊ": 3515,
      "ĠcustomerĠstoryĠcontentĠà¦¬à¦¾à¦¨à¦¾à¦¤à§ĩĠà¦ļà¦¾à¦ĩà¥¤Ġà¦²à¦ķà§įà¦·à§įà¦¯ĠleadĠgenerationà¥¤Ġà¦ķà§Ģà¦Ńà¦¾à¦¬à§ĩĠà¦²à¦¿à¦ĸà¦¬?čĊ": 3516,
      "à¦¨à§įà¦Łà¦¾à¦°à¦¨à§ĩà¦Ł": 3517,
      "à¦Ńà§ĩà¦¬à§ĩĠà¦ľà¦¾à¦¨à¦¾à¦¬âĢĿà¥¤Ġà¦Ĩà¦®à¦¿Ġà¦ķà§Ģà¦Ńà¦¾à¦¬à§ĩĠconversion-à¦ıà¦°Ġà¦¦à¦¿à¦ķà§ĩĠethicalĠconversationĠà¦ļà¦¾à¦²à¦¾à¦¬?čĊ": 3518,
      "à§įà¦¯à¦¾à¦ķ": 3519,
      "ĠFAQĠcontentĠà¦¬à¦¾à¦¨à¦¾à¦¤à§ĩĠà¦ļà¦¾à¦ĩà¥¤Ġà¦²à¦ķà§įà¦·à§įà¦¯Ġà¦ªà§įà¦°à¦¥à¦®Ġà§§à§¦à§¦Ġorderà¥¤Ġà¦ķà§Ģà¦Ńà¦¾à¦¬à§ĩĠà¦²à¦¿à¦ĸà¦¬?čĊ": 3520,
      "Ġmyth-vs-factĠcontentĠà¦¬à¦¾à¦¨à¦¾à¦¤à§ĩĠà¦ļà¦¾à¦ĩà¥¤Ġà¦²à¦ķà§įà¦·à§įà¦¯Ġà¦ªà§įà¦°à¦¥à¦®Ġà§§à§¦à§¦Ġorderà¥¤Ġà¦ķà§Ģà¦Ńà¦¾à¦¬à§ĩĠà¦²à¦¿à¦ĸà¦¬?čĊ": 3521,
      "Ġà¦¸à¦®à¦¾à¦§à¦¾à¦¨Ġà¦ķà¦°à¥¤čĊ": 3522,
      "à§¦,à§¦à§¦à§¦Ġà¦Łà¦¾à¦ķà¦¾ĠbudgetĠà¦¬à§įà¦¯à¦¬à¦¹à¦¾à¦°Ġà¦ķà¦°à¦Ľà¦¿à¥¤ĠcontributionĠmargin": 3523,
      "-à¦¦": 3524,
      "Ġà¦ķà§įà¦·": 3525,
      "à§ĩĠf": 3526,
      "Ġà¦¸à¦ķ": 3527,
      "à§Ģà¦¤": 3528,
      "-à¦ıĠofferĠcontentĠà¦¬à¦¾à¦¨à¦¾à¦¤à§ĩĠà¦ļà¦¾à¦ĩà¥¤Ġà¦²à¦ķà§įà¦·à§įà¦¯Ġà¦ªà§įà¦°à¦¥à¦®Ġsaleà¥¤Ġà¦ķà§Ģà¦Ńà¦¾à¦¬à§ĩĠà¦²à¦¿à¦ĸà¦¬?čĊ": 3529,
      "assumption": 3530,
      "à¦ķà¦¿": 3531,
      "à§ĩà¦¨à§įà¦Ł": 3532,
      "à¥¤Ġà¦¶": 3533,
      "à¦Ńà¦¾à¦¬à§ĩĠà¦Ĺ": 3534,
      "ĠdemonstrationĠcontentĠà¦¬à¦¾à¦¨à¦¾à¦¤à§ĩĠà¦ļà¦¾à¦ĩà¥¤Ġà¦²à¦ķà§įà¦·à§įà¦¯ĠrepeatĠpurchaseà¥¤Ġà¦ķà§Ģà¦Ńà¦¾à¦¬à§ĩĠà¦²à¦¿à¦ĸà¦¬?čĊ": 3535,
      "Ġà¦Ĩà¦²à¦¾à¦¦à¦¾": 3536,
      "personal-careĠproducts-à¦ıà¦°ĠcontributionĠmarginĠà¦¬à§ĩà¦°Ġà¦ķà¦°à§ģà¦¨:ĠsellingĠpriceĠà¦¥à§ĩà¦ķà§ĩĠproductĠcost,Ġpackaging,ĠdeliveryĠsubsidy,ĠexpectedĠreturn/cancellation,Ġpayment/transactionĠcostĠà¦ıà¦¬à¦ĤĠà¦ħà¦¨à§įà¦¯à¦¾à¦¨à§įà¦¯ĠvariableĠfulfillmentĠcostĠà¦¬à¦¾à¦¦Ġà¦¦à¦¿à¦¨à¥¤Ġà¦ıà¦°à¦ªà¦°ĠacquisitionĠcost-à¦ıà¦°Ġà¦¸à¦Ļà§įà¦Ĺà§ĩĠà¦¤à§ģà¦²à¦¨à¦¾Ġà¦ķà¦°à§ģà¦¨à¥¤ĠčĊ": 3537,
      "ĠcomparisonĠcontentĠà¦¬à¦¾à¦¨à¦¾à¦¤à§ĩĠà¦ļà¦¾à¦ĩà¥¤Ġà¦²à¦ķà§įà¦·à§įà¦¯Ġà¦ªà§įà¦°à¦¥à¦®Ġsaleà¥¤Ġà¦ķà§Ģà¦Ńà¦¾à¦¬à§ĩĠà¦²à¦¿à¦ĸà¦¬?čĊ": 3538,
      "ĠcustomerĠstoryĠcontentĠà¦¬à¦¾à¦¨à¦¾à¦¤à§ĩĠà¦ļà¦¾à¦ĩà¥¤Ġà¦²à¦ķà§įà¦·à§įà¦¯Ġà¦ªà§įà¦°à¦¥à¦®Ġsaleà¥¤Ġà¦ķà§Ģà¦Ńà¦¾à¦¬à§ĩĠà¦²à¦¿à¦ĸà¦¬?čĊ": 3539,
      "ĠcustomerĠstoryĠcontentĠà¦¬à¦¾à¦¨à¦¾à¦¤à§ĩĠà¦ļà¦¾à¦ĩà¥¤Ġà¦²à¦ķà§įà¦·à§įà¦¯ĠprofitableĠacquisitionà¥¤Ġà¦ķà§Ģà¦Ńà¦¾à¦¬à§ĩĠà¦²à¦¿à¦ĸà¦¬?čĊ": 3540,
      "Ġmeas": 3541,
      ",ĠcurrentĠ": 3542,
      "à¦¨à¦¨à§įà¦¦": 3543,
      "à§ĩà¦°Ġà¦®à¦§à§įà¦¯": 3544,
      "à¦¿à¦¶à¦¿à¦·à§įà¦Ł": 3545,
      "à¦¾à¦ĩà¦Ł": 3546,
      "ĠcomparisonĠcontentĠà¦¬à¦¾à¦¨à¦¾à¦¤à§ĩĠà¦ļà¦¾à¦ĩà¥¤Ġà¦²à¦ķà§įà¦·à§įà¦¯ĠleadĠgenerationà¥¤Ġà¦ķà§Ģà¦Ńà¦¾à¦¬à§ĩĠà¦²à¦¿à¦ĸà¦¬?čĊ": 3547,
      "logâĤģâĤĢ": 3548,
      "-à¦ª": 3549,
      "Ġ3": 3550,
      "à¦°à¦¾à¦": 3551,
      "Ġà¦ķà§įà¦·à§ĩà¦¤": 3552,
      "à¦¾à¦¥à¦®": 3553,
      "à§ĩĠà¦°": 3554,
      "Ġà¦¶à§ĩà¦·": 3555,
      "Ġà¦ķà¦°à¦¤à§ĩĠà¦¹à¦¬": 3556,
      "-à¦ıĠofferĠcontentĠà¦¬à¦¾à¦¨à¦¾à¦¤à§ĩĠà¦ļà¦¾à¦ĩà¥¤Ġà¦²à¦ķà§įà¦·à§įà¦¯ĠleadĠgenerationà¥¤Ġà¦ķà§Ģà¦Ńà¦¾à¦¬à§ĩĠà¦²à¦¿à¦ĸà¦¬?čĊ": 3557,
      "Ġà¦Łà¦¾à¦ķà¦¾à¦°Ġà¦ªà§ģà¦°à§ĭà¦Łà¦¾Ġinventory-à¦¤à§ĩĠà¦Ĩà¦Łà¦ķà§ĩĠà¦¨à¦¾Ġà¦°à§ĩà¦ĸà§ĩĠà¦Ľà§ĭà¦ŁĠtestĠà¦ķà¦°à§ģà¦¨à¥¤": 3558,
      "ĠFAQĠcontentĠà¦¬à¦¾à¦¨à¦¾à¦¤à§ĩĠà¦ļà¦¾à¦ĩà¥¤Ġà¦²à¦ķà§įà¦·à§įà¦¯ĠleadĠgenerationà¥¤Ġà¦ķà§Ģà¦Ńà¦¾à¦¬à§ĩĠà¦²à¦¿à¦ĸà¦¬?čĊ": 3559,
      "ĠsocialĠproofĠcontentĠà¦¬à¦¾à¦¨à¦¾à¦¤à§ĩĠà¦ļà¦¾à¦ĩà¥¤Ġà¦²à¦ķà§įà¦·à§įà¦¯ĠleadĠgenerationà¥¤Ġà¦ķà§Ģà¦Ńà¦¾à¦¬à§ĩĠà¦²à¦¿à¦ĸà¦¬?čĊ": 3560,
      "à§ĩĠà¦ªà§įà¦°à¦ķà¦¾à¦¶": 3561,
      "____": 3562,
      ",Ġà¦¸à§ģà¦ĸ,Ġà¦¸à§ģà¦ĸ,Ġà¦¸à§ģà¦ĸ,Ġà¦¸à§ģà¦ĸ": 3563,
      "ĠmarketĠvalidation": 3564,
      "à¦¾à¦¥à¦®à¦¿à¦ķ": 3565,
      "tive": 3566,
      "Ġà¦¬à¦¿à¦ļà¦¾à¦°": 3567,
      "à§įà¦°à¦¾à¦¨": 3568,
      "Ġà¦ķà¦¿à¦¨à§įà¦¤à§ģ": 3569,
      "Ġchar": 3570,
      "à¦ħà¦ª": 3571,
      "Ġproblem-solutionĠcontentĠà¦¬à¦¾à¦¨à¦¾à¦¤à§ĩĠà¦ļà¦¾à¦ĩà¥¤Ġà¦²à¦ķà§įà¦·à§įà¦¯ĠleadĠgenerationà¥¤Ġà¦ķà§Ģà¦Ńà¦¾à¦¬à§ĩĠà¦²à¦¿à¦ĸà¦¬?čĊ": 3572,
      "Ġproblem-solutionĠcontentĠà¦¬à¦¾à¦¨à¦¾à¦¤à§ĩĠà¦ļà¦¾à¦ĩà¥¤Ġà¦²à¦ķà§įà¦·à§įà¦¯ĠprofitableĠacquisitionà¥¤Ġà¦ķà§Ģà¦Ńà¦¾à¦¬à§ĩĠà¦²à¦¿à¦ĸà¦¬?čĊ": 3573,
      "ĠcomparisonĠcontentĠà¦¬à¦¾à¦¨à¦¾à¦¤à§ĩĠà¦ļà¦¾à¦ĩà¥¤Ġà¦²à¦ķà§įà¦·à§įà¦¯ĠrepeatĠpurchaseà¥¤Ġà¦ķà§Ģà¦Ńà¦¾à¦¬à§ĩĠà¦²à¦¿à¦ĸà¦¬?čĊ": 3574,
      "Ġà¦ıà¦¬à¦ĤĠà¦ķà§Ģ": 3575,
      "ĠdemonstrationĠcontentĠà¦¬à¦¾à¦¨à¦¾à¦¤à§ĩĠà¦ļà¦¾à¦ĩà¥¤Ġà¦²à¦ķà§įà¦·à§įà¦¯ĠleadĠgenerationà¥¤Ġà¦ķà§Ģà¦Ńà¦¾à¦¬à§ĩĠà¦²à¦¿à¦ĸà¦¬?čĊ": 3576,
      "à¦ªà§įà¦°à¦¶à§įà¦¨:Ġà¦¨": 3577,
      "Ġà¦§à¦°à§ĩĠà¦¨": 3578,
      "mobileĠaccessories-à¦ıà¦°ĠcontributionĠmarginĠà¦¬à§ĩà¦°Ġà¦ķà¦°à§ģà¦¨:ĠsellingĠpriceĠà¦¥à§ĩà¦ķà§ĩĠproductĠcost,Ġpackaging,ĠdeliveryĠsubsidy,ĠexpectedĠreturn/cancellation,Ġpayment/transactionĠcostĠà¦ıà¦¬à¦ĤĠà¦ħà¦¨à§įà¦¯à¦¾à¦¨à§įà¦¯ĠvariableĠfulfillmentĠcostĠà¦¬à¦¾à¦¦Ġà¦¦à¦¿à¦¨à¥¤Ġà¦ıà¦°à¦ªà¦°ĠacquisitionĠcost-à¦ıà¦°Ġà¦¸à¦Ļà§įà¦Ĺà§ĩĠà¦¤à§ģà¦²à¦¨à¦¾Ġà¦ķà¦°à§ģà¦¨à¥¤ĠčĊ": 3579,
      "ĠFAQĠcontentĠà¦¬à¦¾à¦¨à¦¾à¦¤à§ĩĠà¦ļà¦¾à¦ĩà¥¤Ġà¦²à¦ķà§įà¦·à§įà¦¯ĠprofitableĠacquisitionà¥¤Ġà¦ķà§Ģà¦Ńà¦¾à¦¬à§ĩĠà¦²à¦¿à¦ĸà¦¬?čĊ": 3580,
      "marketĠvalidation": 3581,
      "ĠmarketĠvalidationà¥¤Ġà¦ķà§ĭà¦¨à¦Ńà¦¾à¦¬à§ĩĠà¦¸à¦¿à¦¦à§įà¦§à¦¾à¦¨à§įà¦¤Ġà¦¨à§ĩà¦¬?čĊ": 3582,
      "marketĠvalidation-à¦ıà¦°Ġà¦ľà¦¨à§įà¦¯Ġà¦ıà¦ķà¦Łà¦¿ĠprimaryĠmetricĠà¦łà¦¿à¦ķĠà¦ķà¦°à§ģà¦¨âĢĶà¦¯à§ĩà¦®à¦¨ĠdeliveredĠorder,ĠqualifiedĠleadĠà¦¬à¦¾ĠcontributionĠprofità¥¤ĠčĊ": 3583,
      "xÂ²+": 3584,
      "Ġà¦ıà¦¬à¦ĤĠà¦Ľà§ĭà¦Ł": 3585,
      "à¦¿à§Łà§ĩĠ": 3586,
      "ĠrepeatĠpurchaseà¥¤Ġà¦ķà§ĭà¦¨à¦Ńà¦¾à¦¬à§ĩĠà¦¸à¦¿à¦¦à§įà¦§à¦¾à¦¨à§įà¦¤Ġà¦¨à§ĩà¦¬?čĊ": 3587,
      "repeatĠpurchase-à¦ıà¦°Ġà¦ľà¦¨à§įà¦¯Ġà¦ıà¦ķà¦Łà¦¿ĠprimaryĠmetricĠà¦łà¦¿à¦ķĠà¦ķà¦°à§ģà¦¨âĢĶà¦¯à§ĩà¦®à¦¨ĠdeliveredĠorder,ĠqualifiedĠleadĠà¦¬à¦¾ĠcontributionĠprofità¥¤ĠčĊ": 3588,
      "à§¨à§¦à§¨à§Ń-à¦ıà¦°Ġà¦ľà¦¨à§įà¦¯Ġà¦ıà¦Łà¦¿à¦ķà§ĩĠforecastĠà¦¨à§Ł,ĠvalidationĠproblemĠà¦¹à¦¿à¦¸à§ĩà¦¬à§ĩĠà¦¦à§ĩà¦ĸà§ģà¦¨à¥¤": 3589,
      "Ġmyth-vs-factĠcontentĠà¦¬à¦¾à¦¨à¦¾à¦¤à§ĩĠà¦ļà¦¾à¦ĩà¥¤Ġà¦²à¦ķà§įà¦·à§įà¦¯Ġà¦ªà§įà¦°à¦¥à¦®Ġsaleà¥¤Ġà¦ķà§Ģà¦Ńà¦¾à¦¬à§ĩĠà¦²à¦¿à¦ĸà¦¬?čĊ": 3590,
      "à¦¨à§įà¦¤à¦¤": 3591,
      "ĠsocialĠproofĠcontentĠà¦¬à¦¾à¦¨à¦¾à¦¤à§ĩĠà¦ļà¦¾à¦ĩà¥¤Ġà¦²à¦ķà§įà¦·à§įà¦¯ĠrepeatĠpurchaseà¥¤Ġà¦ķà§Ģà¦Ńà¦¾à¦¬à§ĩĠà¦²à¦¿à¦ĸà¦¬?čĊ": 3592,
      "ĠâĪļĠâĪļ": 3593,
      "Ġà¦Ľà¦¾à¦¡à¦¼": 3594,
      "Ġà¦ķà§Ģà¦Ńà¦¾à¦¬à§ĩĠà¦ķà¦°à¦¬à§ĩ?čĊ": 3595,
      "à¦¾à¦¤à§įà¦°": 3596,
      "Ġà¦¦à¦¿à§Łà§ĩĠ": 3597,
      "beautyĠtools-à¦ıà¦°ĠcontributionĠmarginĠà¦¬à§ĩà¦°Ġà¦ķà¦°à§ģà¦¨:ĠsellingĠpriceĠà¦¥à§ĩà¦ķà§ĩĠproductĠcost,Ġpackaging,ĠdeliveryĠsubsidy,ĠexpectedĠreturn/cancellation,Ġpayment/transactionĠcostĠà¦ıà¦¬à¦ĤĠà¦ħà¦¨à§įà¦¯à¦¾à¦¨à§įà¦¯ĠvariableĠfulfillmentĠcostĠà¦¬à¦¾à¦¦Ġà¦¦à¦¿à¦¨à¥¤Ġà¦ıà¦°à¦ªà¦°ĠacquisitionĠcost-à¦ıà¦°Ġà¦¸à¦Ļà§įà¦Ĺà§ĩĠà¦¤à§ģà¦²à¦¨à¦¾Ġà¦ķà¦°à§ģà¦¨à¥¤ĠčĊ": 3598,
      "modestĠfashion-à¦ıà¦°ĠcontributionĠmarginĠà¦¬à§ĩà¦°Ġà¦ķà¦°à§ģà¦¨:ĠsellingĠpriceĠà¦¥à§ĩà¦ķà§ĩĠproductĠcost,Ġpackaging,ĠdeliveryĠsubsidy,ĠexpectedĠreturn/cancellation,Ġpayment/transactionĠcostĠà¦ıà¦¬à¦ĤĠà¦ħà¦¨à§įà¦¯à¦¾à¦¨à§įà¦¯ĠvariableĠfulfillmentĠcostĠà¦¬à¦¾à¦¦Ġà¦¦à¦¿à¦¨à¥¤Ġà¦ıà¦°à¦ªà¦°ĠacquisitionĠcost-à¦ıà¦°Ġà¦¸à¦Ļà§įà¦Ĺà§ĩĠà¦¤à§ģà¦²à¦¨à¦¾Ġà¦ķà¦°à§ģà¦¨à¥¤ĠčĊ": 3599,
      "Ġà¦²à¦¾à¦Ń": 3600,
      "ĠsocialĠproofĠcontentĠà¦¬à¦¾à¦¨à¦¾à¦¤à§ĩĠà¦ļà¦¾à¦ĩà¥¤Ġà¦²à¦ķà§įà¦·à§įà¦¯Ġà¦ªà§įà¦°à¦¥à¦®Ġsaleà¥¤Ġà¦ķà§Ģà¦Ńà¦¾à¦¬à§ĩĠà¦²à¦¿à¦ĸà¦¬?čĊ": 3601,
      "à¦Ńà§Ģà¦°à¦Ńà¦¾à¦¬à§ĩĠà¦Ĺ": 3602,
      "/s": 3603,
      "1)": 3604,
      "xâĪĴ": 3605,
      "ħà¦¨à§įà¦¤à¦¤": 3606,
      "à¦¾à¦°Ġà¦¸": 3607,
      "à§ĩĠà¦¬à¦¿à¦ķà¦²à§įà¦ª": 3608,
      "leadĠgeneration-à¦ıà¦°Ġà¦ľà¦¨à§įà¦¯Ġà¦ıà¦ķà¦Łà¦¿ĠprimaryĠmetricĠà¦łà¦¿à¦ķĠà¦ķà¦°à§ģà¦¨âĢĶà¦¯à§ĩà¦®à¦¨ĠdeliveredĠorder,ĠqualifiedĠleadĠà¦¬à¦¾ĠcontributionĠprofità¥¤ĠčĊ": 3609,
      "ĠleadĠgenerationà¥¤Ġà¦ķà§ĭà¦¨à¦Ńà¦¾à¦¬à§ĩĠà¦¸à¦¿à¦¦à§įà¦§à¦¾à¦¨à§įà¦¤Ġà¦¨à§ĩà¦¬?čĊ": 3610,
      "Ġsearch": 3611,
      "à§¨à§¦à§¨à§ŃĠà¦¸à¦¾à¦²à§ĩĠnicheĠapparel": 3612,
      "healthyĠsnackĠproducts-à¦ıà¦°ĠcontributionĠmarginĠà¦¬à§ĩà¦°Ġà¦ķà¦°à§ģà¦¨:ĠsellingĠpriceĠà¦¥à§ĩà¦ķà§ĩĠproductĠcost,Ġpackaging,ĠdeliveryĠsubsidy,ĠexpectedĠreturn/cancellation,Ġpayment/transactionĠcostĠà¦ıà¦¬à¦ĤĠà¦ħà¦¨à§įà¦¯à¦¾à¦¨à§įà¦¯ĠvariableĠfulfillmentĠcostĠà¦¬à¦¾à¦¦Ġà¦¦à¦¿à¦¨à¥¤Ġà¦ıà¦°à¦ªà¦°ĠacquisitionĠcost-à¦ıà¦°Ġà¦¸à¦Ļà§įà¦Ĺà§ĩĠà¦¤à§ģà¦²à¦¨à¦¾Ġà¦ķà¦°à§ģà¦¨à¥¤ĠčĊ": 3613,
      "âĢĶà¦ıà¦ķà¦ľà¦¨": 3614,
      "à¦Łà¦¿Ġà¦ªà¦Ľà¦¨à§įà¦¦": 3615,
      "à§ģà¦ĩà¦ľà¦¨": 3616,
      "à¦ħà¦ªà¦Ľà¦¨à§įà¦¦": 3617,
      ",Ġproblem": 3618,
      ",Ġà¦ķà¦¤": 3619,
      ",ĠcompetitorĠ": 3620,
      ",Ġsearch": 3621,
      "/negativeĠreviews": 3622,
      "/à¦ħà¦ªà¦Ľà¦¨à§įà¦¦": 3623,
      ":Ġcustomer": 3624,
      ";Ġrec": 3625,
      "?âĢĻ": 3626,
      "Pat": 3627,
      "aign": 3628,
      "hypothesis": 3629,
      "sĠà¦ıà¦¬à¦ĤĠà¦Ľà§ĭà¦Ł": 3630,
      "s,Ġsearch": 3631,
      "tĠà¦ķà§Ģà¦Ńà¦¾à¦¬à§ĩĠà¦ķà¦°à¦¬à§ĩ?čĊ": 3632,
      "¶à§ģà¦§à§ģ": 3633,
      "Ġop": 3634,
      "ion-à¦ķà§ĩĠmarketĠtruth": 3635,
      "à¦¬à¦¿à¦¶à¦¿à¦·à§įà¦Ł": 3636,
      "Ġcustom": 3637,
      "Ġcamp": 3638,
      "realĠ": 3639,
      "Ġscale": 3640,
      "inion-à¦ķà§ĩĠmarketĠtruth": 3641,
      "Ġà¦ķà¦°à§ģà¦¨à¥¤Ġà¦ıà¦ķ": 3642,
      "entĠbuy": 3643,
      "à¦¤à§ĭ": 3644,
      "à§Ģà¦¤à¦¿": 3645,
      "verity": 3646,
      "Ġà¦ıà¦¬à¦ĤĠse": 3647,
      "Ġfrequency": 3648,
      "ĠtestableĠ": 3649,
      "ĠtestĠcamp": 3650,
      "Ġà¦ķà¦°à¦¬à§ĩà¦¨Ġà¦¨à¦¾;Ġrec": 3651,
      "offerĠà¦¬à¦¾à¦¨": 3652,
      "sitive": 3653,
      "behavior": 3654,
      "à¦¸à§įà¦¤": 3655,
      "Ġà¦ıà¦ķà¦Łà¦¿ĠtestableĠ": 3656,
      "Ġà¦ķà¦¿à¦¨à¦¬à§ĩà¦¨": 3657,
      "terns": 3658,
      "Ġà¦®à§Įà¦²à¦¿à¦ķ": 3659,
      "er-à¦ıà¦°Ġop": 3660,
      "listings": 3661,
      "ingĠbehavior": 3662,
      "Ġà¦ķà§Łà§ĩà¦ķĠà¦§à¦°à¦¨à§ĩà¦°": 3663,
      "Ġvalidate": 3664,
      "ĠexpertĠà¦ķà§Ģà¦Ńà¦¾à¦¬à§ĩĠà¦ķà¦°à¦¬à§ĩ?čĊ": 3665,
      "ĠâĢĺà¦": 3666,
      "Ġconversation,ĠcompetitorĠ": 3667,
      "Ġà¦¨à¦¿à§Łà§ĩĠà¦ħà¦¨à§įà¦¤à¦¤": 3668,
      "ĠevidenceĠà¦¸à¦Ĥà¦Ĺà§įà¦°à¦¹Ġà¦ķà¦°à§ģà¦¨": 3669,
      "ĠevidenceĠà¦Ĩà¦²à¦¾à¦¦à¦¾": 3670,
      "Ġà¦Łà¦¾à¦ķà¦¾Ġà¦ĸà¦°à¦ļ": 3671,
      "-à¦ıà¦°Ġà¦ķà§įà¦·à§ĩà¦¤à§įà¦°à§ĩĠà¦¶à§ģà¦§à§ģ": 3672,
      "à¦ªà§įà¦°à¦¥à¦®à§ĩĠassumption": 3673,
      "ĠsignalsĠà¦ıà¦¬à¦ĤĠà¦Ľà§ĭà¦Ł": 3674,
      ",Ġpositive": 3675,
      "scale-à¦ıà¦°Ġà¦ľà¦¨à§įà¦¯Ġà¦ıà¦ķà¦Łà¦¿ĠprimaryĠmetricĠà¦łà¦¿à¦ķĠà¦ķà¦°à§ģà¦¨âĢĶà¦¯à§ĩà¦®à¦¨ĠdeliveredĠorder,ĠqualifiedĠleadĠà¦¬à¦¾ĠcontributionĠprofità¥¤ĠčĊ": 3676,
      "Ĩà¦ªà¦¨à¦¿Ġà¦ķà¦¿à¦¨à¦¬à§ĩà¦¨": 3677,
      "questions,Ġsearch": 3678,
      "alternative,Ġà¦ķà¦¤": 3679,
      "ocialĠsignalsĠà¦ıà¦¬à¦ĤĠà¦Ľà§ĭà¦Ł": 3680,
      "Ġà¦¬à§įà¦¯à¦¬à¦¸à¦¾à¦°ĠownerĠà¦ıà¦ķà¦ľà¦¨Ġbuyer": 3681,
      "Ġà¦Ľà¦¿à¦²": 3682,
      "à¦¸à¦¬Ġà¦ľà¦¿à¦ľà§įà¦ŀà§ĩà¦¸": 3683,
      "Ġà¦ķà¦¾à¦°à¦£à§ĩĠà¦¬à¦¿à¦ķà¦²à§įà¦ª": 3684,
      "Ġà¦Ĩà¦°ĠevidenceĠà¦Ĩà¦²à¦¾à¦¦à¦¾": 3685,
      "Ġà¦ķà¦°à§ĩà¦Ľà§ĩà¦¨âĢĶà¦ı": 3686,
      "Ġà¦ķà¦°à§ĩà¦Ľà§ĩà¦¨Ġà¦ıà¦¬à¦ĤĠà¦ķà§Ģ": 3687,
      "Ġà¦ľà¦¿à¦ľà§įà¦ŀà§ĩà¦¸Ġà¦ķà¦°à¦¬à§ĩà¦¨Ġà¦¨à¦¾;Ġrec": 3688,
      "à¦Ľà§ĭà¦ŁĠà¦ªà¦°à¦¿à¦¬à¦¾à¦°à§ĩà¦°": 3689,
      "à¦Ľà§ĭà¦ŁĠà¦¬à§įà¦¯à¦¬à¦¸à¦¾à¦°ĠownerĠà¦ıà¦ķà¦ľà¦¨Ġbuyer": 3690,
      "requencyĠà¦ıà¦¬à¦ĤĠse": 3691,
      "Ġà¦²à¦¿à¦ĸà§ĩĠf": 3692,
      ",ĠrepeatedĠquestions,Ġsearch": 3693,
      "à§ĩà¦¬à§ĩà¦¨Ġà¦¨à¦¾à¥¤Ġà¦ıà¦°à¦ªà¦°": 3694,
      "-à¦¦à§ģà¦ĩà¦ľà¦¨": 3695,
      ",ĠcurrentĠalternative,Ġà¦ķà¦¤": 3696,
      "Ġà¦¬à¦¿à¦ļà¦¾à¦°Ġà¦ķà¦°à§ģà¦¨à¥¤Ġà¦ıà¦ķ": 3697,
      "Ġà¦§à¦°à§ĩĠà¦¨à§ĩà¦¬à§ĩà¦¨Ġà¦¨à¦¾à¥¤Ġà¦ıà¦°à¦ªà¦°": 3698,
      "à¦¿à§Łà§ĩĠrealĠ": 3699,
      "Ġà¦¦à¦¿à§Łà§ĩĠhypothesis": 3700,
      "à¦Ńà§Ģà¦°à¦Ńà¦¾à¦¬à§ĩĠà¦Ĺà¦Ńà§Ģà¦°à¦Ńà¦¾à¦¬à§ĩĠà¦Ĺ": 3701,
      "/socialĠsignalsĠà¦ıà¦¬à¦ĤĠà¦Ľà§ĭà¦Ł": 3702,
      "âĢĶà¦ıà¦ķà¦ľà¦¨ĠexpertĠà¦ķà§Ģà¦Ńà¦¾à¦¬à§ĩĠà¦ķà¦°à¦¬à§ĩ?čĊ": 3703,
      "à¦Łà¦¿Ġà¦ªà¦Ľà¦¨à§įà¦¦/à¦ħà¦ªà¦Ľà¦¨à§įà¦¦": 3704,
      ",ĠproblemĠfrequency": 3705,
      "/negativeĠreviews,ĠrepeatedĠquestions,Ġsearch": 3706,
      ":ĠcustomerĠconversation,ĠcompetitorĠ": 3707,
      "?âĢĻĠà¦ľà¦¿à¦ľà§įà¦ŀà§ĩà¦¸Ġà¦ķà¦°à¦¬à§ĩà¦¨Ġà¦¨à¦¾;Ġrec": 3708,
      "Patterns": 3709,
      "aignà¥¤ĠčĊ": 3710,
      "Ġcustomer-à¦ıà¦°Ġop": 3711,
      "Ġscaleà¥¤Ġà¦ķà§ĭà¦¨à¦Ńà¦¾à¦¬à§ĩĠà¦¸à¦¿à¦¦à§įà¦§à¦¾à¦¨à§įà¦¤Ġà¦¨à§ĩà¦¬?čĊ": 3712,
      "inion-à¦ķà§ĩĠmarketĠtruthĠà¦§à¦°à§ĩĠà¦¨à§ĩà¦¬à§ĩà¦¨Ġà¦¨à¦¾à¥¤Ġà¦ıà¦°à¦ªà¦°": 3713,
      "entĠbuyingĠbehavior": 3714,
      "verityĠà¦¬à¦¿à¦ļà¦¾à¦°Ġà¦ķà¦°à§ģà¦¨à¥¤Ġà¦ıà¦ķ": 3715,
      "ĠtestĠcampaignà¥¤ĠčĊ": 3716,
      "offerĠà¦¬à¦¾à¦¨à¦¿à§Łà§ĩĠrealĠ": 3717,
      "behaviorĠà¦¦à¦¿à§Łà§ĩĠhypothesis": 3718,
      "Ġà¦ıà¦ķà¦Łà¦¿ĠtestableĠofferĠà¦¬à¦¾à¦¨à¦¿à§Łà§ĩĠrealĠ": 3719,
      "listings,Ġpositive": 3720,
      "Ġà¦ķà§Łà§ĩà¦ķĠà¦§à¦°à¦¨à§ĩà¦°ĠevidenceĠà¦¸à¦Ĥà¦Ĺà§įà¦°à¦¹Ġà¦ķà¦°à§ģà¦¨": 3721,
      "ĠvalidateĠà¦ķà¦°à§ģà¦¨à¥¤čĊ": 3722,
      "ĠâĢĺà¦Ĩà¦ªà¦¨à¦¿Ġà¦ķà¦¿à¦¨à¦¬à§ĩà¦¨": 3723,
      "Ġà¦¨à¦¿à§Łà§ĩĠà¦ħà¦¨à§įà¦¤à¦¤Ġà¦ķà§Łà§ĩà¦ķĠà¦§à¦°à¦¨à§ĩà¦°ĠevidenceĠà¦¸à¦Ĥà¦Ĺà§įà¦°à¦¹Ġà¦ķà¦°à§ģà¦¨": 3724,
      "Ġà¦Łà¦¾à¦ķà¦¾Ġà¦ĸà¦°à¦ļĠà¦ķà¦°à§ĩà¦Ľà§ĩà¦¨Ġà¦ıà¦¬à¦ĤĠà¦ķà§Ģ": 3725,
      "-à¦ıà¦°Ġà¦ķà§įà¦·à§ĩà¦¤à§įà¦°à§ĩĠà¦¶à§ģà¦§à§ģĠâĢĺà¦Ĩà¦ªà¦¨à¦¿Ġà¦ķà¦¿à¦¨à¦¬à§ĩà¦¨": 3726,
      "à¦ªà§įà¦°à¦¥à¦®à§ĩĠassumptionĠà¦Ĩà¦°ĠevidenceĠà¦Ĩà¦²à¦¾à¦¦à¦¾": 3727,
      "à¦¸à¦¬Ġà¦ľà¦¿à¦ľà§įà¦ŀà§ĩà¦¸Ġà¦ķà¦°à§ģà¦¨à¥¤ĠčĊ": 3728,
      "Ġà¦ķà¦¾à¦°à¦£à§ĩĠà¦¬à¦¿à¦ķà¦²à§įà¦ªà¦Łà¦¿Ġà¦ªà¦Ľà¦¨à§įà¦¦/à¦ħà¦ªà¦Ľà¦¨à§įà¦¦": 3729,
      "Ġà¦ķà¦°à§ĩà¦Ľà§ĩà¦¨âĢĶà¦ıà¦¸à¦¬Ġà¦ľà¦¿à¦ľà§įà¦ŀà§ĩà¦¸Ġà¦ķà¦°à§ģà¦¨à¥¤ĠčĊ": 3730,
      "requencyĠà¦ıà¦¬à¦ĤĠseverityĠà¦¬à¦¿à¦ļà¦¾à¦°Ġà¦ķà¦°à§ģà¦¨à¥¤Ġà¦ıà¦ķ": 3731,
      "Ġà¦²à¦¿à¦ĸà§ĩĠfrequencyĠà¦ıà¦¬à¦ĤĠseverityĠà¦¬à¦¿à¦ļà¦¾à¦°Ġà¦ķà¦°à§ģà¦¨à¥¤Ġà¦ıà¦ķ": 3732,
      "-à¦¦à§ģà¦ĩà¦ľà¦¨Ġcustomer-à¦ıà¦°Ġop": 3733,
      ",ĠcurrentĠalternative,Ġà¦ķà¦¤Ġà¦Łà¦¾à¦ķà¦¾Ġà¦ĸà¦°à¦ļĠà¦ķà¦°à§ĩà¦Ľà§ĩà¦¨Ġà¦ıà¦¬à¦ĤĠà¦ķà§Ģ": 3734,
      "/socialĠsignalsĠà¦ıà¦¬à¦ĤĠà¦Ľà§ĭà¦ŁĠtestĠcampaignà¥¤ĠčĊ": 3735,
      ",ĠproblemĠfrequency,ĠcurrentĠalternative,Ġà¦ķà¦¤Ġà¦Łà¦¾à¦ķà¦¾Ġà¦ĸà¦°à¦ļĠà¦ķà¦°à§ĩà¦Ľà§ĩà¦¨Ġà¦ıà¦¬à¦ĤĠà¦ķà§Ģ": 3736,
      "/negativeĠreviews,ĠrepeatedĠquestions,Ġsearch/socialĠsignalsĠà¦ıà¦¬à¦ĤĠà¦Ľà§ĭà¦ŁĠtestĠcampaignà¥¤ĠčĊ": 3737,
      ":ĠcustomerĠconversation,ĠcompetitorĠlistings,Ġpositive": 3738,
      "?âĢĻĠà¦ľà¦¿à¦ľà§įà¦ŀà§ĩà¦¸Ġà¦ķà¦°à¦¬à§ĩà¦¨Ġà¦¨à¦¾;ĠrecentĠbuyingĠbehavior": 3739,
      "PatternsĠà¦²à¦¿à¦ĸà§ĩĠfrequencyĠà¦ıà¦¬à¦ĤĠseverityĠà¦¬à¦¿à¦ļà¦¾à¦°Ġà¦ķà¦°à§ģà¦¨à¥¤Ġà¦ıà¦ķ": 3740,
      "inion-à¦ķà§ĩĠmarketĠtruthĠà¦§à¦°à§ĩĠà¦¨à§ĩà¦¬à§ĩà¦¨Ġà¦¨à¦¾à¥¤Ġà¦ıà¦°à¦ªà¦°Ġà¦ıà¦ķà¦Łà¦¿ĠtestableĠofferĠà¦¬à¦¾à¦¨à¦¿à§Łà§ĩĠrealĠ": 3741,
      "behaviorĠà¦¦à¦¿à§Łà§ĩĠhypothesisĠvalidateĠà¦ķà¦°à§ģà¦¨à¥¤čĊ": 3742,
      "Ġà¦¨à¦¿à§Łà§ĩĠà¦ħà¦¨à§įà¦¤à¦¤Ġà¦ķà§Łà§ĩà¦ķĠà¦§à¦°à¦¨à§ĩà¦°ĠevidenceĠà¦¸à¦Ĥà¦Ĺà§įà¦°à¦¹Ġà¦ķà¦°à§ģà¦¨:ĠcustomerĠconversation,ĠcompetitorĠlistings,Ġpositive": 3743,
      "-à¦ıà¦°Ġà¦ķà§įà¦·à§ĩà¦¤à§įà¦°à§ĩĠà¦¶à§ģà¦§à§ģĠâĢĺà¦Ĩà¦ªà¦¨à¦¿Ġà¦ķà¦¿à¦¨à¦¬à§ĩà¦¨?âĢĻĠà¦ľà¦¿à¦ľà§įà¦ŀà§ĩà¦¸Ġà¦ķà¦°à¦¬à§ĩà¦¨Ġà¦¨à¦¾;ĠrecentĠbuyingĠbehavior": 3744,
      "Ġà¦ķà¦¾à¦°à¦£à§ĩĠà¦¬à¦¿à¦ķà¦²à§įà¦ªà¦Łà¦¿Ġà¦ªà¦Ľà¦¨à§įà¦¦/à¦ħà¦ªà¦Ľà¦¨à§įà¦¦Ġà¦ķà¦°à§ĩà¦Ľà§ĩà¦¨âĢĶà¦ıà¦¸à¦¬Ġà¦ľà¦¿à¦ľà§įà¦ŀà§ĩà¦¸Ġà¦ķà¦°à§ģà¦¨à¥¤ĠčĊ": 3745,
      "-à¦¦à§ģà¦ĩà¦ľà¦¨Ġcustomer-à¦ıà¦°Ġopinion-à¦ķà§ĩĠmarketĠtruthĠà¦§à¦°à§ĩĠà¦¨à§ĩà¦¬à§ĩà¦¨Ġà¦¨à¦¾à¥¤Ġà¦ıà¦°à¦ªà¦°Ġà¦ıà¦ķà¦Łà¦¿ĠtestableĠofferĠà¦¬à¦¾à¦¨à¦¿à§Łà§ĩĠrealĠ": 3746,
      ",ĠproblemĠfrequency,ĠcurrentĠalternative,Ġà¦ķà¦¤Ġà¦Łà¦¾à¦ķà¦¾Ġà¦ĸà¦°à¦ļĠà¦ķà¦°à§ĩà¦Ľà§ĩà¦¨Ġà¦ıà¦¬à¦ĤĠà¦ķà§ĢĠà¦ķà¦¾à¦°à¦£à§ĩĠà¦¬à¦¿à¦ķà¦²à§įà¦ªà¦Łà¦¿Ġà¦ªà¦Ľà¦¨à§įà¦¦/à¦ħà¦ªà¦Ľà¦¨à§įà¦¦Ġà¦ķà¦°à§ĩà¦Ľà§ĩà¦¨âĢĶà¦ıà¦¸à¦¬Ġà¦ľà¦¿à¦ľà§įà¦ŀà§ĩà¦¸Ġà¦ķà¦°à§ģà¦¨à¥¤ĠčĊ": 3747,
      "PatternsĠà¦²à¦¿à¦ĸà§ĩĠfrequencyĠà¦ıà¦¬à¦ĤĠseverityĠà¦¬à¦¿à¦ļà¦¾à¦°Ġà¦ķà¦°à§ģà¦¨à¥¤Ġà¦ıà¦ķ-à¦¦à§ģà¦ĩà¦ľà¦¨Ġcustomer-à¦ıà¦°Ġopinion-à¦ķà§ĩĠmarketĠtruthĠà¦§à¦°à§ĩĠà¦¨à§ĩà¦¬à§ĩà¦¨Ġà¦¨à¦¾à¥¤Ġà¦ıà¦°à¦ªà¦°Ġà¦ıà¦ķà¦Łà¦¿ĠtestableĠofferĠà¦¬à¦¾à¦¨à¦¿à§Łà§ĩĠrealĠ": 3748,
      "Ġà¦¨à¦¿à§Łà§ĩĠà¦ħà¦¨à§įà¦¤à¦¤Ġà¦ķà§Łà§ĩà¦ķĠà¦§à¦°à¦¨à§ĩà¦°ĠevidenceĠà¦¸à¦Ĥà¦Ĺà§įà¦°à¦¹Ġà¦ķà¦°à§ģà¦¨:ĠcustomerĠconversation,ĠcompetitorĠlistings,Ġpositive/negativeĠreviews,ĠrepeatedĠquestions,Ġsearch/socialĠsignalsĠà¦ıà¦¬à¦ĤĠà¦Ľà§ĭà¦ŁĠtestĠcampaignà¥¤ĠčĊ": 3749,
      "-à¦ıà¦°Ġà¦ķà§įà¦·à§ĩà¦¤à§įà¦°à§ĩĠà¦¶à§ģà¦§à§ģĠâĢĺà¦Ĩà¦ªà¦¨à¦¿Ġà¦ķà¦¿à¦¨à¦¬à§ĩà¦¨?âĢĻĠà¦ľà¦¿à¦ľà§įà¦ŀà§ĩà¦¸Ġà¦ķà¦°à¦¬à§ĩà¦¨Ġà¦¨à¦¾;ĠrecentĠbuyingĠbehavior,ĠproblemĠfrequency,ĠcurrentĠalternative,Ġà¦ķà¦¤Ġà¦Łà¦¾à¦ķà¦¾Ġà¦ĸà¦°à¦ļĠà¦ķà¦°à§ĩà¦Ľà§ĩà¦¨Ġà¦ıà¦¬à¦ĤĠà¦ķà§ĢĠà¦ķà¦¾à¦°à¦£à§ĩĠà¦¬à¦¿à¦ķà¦²à§įà¦ªà¦Łà¦¿Ġà¦ªà¦Ľà¦¨à§įà¦¦/à¦ħà¦ªà¦Ľà¦¨à§įà¦¦Ġà¦ķà¦°à§ĩà¦Ľà§ĩà¦¨âĢĶà¦ıà¦¸à¦¬Ġà¦ľà¦¿à¦ľà§įà¦ŀà§ĩà¦¸Ġà¦ķà¦°à§ģà¦¨à¥¤ĠčĊ": 3750,
      "PatternsĠà¦²à¦¿à¦ĸà§ĩĠfrequencyĠà¦ıà¦¬à¦ĤĠseverityĠà¦¬à¦¿à¦ļà¦¾à¦°Ġà¦ķà¦°à§ģà¦¨à¥¤Ġà¦ıà¦ķ-à¦¦à§ģà¦ĩà¦ľà¦¨Ġcustomer-à¦ıà¦°Ġopinion-à¦ķà§ĩĠmarketĠtruthĠà¦§à¦°à§ĩĠà¦¨à§ĩà¦¬à§ĩà¦¨Ġà¦¨à¦¾à¥¤Ġà¦ıà¦°à¦ªà¦°Ġà¦ıà¦ķà¦Łà¦¿ĠtestableĠofferĠà¦¬à¦¾à¦¨à¦¿à§Łà§ĩĠrealĠbehaviorĠà¦¦à¦¿à§Łà§ĩĠhypothesisĠvalidateĠà¦ķà¦°à§ģà¦¨à¥¤čĊ": 3751,
      "0Â°": 3752,
      "à¦°à§Ģà¦°": 3753,
      "à¦¾à¦°Ġà¦ıà¦¬à¦Ĥ": 3754,
      "Ġà¦¦à§ĩà¦ĵ": 3755,
      "à¥¤Ġà¦¯": 3756,
      "Ġà¦¤à¦¥à§įà¦¯": 3757,
      "à¦¾à¦®à§Ĥà¦²à¦ķ": 3758,
      "à¦¿à¦¯à¦¼à¦¾à¦°": 3759,
      "Ġmyth-vs-factĠcontentĠà¦¬à¦¾à¦¨à¦¾à¦¤à§ĩĠà¦ļà¦¾à¦ĩà¥¤Ġà¦²à¦ķà§įà¦·à§įà¦¯ĠrepeatĠpurchaseà¥¤Ġà¦ķà§Ģà¦Ńà¦¾à¦¬à§ĩĠà¦²à¦¿à¦ĸà¦¬?čĊ": 3760,
      "Ġmyth-vs-factĠcontentĠà¦¬à¦¾à¦¨à¦¾à¦¤à§ĩĠà¦ļà¦¾à¦ĩà¥¤Ġà¦²à¦ķà§įà¦·à§įà¦¯ĠleadĠgenerationà¥¤Ġà¦ķà§Ģà¦Ńà¦¾à¦¬à§ĩĠà¦²à¦¿à¦ĸà¦¬?čĊ": 3761,
      "à¦Ĥà¦ĸ": 3762,
      "-à¦ıĠà¦ķà¦¾à¦ľĠà¦ķà¦°à¦Ľà¦¿à¥¤Ġà¦¸à¦®à¦¸à§įà¦¯à¦¾:ĠROASĠà¦Ńà¦¾à¦²à§ĭĠà¦ķà¦¿à¦¨à§įà¦¤à§ģĠprofitĠà¦ķà¦®à¥¤Ġà¦Ĩà¦®à¦¿Ġ": 3763,
      "à§ģà¦ģà¦ľ": 3764,
      "à§ª": 3765,
      "à¦ıà¦¬": 3766,
      "à§ģà¦¨à§įà¦¦": 3767,
      "Ġà¦¦à¦¾à¦¯à¦¼": 3768,
      "à¦Ńà¦¾à¦¬à§ĩ": 3769,
      "à¦Ĺà§įà¦¨": 3770,
      "Ġà¦ªà§įà¦°à¦¯à¦¼": 3771,
      "à§ģà¦¨à§įà¦¦à¦°": 3772,
      "yĠchar": 3773,
      "à¦¢à¦¾à¦ķà¦¾à¦°Ġà¦¤à¦°à§ģà¦£Ġà¦ļà¦¾à¦ķà¦°à¦¿à¦ľà§Ģà¦¬à§Ģ": 3774,
      "geĠà¦ķà§ĩà¦¨": 3775,
      "à¦ªà§įà¦°à¦¿à¦¯à¦¼": 3776,
      "deliveryĠchar": 3777,
      "qualityĠà¦ķà§ĩà¦®à¦¨": 3778,
      "-à¦ıĠofferĠcontentĠà¦¬à¦¾à¦¨à¦¾à¦¤à§ĩĠà¦ļà¦¾à¦ĩà¥¤Ġà¦²à¦ķà§įà¦·à§įà¦¯Ġà¦ªà§įà¦°à¦¥à¦®Ġà§§à§¦à§¦Ġorderà¥¤Ġà¦ķà§Ģà¦Ńà¦¾à¦¬à§ĩĠà¦²à¦¿à¦ĸà¦¬?čĊ": 3779,
      "-à¦ıĠofferĠcontentĠà¦¬à¦¾à¦¨à¦¾à¦¤à§ĩĠà¦ļà¦¾à¦ĩà¥¤Ġà¦²à¦ķà§įà¦·à§įà¦¯ĠprofitableĠacquisitionà¥¤Ġà¦ķà§Ģà¦Ńà¦¾à¦¬à§ĩĠà¦²à¦¿à¦ĸà¦¬?čĊ": 3780,
      "à§ĭà¦Ŀ": 3781,
      "specificĠhobbyĠenthusiast": 3782,
      "à§¨à§¦à§¨à§ŃĠà¦¸à¦¾à¦²à§ĩĠstationery/educationĠproducts": 3783,
      "à¦¿à¦¯à¦¼à§ĭà¦Ĺ": 3784,
      "à¦¾à¦¸à§įà¦Ł": 3785,
      "homeĠorganization-à¦ıà¦°ĠcontributionĠmarginĠà¦¬à§ĩà¦°Ġà¦ķà¦°à§ģà¦¨:ĠsellingĠpriceĠà¦¥à§ĩà¦ķà§ĩĠproductĠcost,Ġpackaging,ĠdeliveryĠsubsidy,ĠexpectedĠreturn/cancellation,Ġpayment/transactionĠcostĠà¦ıà¦¬à¦ĤĠà¦ħà¦¨à§įà¦¯à¦¾à¦¨à§įà¦¯ĠvariableĠfulfillmentĠcostĠà¦¬à¦¾à¦¦Ġà¦¦à¦¿à¦¨à¥¤Ġà¦ıà¦°à¦ªà¦°ĠacquisitionĠcost-à¦ıà¦°Ġà¦¸à¦Ļà§įà¦Ĺà§ĩĠà¦¤à§ģà¦²à¦¨à¦¾Ġà¦ķà¦°à§ģà¦¨à¥¤ĠčĊ": 3786,
      "geĠà¦ķà§ĩà¦¨âĢĿà¥¤Ġà¦Ĩà¦®à¦¿Ġà¦ķà§Ģà¦Ńà¦¾à¦¬à§ĩĠconversion-à¦ıà¦°Ġà¦¦à¦¿à¦ķà§ĩĠethicalĠconversationĠà¦ļà¦¾à¦²à¦¾à¦¬?čĊ": 3787,
      "deliveryĠchargeĠà¦ķà§ĩà¦¨âĢĿà¥¤Ġà¦Ĩà¦®à¦¿Ġà¦ķà§Ģà¦Ńà¦¾à¦¬à§ĩĠconversion-à¦ıà¦°Ġà¦¦à¦¿à¦ķà§ĩĠethicalĠconversationĠà¦ļà¦¾à¦²à¦¾à¦¬?čĊ": 3788,
      "qualityĠà¦ķà§ĩà¦®à¦¨âĢĿà¥¤Ġà¦Ĩà¦®à¦¿Ġà¦ķà§Ģà¦Ńà¦¾à¦¬à§ĩĠconversion-à¦ıà¦°Ġà¦¦à¦¿à¦ķà§ĩĠethicalĠconversationĠà¦ļà¦¾à¦²à¦¾à¦¬?čĊ": 3789,
      "à¦ķà¦°": 3790,
      "à§ĩà¦Ĺ": 3791,
      "à§ĭà¦¬": 3792,
      "à§ĭà¦²": 3793,
      "à¦°à§įà¦¶": 3794,
      "à¦¦à¦¸à§įà¦¯": 3795,
      "à§¨à§¦à§¨à§ŃĠà¦¸à¦¾à¦²à§ĩĠkitchenĠproblem-solvingĠtools": 3796,
      "à¦Łà¦¿à¦²": 3797,
      "à¦¤,": 3798,
      "Ġà¦ĵà¦¯à¦¼": 3799,
      "og_": 3800,
      "ĠsocialĠproofĠcontentĠà¦¬à¦¾à¦¨à¦¾à¦¤à§ĩĠà¦ļà¦¾à¦ĩà¥¤Ġà¦²à¦ķà§įà¦·à§įà¦¯Ġà¦ªà§įà¦°à¦¥à¦®Ġà§§à§¦à§¦Ġorderà¥¤Ġà¦ķà§Ģà¦Ńà¦¾à¦¬à§ĩĠà¦²à¦¿à¦ĸà¦¬?čĊ": 3801,
      "à§ĩĠà¦īà¦ł": 3802,
      "-à¦ıĠà¦ķà¦¾à¦ľĠà¦ķà¦°à¦Ľà¦¿à¥¤Ġà¦¸à¦®à¦¸à§įà¦¯à¦¾:ĠrepeatĠpurchaseĠà¦ķà¦®à¥¤Ġà¦Ĩà¦®à¦¿Ġ": 3803,
      "Ġà¦ļà¦²à¦ķà¦¬à¦¿à¦¶à¦¿à¦·à§įà¦Ł": 3804,
      "à¦ıà¦ĸà¦¨": 3805,
      "«à¦¸à§įà¦¬à¦²à§ĩà¦°ĠsmartphoneĠuserĠà¦ıà¦ķà¦ľà¦¨Ġbuyer": 3806,
      "ĠbudgetĠà¦¨à§ĩà¦ĩ": 3807,
      "Ġà¦¸à§ģà¦¯à§ĭà¦Ĺ": 3808,
      "à¦®à¦«à¦¸à§įà¦¬à¦²à§ĩà¦°ĠsmartphoneĠuserĠà¦ıà¦ķà¦ľà¦¨Ġbuyer": 3809,
      "à¦ıà¦ĸà¦¨ĠbudgetĠà¦¨à§ĩà¦ĩ": 3810,
      "à¦ıà¦ĸà¦¨ĠbudgetĠà¦¨à§ĩà¦ĩâĢĿà¥¤Ġà¦Ĩà¦®à¦¿Ġà¦ķà§Ģà¦Ńà¦¾à¦¬à§ĩĠconversion-à¦ıà¦°Ġà¦¦à¦¿à¦ķà§ĩĠethicalĠconversationĠà¦ļà¦¾à¦²à¦¾à¦¬?čĊ": 3811,
      "Ľà§ģ": 3812,
      "à§įà¦°à¦¾à¦¸": 3813,
      "à¦¿à¦¤Ġà¦¬": 3814,
      "ĠbrandĠbuilding": 3815,
      ",Ġà¦ĩ": 3816,
      "à¥¤Ġà¦¤à¦¾à¦ĩĠx": 3817,
      "Ġà¦ıà¦ķĠà¦ļà¦²à¦ķà¦¬à¦¿à¦¶à¦¿à¦·à§įà¦Ł": 3818,
      "Ġà¦¬à¦¿à¦¶à§įà¦¬à§ĩà¦°": 3819,
      "Ġà¦«à¦²": 3820,
      "à¦¾à¦¯à¦¼à¦¤à¦¾": 3821,
      "stationery/educationĠproducts-à¦ıà¦°Ġà¦ľà¦¨à§įà¦¯ĠcontributionĠmarginĠà¦ıà¦¬à¦ĤĠacceptableĠCACĠà¦¬à§ĩà¦°Ġà¦ķà¦°à§ģà¦¨à¥¤Ġà¦¯à¦¦à¦¿ĠclickĠà¦Ńà¦¾à¦²à§ĭĠà¦ķà¦¿à¦¨à§įà¦¤à§ģĠorderĠà¦ķà¦®Ġà¦¹à§Ł,Ġpost-clickĠexperienceĠà¦¦à§ĩà¦ĸà§ģà¦¨;ĠmessageĠà¦Ńà¦¾à¦²à§ĭĠà¦ķà¦¿à¦¨à§įà¦¤à§ģĠorderĠà¦ķà¦®Ġà¦¹à¦²à§ĩĠsalesĠconversationĠà¦ĵĠobjectionsĠà¦¦à§ĩà¦ĸà§ģà¦¨;ĠorderĠà¦Ńà¦¾à¦²à§ĭĠà¦ķà¦¿à¦¨à§įà¦¤à§ģĠdeliveryĠà¦ķà¦®Ġà¦¹à¦²à§ĩĠfulfillment/CODĠprocessĠà¦¦à§ĩà¦ĸà§ģà¦¨à¥¤ĠčĊ": 3822,
      "à¦¾à¦Ĺà§ģà¦²": 3823,
      "à¥¤Ġà¦ħà¦¤à¦ıà¦¬": 3824,
      "(3": 3825,
      ")à¥¤čĊ": 3826,
      "brandĠbuilding": 3827,
      "à§ĭà¦Łà¦¿": 3828,
      "à§ĩà¦¨?âĢĿà¥¤Ġà¦Ĩà¦®à¦¿Ġà¦ķà§Ģà¦Ńà¦¾à¦¬à§ĩĠconversion-à¦ıà¦°Ġà¦¦à¦¿à¦ķà§ĩĠethicalĠconversationĠà¦ļà¦¾à¦²à¦¾à¦¬?čĊ": 3829,
      "à¥¤Ġà¦Ĺ": 3830,
      "Ġà¦ªà§įà¦°à¦¥à¦®Ġà§§à§¦à§¦Ġorderà¥¤Ġà¦ķà§ĭà¦¨à¦Ńà¦¾à¦¬à§ĩĠà¦¸à¦¿à¦¦à§įà¦§à¦¾à¦¨à§įà¦¤Ġà¦¨à§ĩà¦¬?čĊ": 3831,
      "Ġà¦ªà§įà¦°à¦¥à¦®Ġà§§à§¦à§¦Ġorder-à¦ıà¦°Ġà¦ľà¦¨à§įà¦¯Ġà¦ıà¦ķà¦Łà¦¿ĠprimaryĠmetricĠà¦łà¦¿à¦ķĠà¦ķà¦°à§ģà¦¨âĢĶà¦¯à§ĩà¦®à¦¨ĠdeliveredĠorder,ĠqualifiedĠleadĠà¦¬à¦¾ĠcontributionĠprofità¥¤ĠčĊ": 3832,
      "discountĠà¦¦à§ĩà¦¬à§ĩà¦¨?âĢĿà¥¤Ġà¦Ĩà¦®à¦¿Ġà¦ķà§Ģà¦Ńà¦¾à¦¬à§ĩĠconversion-à¦ıà¦°Ġà¦¦à¦¿à¦ķà§ĩĠethicalĠconversationĠà¦ļà¦¾à¦²à¦¾à¦¬?čĊ": 3833,
      "Ġà§«:": 3834,
      "nicheĠapparel-à¦ıà¦°Ġà¦ľà¦¨à§įà¦¯ĠcontributionĠmarginĠà¦ıà¦¬à¦ĤĠacceptableĠCACĠà¦¬à§ĩà¦°Ġà¦ķà¦°à§ģà¦¨à¥¤Ġà¦¯à¦¦à¦¿ĠclickĠà¦Ńà¦¾à¦²à§ĭĠà¦ķà¦¿à¦¨à§įà¦¤à§ģĠorderĠà¦ķà¦®Ġà¦¹à§Ł,Ġpost-clickĠexperienceĠà¦¦à§ĩà¦ĸà§ģà¦¨;ĠmessageĠà¦Ńà¦¾à¦²à§ĭĠà¦ķà¦¿à¦¨à§įà¦¤à§ģĠorderĠà¦ķà¦®Ġà¦¹à¦²à§ĩĠsalesĠconversationĠà¦ĵĠobjectionsĠà¦¦à§ĩà¦ĸà§ģà¦¨;ĠorderĠà¦Ńà¦¾à¦²à§ĭĠà¦ķà¦¿à¦¨à§įà¦¤à§ģĠdeliveryĠà¦ķà¦®Ġà¦¹à¦²à§ĩĠfulfillment/CODĠprocessĠà¦¦à§ĩà¦ĸà§ģà¦¨à¥¤ĠčĊ": 3835,
      "ĠcomparisonĠcontentĠà¦¬à¦¾à¦¨à¦¾à¦¤à§ĩĠà¦ļà¦¾à¦ĩà¥¤Ġà¦²à¦ķà§įà¦·à§įà¦¯Ġà¦ªà§įà¦°à¦¥à¦®Ġà§§à§¦à§¦Ġorderà¥¤Ġà¦ķà§Ģà¦Ńà¦¾à¦¬à§ĩĠà¦²à¦¿à¦ĸà¦¬?čĊ": 3836,
      "ĠcustomerĠstoryĠcontentĠà¦¬à¦¾à¦¨à¦¾à¦¤à§ĩĠà¦ļà¦¾à¦ĩà¥¤Ġà¦²à¦ķà§įà¦·à§įà¦¯ĠrepeatĠpurchaseà¥¤Ġà¦ķà§Ģà¦Ńà¦¾à¦¬à§ĩĠà¦²à¦¿à¦ĸà¦¬?čĊ": 3837,
      "20": 3838,
      "à¦¬à¦¿à¦¶à§įà¦¬à¦¬à¦¿à¦¦à§įà¦¯à¦¾à¦²à§Łà§ĩà¦°Ġà¦¶à¦¿à¦ķà§įà¦·à¦¾à¦°à§įà¦¥à§Ģ": 3839,
      "Ġà¦¦à¦°": 3840,
      "à§ĩĠà¦¬à¦²": 3841,
      "Ġà¦īà¦¦": 3842,
      "à¦¤à§įà¦¤à¦®": 3843,
      "ĠprofitableĠacquisitionà¥¤Ġà¦ķà§ĭà¦¨à¦Ńà¦¾à¦¬à§ĩĠà¦¸à¦¿à¦¦à§įà¦§à¦¾à¦¨à§įà¦¤Ġà¦¨à§ĩà¦¬?čĊ": 3844,
      "ĠprofitableĠacquisition-à¦ıà¦°Ġà¦ľà¦¨à§įà¦¯Ġà¦ıà¦ķà¦Łà¦¿ĠprimaryĠmetricĠà¦łà¦¿à¦ķĠà¦ķà¦°à§ģà¦¨âĢĶà¦¯à§ĩà¦®à¦¨ĠdeliveredĠorder,ĠqualifiedĠleadĠà¦¬à¦¾ĠcontributionĠprofità¥¤ĠčĊ": 3845,
      "à§¨à§¦à§¨à§ŃĠà¦¸à¦¾à¦²à§ĩĠgiftĠproducts": 3846,
      "à§¨à§¦à§¨à§ŃĠà¦¸à¦¾à¦²à§ĩĠhealthyĠsnackĠproducts": 3847,
      "giftĠproducts-à¦ıà¦°ĠcontributionĠmarginĠà¦¬à§ĩà¦°Ġà¦ķà¦°à§ģà¦¨:ĠsellingĠpriceĠà¦¥à§ĩà¦ķà§ĩĠproductĠcost,Ġpackaging,ĠdeliveryĠsubsidy,ĠexpectedĠreturn/cancellation,Ġpayment/transactionĠcostĠà¦ıà¦¬à¦ĤĠà¦ħà¦¨à§įà¦¯à¦¾à¦¨à§įà¦¯ĠvariableĠfulfillmentĠcostĠà¦¬à¦¾à¦¦Ġà¦¦à¦¿à¦¨à¥¤Ġà¦ıà¦°à¦ªà¦°ĠacquisitionĠcost-à¦ıà¦°Ġà¦¸à¦Ļà§įà¦Ĺà§ĩĠà¦¤à§ģà¦²à¦¨à¦¾Ġà¦ķà¦°à§ģà¦¨à¥¤ĠčĊ": 3848,
      "à¦¾à¦§à§Ģà¦¨": 3849,
      "à¦Ĺà§įà¦¨à¦¾à¦Ĥà¦¶": 3850,
      "à§¯": 3851,
      "à§ģà¦¨à¦¿à¦ķ": 3852,
      "Ġà¦Ĩà¦§": 3853,
      "à¦¿à¦¤à¥¤čĊ": 3854,
      "Ġà¦¸à¦®à§įà¦Ńà¦¬": 3855,
      "kitchenĠproblem-solvingĠtools-à¦ıà¦°Ġà¦ľà¦¨à§įà¦¯ĠcontributionĠmarginĠà¦ıà¦¬à¦ĤĠacceptableĠCACĠà¦¬à§ĩà¦°Ġà¦ķà¦°à§ģà¦¨à¥¤Ġà¦¯à¦¦à¦¿ĠclickĠà¦Ńà¦¾à¦²à§ĭĠà¦ķà¦¿à¦¨à§įà¦¤à§ģĠorderĠà¦ķà¦®Ġà¦¹à§Ł,Ġpost-clickĠexperienceĠà¦¦à§ĩà¦ĸà§ģà¦¨;ĠmessageĠà¦Ńà¦¾à¦²à§ĭĠà¦ķà¦¿à¦¨à§įà¦¤à§ģĠorderĠà¦ķà¦®Ġà¦¹à¦²à§ĩĠsalesĠconversationĠà¦ĵĠobjectionsĠà¦¦à§ĩà¦ĸà§ģà¦¨;ĠorderĠà¦Ńà¦¾à¦²à§ĭĠà¦ķà¦¿à¦¨à§įà¦¤à§ģĠdeliveryĠà¦ķà¦®Ġà¦¹à¦²à§ĩĠfulfillment/CODĠprocessĠà¦¦à§ĩà¦ĸà§ģà¦¨à¥¤ĠčĊ": 3856,
      "à¦ªà§įà¦°à¦¶à§įà¦¨:Ġà¦ħà¦§à§įà¦¯à¦¾à§ŁĠà§«:": 3857,
      "ĠcustomerĠstoryĠcontentĠà¦¬à¦¾à¦¨à¦¾à¦¤à§ĩĠà¦ļà¦¾à¦ĩà¥¤Ġà¦²à¦ķà§įà¦·à§įà¦¯Ġà¦ªà§įà¦°à¦¥à¦®Ġà§§à§¦à§¦Ġorderà¥¤Ġà¦ķà§Ģà¦Ńà¦¾à¦¬à§ĩĠà¦²à¦¿à¦ĸà¦¬?čĊ": 3858,
      "Ġà¦ªà¦¦à¦ķà§įà¦·à§ĩà¦ª": 3859,
      "-à¦ıĠà¦ķà¦¾à¦ľĠà¦ķà¦°à¦Ľà¦¿à¥¤Ġà¦¸à¦®à¦¸à§įà¦¯à¦¾:ĠproductĠpage-à¦ıĠtrafficĠà¦Ĩà¦Ľà§ĩĠà¦ķà¦¿à¦¨à§įà¦¤à§ģĠcheckoutĠà¦ķà¦®à¥¤Ġà¦Ĩà¦®à¦¿Ġ": 3860,
      ",Ġà¦Ĩà¦®à¦¿Ġà¦¤": 3861,
      "Ġà¦ıà¦ķĠà¦ļà¦²à¦ķà¦¬à¦¿à¦¶à¦¿à¦·à§įà¦ŁĠà¦¸à¦®à§Ģà¦ķà¦°à¦£": 3862,
      "à§ĩĠà¦¬à§įà¦¯à¦¬à¦¹à¦¾à¦°Ġà¦ķà¦°": 3863,
      "à¦¿Ġà¦ıà¦¬à¦Ĥ": 3864,
      "Ġà¦ıà¦¬à¦ĤĠà¦¬à¦¿à¦¶à§įà¦¬à¦¬à¦¿à¦¦à§įà¦¯à¦¾à¦²à§Łà§ĩà¦°Ġà¦¶à¦¿à¦ķà§įà¦·à¦¾à¦°à§įà¦¥à§Ģ": 3865,
      "Ġà¦ħà¦§": 3866,
      ",Ġà¦«": 3867,
      "Ġà¦ľà¦Łà¦¿à¦²": 3868,
      "nicheĠapparel-à¦ıà¦°ĠcontributionĠmarginĠà¦¬à§ĩà¦°Ġà¦ķà¦°à§ģà¦¨:ĠsellingĠpriceĠà¦¥à§ĩà¦ķà§ĩĠproductĠcost,Ġpackaging,ĠdeliveryĠsubsidy,ĠexpectedĠreturn/cancellation,Ġpayment/transactionĠcostĠà¦ıà¦¬à¦ĤĠà¦ħà¦¨à§įà¦¯à¦¾à¦¨à§įà¦¯ĠvariableĠfulfillmentĠcostĠà¦¬à¦¾à¦¦Ġà¦¦à¦¿à¦¨à¥¤Ġà¦ıà¦°à¦ªà¦°ĠacquisitionĠcost-à¦ıà¦°Ġà¦¸à¦Ļà§įà¦Ĺà§ĩĠà¦¤à§ģà¦²à¦¨à¦¾Ġà¦ķà¦°à§ģà¦¨à¥¤ĠčĊ": 3869,
      "à¦Ĩà¦®à¦¿Ġà§¨à§¦à§¨à§ŃĠà¦¸à¦¾à¦²à§ĩĠà¦¬à¦¿à¦¶à§įà¦¬à¦¬à¦¿à¦¦à§įà¦¯à¦¾à¦²à§Łà§ĩà¦°Ġà¦¶à¦¿à¦ķà§įà¦·à¦¾à¦°à§įà¦¥à§Ģ": 3870,
      "Ġà¦¹à¦¯à¦¼à§ĩĠà¦īà¦ł": 3871,
      "à¦ķà¦¾à¦°à§Ģ": 3872,
      "à¦¿à¦¬à§ĩà¦¶": 3873,
      "Ġà¦¸à¦°à¦²Ġà¦ķà¦°à¥¤čĊ": 3874,
      "Ġà¦ļà¦¾à¦°à¦Łà¦¿": 3875,
      "Ġà¦ıà¦¬à¦ĤĠà¦¬à¦¿à¦¶à§įà¦¬à¦¬à¦¿à¦¦à§įà¦¯à¦¾à¦²à§Łà§ĩà¦°Ġà¦¶à¦¿à¦ķà§įà¦·à¦¾à¦°à§įà¦¥à§ĢĠcombination-à¦ıà¦°Ġà¦ķà§įà¦·à§ĩà¦¤à§įà¦°à§ĩĠà¦Ĩà¦Ĺà§ĩĠbuyer-à¦ıà¦°Ġà¦¨à¦¿à¦°à§įà¦¦à¦¿à¦·à§įà¦ŁĠproblem,ĠbuyingĠoccasionĠà¦ıà¦¬à¦ĤĠwillingnessĠtoĠpayĠà¦¯à¦¾à¦ļà¦¾à¦ĩĠà¦ķà¦°à§ģà¦¨à¥¤ĠčĊ": 3876,
      "1,": 3877,
      "2,": 3878,
      "à¦¾Ġà¦ıà¦ķà¦Łà¦¿": 3879,
      "à¦¬à¦ļ": 3880,
      "Ġà¦¬à¦¾à¦¤": 3881,
      "Ġà¦Ĩà¦ķà¦¾à¦¶": 3882,
      "Ġà¦¬à¦²à§ĩà¥¤čĊ": 3883,
      "ĠsocialĠproofĠcontentĠà¦¬à¦¾à¦¨à¦¾à¦¤à§ĩĠà¦ļà¦¾à¦ĩà¥¤Ġà¦²à¦ķà§įà¦·à§įà¦¯ĠprofitableĠacquisitionà¥¤Ġà¦ķà§Ģà¦Ńà¦¾à¦¬à§ĩĠà¦²à¦¿à¦ĸà¦¬?čĊ": 3884,
      "Ġà¦¬à¦¾à¦Ĥà¦²à¦¾": 3885,
      "à¦ªà§įà¦°à¦¶à§įà¦¨:Ġà¦ħà¦§à§įà¦¯à¦¾à§ŁĠà§¨:Ġ": 3886,
      "Ġ`Ġ`": 3887,
      "à§®": 3888,
      "à¦®à¦¾à¦¨": 3889,
      "ĠdemonstrationĠcontentĠà¦¬à¦¾à¦¨à¦¾à¦¤à§ĩĠà¦ļà¦¾à¦ĩà¥¤Ġà¦²à¦ķà§įà¦·à§įà¦¯Ġà¦ªà§įà¦°à¦¥à¦®Ġsaleà¥¤Ġà¦ķà§Ģà¦Ńà¦¾à¦¬à§ĩĠà¦²à¦¿à¦ĸà¦¬?čĊ": 3890,
      "ĠdemonstrationĠcontentĠà¦¬à¦¾à¦¨à¦¾à¦¤à§ĩĠà¦ļà¦¾à¦ĩà¥¤Ġà¦²à¦ķà§įà¦·à§įà¦¯ĠprofitableĠacquisitionà¥¤Ġà¦ķà§Ģà¦Ńà¦¾à¦¬à§ĩĠà¦²à¦¿à¦ĸà¦¬?čĊ": 3891,
      "Ġà¦ħà¦Ń": 3892,
      "à§ĩà¦¶à¦¨": 3893,
      "Ġà¦°à¦ķà§įà¦·": 3894,
      "à§¨à§¦à§¨à§ŃĠà¦¸à¦¾à¦²à§ĩĠmodestĠfashion": 3895,
      "fitnessĠaccessories-à¦ıà¦°ĠcontributionĠmarginĠà¦¬à§ĩà¦°Ġà¦ķà¦°à§ģà¦¨:ĠsellingĠpriceĠà¦¥à§ĩà¦ķà§ĩĠproductĠcost,Ġpackaging,ĠdeliveryĠsubsidy,ĠexpectedĠreturn/cancellation,Ġpayment/transactionĠcostĠà¦ıà¦¬à¦ĤĠà¦ħà¦¨à§įà¦¯à¦¾à¦¨à§įà¦¯ĠvariableĠfulfillmentĠcostĠà¦¬à¦¾à¦¦Ġà¦¦à¦¿à¦¨à¥¤Ġà¦ıà¦°à¦ªà¦°ĠacquisitionĠcost-à¦ıà¦°Ġà¦¸à¦Ļà§įà¦Ĺà§ĩĠà¦¤à§ģà¦²à¦¨à¦¾Ġà¦ķà¦°à§ģà¦¨à¥¤ĠčĊ": 3896,
      "Ġà¦¸à§įà¦¬à¦¾à¦§à§Ģà¦¨": 3897,
      "à§¦,à§¦à§¦à§¦Ġà¦Łà¦¾à¦ķà¦¾ĠbudgetĠà¦¬à§įà¦¯à¦¬à¦¹à¦¾à¦°Ġà¦ķà¦°à¦Ľà¦¿à¥¤ĠconversionĠrate": 3898,
      "Ġà¦ªà§įà¦°à¦¯à§ģà¦ķà§įà¦¤à¦¿à¦°": 3899,
      "Ġà¦ķà¦¥à¦¾Ġà¦¬à¦²": 3900,
      "à¦ªà§įà¦°à¦¶à§įà¦¨:Ġà¦ħà¦§à§įà¦¯à¦¾à§ŁĠà§«:Ġà¦ıà¦ķĠà¦ļà¦²à¦ķà¦¬à¦¿à¦¶à¦¿à¦·à§įà¦ŁĠà¦¸à¦®à§Ģà¦ķà¦°à¦£": 3901,
      "à¦ªà§įà¦°à¦¶à§įà¦¨:Ġà¦ħà¦§à§įà¦¯à¦¾à§ŁĠà§«:Ġà¦ıà¦ķĠà¦ļà¦²à¦ķà¦¬à¦¿à¦¶à¦¿à¦·à§įà¦ŁĠà¦¸à¦®à§Ģà¦ķà¦°à¦£ĠâĢĶ": 3902,
      "à§ĭà¦ķ": 3903,
      "à§ĩà¦ĸà¦¾à¦¨": 3904,
      "Ġà¦¬à¦¾à¦¡à¦¼": 3905,
      "à¦¾à¦¨à§įà¦¤à¦°": 3906,
      "Ġà¦®à§Ĥà¦²à¦¦": 3907,
      "à§¨à§¦à§¨à§ŃĠà¦¸à¦¾à¦²à§ĩĠhobbyĠproducts": 3908,
      "à¦¾à¦Ĺà¦°": 3909,
      "à¦¿à¦ķà§įà¦°à¦¿à¦¯à¦¼à¦¾": 3910,
      "à§¨à§¦à§¨à§ŃĠà¦¸à¦¾à¦²à§ĩĠpersonal-careĠproducts": 3911,
      "Ġà¦¹à¦¬à§ĩĠà¦ķà¦¿": 3912,
      "à¦Ĩà¦Ĺ": 3913,
      "Ġà¦¬à¦¾à¦ģ": 3914,
      "à§¨à§¦,à§¦à§¦à§¦Ġà¦Łà¦¾à¦ķà¦¾à¦°Ġà¦ªà§ģà¦°à§ĭà¦Łà¦¾Ġinventory-à¦¤à§ĩĠà¦Ĩà¦Łà¦ķà§ĩĠà¦¨à¦¾Ġà¦°à§ĩà¦ĸà§ĩĠà¦Ľà§ĭà¦ŁĠtestĠà¦ķà¦°à§ģà¦¨à¥¤Ġ": 3915,
      "à¦¯à§ģà¦ķà§įà¦¤": 3916,
      "returnĠà¦¹à¦¬à§ĩĠà¦ķà¦¿": 3917,
      "à¦¿à¦¨à¦¿âĢĿà¥¤Ġà¦Ĩà¦®à¦¿Ġà¦ķà§Ģà¦Ńà¦¾à¦¬à§ĩĠconversion-à¦ıà¦°Ġà¦¦à¦¿à¦ķà§ĩĠethicalĠconversationĠà¦ļà¦¾à¦²à¦¾à¦¬?čĊ": 3918,
      "à§«,à§¦à§¦à§¦Ġà¦Łà¦¾à¦ķà¦¾à¦°Ġà¦ªà§ģà¦°à§ĭà¦Łà¦¾Ġinventory-à¦¤à§ĩĠà¦Ĩà¦Łà¦ķà§ĩĠà¦¨à¦¾Ġà¦°à§ĩà¦ĸà§ĩĠà¦Ľà§ĭà¦ŁĠtestĠà¦ķà¦°à§ģà¦¨à¥¤Ġ": 3919,
      "Ġà¦¸à¦°à§įà¦¬à§ĭ": 3920,
      "Ġà¦¦à¦¾à¦¯à¦¼à¦¿à¦¤à§įà¦¬": 3921,
      "Ġà¦Ĩà¦§à§ģà¦¨à¦¿à¦ķ": 3922,
      "à§ĩĠà¦¬à§įà¦¯à¦¬à¦¹à¦¾à¦°Ġà¦ķà¦°à¦¿à¦¨à¦¿âĢĿà¥¤Ġà¦Ĩà¦®à¦¿Ġà¦ķà§Ģà¦Ńà¦¾à¦¬à§ĩĠconversion-à¦ıà¦°Ġà¦¦à¦¿à¦ķà§ĩĠethicalĠconversationĠà¦ļà¦¾à¦²à¦¾à¦¬?čĊ": 3923,
      "à¦Ĩà¦Ĺà§ĩĠà¦¬à§įà¦¯à¦¬à¦¹à¦¾à¦°Ġà¦ķà¦°à¦¿à¦¨à¦¿âĢĿà¥¤Ġà¦Ĩà¦®à¦¿Ġà¦ķà§Ģà¦Ńà¦¾à¦¬à§ĩĠconversion-à¦ıà¦°Ġà¦¦à¦¿à¦ķà§ĩĠethicalĠconversationĠà¦ļà¦¾à¦²à¦¾à¦¬?čĊ": 3924,
      "returnĠà¦¹à¦¬à§ĩĠà¦ķà¦¿âĢĿà¥¤Ġà¦Ĩà¦®à¦¿Ġà¦ķà§Ģà¦Ńà¦¾à¦¬à§ĩĠconversion-à¦ıà¦°Ġà¦¦à¦¿à¦ķà§ĩĠethicalĠconversationĠà¦ļà¦¾à¦²à¦¾à¦¬?čĊ": 3925,
      "2.": 3926,
      "Ġ5": 3927,
      "Ġà¦ķà¦°à§ĩĠà¦ıà¦¬à¦Ĥ": 3928,
      "à§ĩĠà¦ľ": 3929,
      "à§ĩà¦¦": 3930,
      "à§ĩà¦ĸà¦¾à¦°": 3931,
      "à¦ķà¦¦": 3932,
      "à§¨à§¦à§¨à§ŃĠà¦¸à¦¾à¦²à§ĩĠbeautyĠtools": 3933,
      "à§¨à§¦à§¨à§ŃĠà¦¸à¦¾à¦²à§ĩĠfitnessĠaccessories": 3934,
      "à¦īà¦¤à§įà¦¤à¦°:Ġà¦¯": 3935,
      "healthyĠsnackĠproducts-à¦ıà¦°Ġà¦ľà¦¨à§įà¦¯ĠcontributionĠmarginĠà¦ıà¦¬à¦ĤĠacceptableĠCACĠà¦¬à§ĩà¦°Ġà¦ķà¦°à§ģà¦¨à¥¤Ġà¦¯à¦¦à¦¿ĠclickĠà¦Ńà¦¾à¦²à§ĭĠà¦ķà¦¿à¦¨à§įà¦¤à§ģĠorderĠà¦ķà¦®Ġà¦¹à§Ł,Ġpost-clickĠexperienceĠà¦¦à§ĩà¦ĸà§ģà¦¨;ĠmessageĠà¦Ńà¦¾à¦²à§ĭĠà¦ķà¦¿à¦¨à§įà¦¤à§ģĠorderĠà¦ķà¦®Ġà¦¹à¦²à§ĩĠsalesĠconversationĠà¦ĵĠobjectionsĠà¦¦à§ĩà¦ĸà§ģà¦¨;ĠorderĠà¦Ńà¦¾à¦²à§ĭĠà¦ķà¦¿à¦¨à§įà¦¤à§ģĠdeliveryĠà¦ķà¦®Ġà¦¹à¦²à§ĩĠfulfillment/CODĠprocessĠà¦¦à§ĩà¦ĸà§ģà¦¨à¥¤ĠčĊ": 3936,
      "Ġà¦²à¦¾à¦Ĺ": 3937,
      "hobbyĠproducts-à¦ıà¦°Ġà¦ľà¦¨à§įà¦¯ĠcontributionĠmarginĠà¦ıà¦¬à¦ĤĠacceptableĠCACĠà¦¬à§ĩà¦°Ġà¦ķà¦°à§ģà¦¨à¥¤Ġà¦¯à¦¦à¦¿ĠclickĠà¦Ńà¦¾à¦²à§ĭĠà¦ķà¦¿à¦¨à§įà¦¤à§ģĠorderĠà¦ķà¦®Ġà¦¹à§Ł,Ġpost-clickĠexperienceĠà¦¦à§ĩà¦ĸà§ģà¦¨;ĠmessageĠà¦Ńà¦¾à¦²à§ĭĠà¦ķà¦¿à¦¨à§įà¦¤à§ģĠorderĠà¦ķà¦®Ġà¦¹à¦²à§ĩĠsalesĠconversationĠà¦ĵĠobjectionsĠà¦¦à§ĩà¦ĸà§ģà¦¨;ĠorderĠà¦Ńà¦¾à¦²à§ĭĠà¦ķà¦¿à¦¨à§įà¦¤à§ģĠdeliveryĠà¦ķà¦®Ġà¦¹à¦²à§ĩĠfulfillment/CODĠprocessĠà¦¦à§ĩà¦ĸà§ģà¦¨à¥¤ĠčĊ": 3938,
      "à¦¹à¦¾à¦¯à¦¼à¦¤à¦¾": 3939,
      "ĠbrandĠbuildingà¥¤Ġà¦ķà§ĭà¦¨à¦Ńà¦¾à¦¬à§ĩĠà¦¸à¦¿à¦¦à§įà¦§à¦¾à¦¨à§įà¦¤Ġà¦¨à§ĩà¦¬?čĊ": 3940,
      "brandĠbuilding-à¦ıà¦°Ġà¦ľà¦¨à§įà¦¯Ġà¦ıà¦ķà¦Łà¦¿ĠprimaryĠmetricĠà¦łà¦¿à¦ķĠà¦ķà¦°à§ģà¦¨âĢĶà¦¯à§ĩà¦®à¦¨ĠdeliveredĠorder,ĠqualifiedĠleadĠà¦¬à¦¾ĠcontributionĠprofità¥¤ĠčĊ": 3941,
      "Ġà¦ķà¦°à¦¤": 3942,
      "Ġà¦¨à§Ģà¦¤à¦¿": 3943,
      "Ġà¦īà¦¤": 3944,
      "Ġà¦ķà§ĭà¦¨à§ĭ": 3945,
      "giftĠproducts-à¦ıà¦°Ġà¦ľà¦¨à§įà¦¯ĠcontributionĠmarginĠà¦ıà¦¬à¦ĤĠacceptableĠCACĠà¦¬à§ĩà¦°Ġà¦ķà¦°à§ģà¦¨à¥¤Ġà¦¯à¦¦à¦¿ĠclickĠà¦Ńà¦¾à¦²à§ĭĠà¦ķà¦¿à¦¨à§įà¦¤à§ģĠorderĠà¦ķà¦®Ġà¦¹à§Ł,Ġpost-clickĠexperienceĠà¦¦à§ĩà¦ĸà§ģà¦¨;ĠmessageĠà¦Ńà¦¾à¦²à§ĭĠà¦ķà¦¿à¦¨à§įà¦¤à§ģĠorderĠà¦ķà¦®Ġà¦¹à¦²à§ĩĠsalesĠconversationĠà¦ĵĠobjectionsĠà¦¦à§ĩà¦ĸà§ģà¦¨;ĠorderĠà¦Ńà¦¾à¦²à§ĭĠà¦ķà¦¿à¦¨à§įà¦¤à§ģĠdeliveryĠà¦ķà¦®Ġà¦¹à¦²à§ĩĠfulfillment/CODĠprocessĠà¦¦à§ĩà¦ĸà§ģà¦¨à¥¤ĠčĊ": 3946,
      "à§¨à§¦à§¨à§ŃĠà¦¸à¦¾à¦²à§ĩĠpet-careĠproducts": 3947,
      "Ġà¦Ĩà¦°à¦ĵ": 3948,
      "à¦ªà§įà¦°à¦¶à§įà¦¨:Ġà¦ħà¦§à§įà¦¯à¦¾à§ŁĠà§®:Ġà¦¸à§Ĥà¦ļà¦ķĠà¦ĵĠà¦²à¦Ĺà¦¾à¦°à¦¿à¦¦à¦®ĠâĢĶĠlogâĤ": 3949,
      "à§§,à§¦à§¦,à§¦à§¦à§¦Ġà¦Łà¦¾à¦ķà¦¾à¦°Ġà¦ªà§ģà¦°à§ĭà¦Łà¦¾Ġinventory-à¦¤à§ĩĠà¦Ĩà¦Łà¦ķà§ĩĠà¦¨à¦¾Ġà¦°à§ĩà¦ĸà§ĩĠà¦Ľà§ĭà¦ŁĠtestĠà¦ķà¦°à§ģà¦¨à¥¤Ġ": 3950,
      "og_a": 3951,
      "à§ĩĠsmallĠhomeĠdecor": 3952,
      "à§¨à§¦à§¨à§ŃĠà¦¸à¦¾à¦²à§ĩĠsmallĠhomeĠdecor": 3953,
      "à§¨à§¦à§¨à§ŃĠà¦¸à¦¾à¦²à§ĩĠtravelĠaccessories": 3954,
      "à¦¿à¦¯à¦¼à¦¾à¦¨": 3955,
      "à§įà¦²à¦¾à¦¸à§įà¦Ł": 3956,
      "à¦¾à¦§à§ģà¦²": 3957,
      "à¦¹à¦ľ": 3958,
      "à§¨à§¦à§¨à§ŃĠà¦¸à¦¾à¦²à§ĩĠcarĠaccessories": 3959,
      "Ġà¦¬à¦¾à¦¤à¦¾à¦¸": 3960,
      "à¦¿à¦¡": 3961,
      "à¦ªà§įà¦°à¦": 3962,
      "Ġà¦ıà¦¬à¦ĤĠà¦®à¦§à§įà¦¯à¦®Ġà¦¬à¦¾à¦ľà§ĩà¦Łà§ĩà¦°ĠonlineĠshopp": 3963,
      "Ġà¦ıà¦¬à¦ĤĠbusyĠprofessional": 3964,
      "ļà¦¾à¦²": 3965,
      "à¦¶à§įà¦ļ": 3966,
      "à§ĩà¦Ľà¦¿": 3967,
      "Messenger,Ġà¦²à¦ķà§įà¦·à§įà¦¯ĠleadĠgenerationà¥¤Ġà¦ķà§ĢĠà¦ķà¦°à¦¬?čĊ": 3968,
      "®à¦§à§įà¦¯à¦®Ġà¦¬à¦¾à¦ľà§ĩà¦Łà§ĩà¦°ĠonlineĠshopper-à¦ıà¦°Ġà¦ľà¦¨à§įà¦¯": 3969,
      "Ġà¦Ĩà¦®à¦¿": 3970,
      "à¦Ĩà¦®à¦¿Ġà§¨à§¦à§¨à§ŃĠà¦¸à¦¾à¦²à§ĩĠà¦®à¦§à§įà¦¯à¦®Ġà¦¬à¦¾à¦ľà§ĩà¦Łà§ĩà¦°ĠonlineĠshopper-à¦ıà¦°Ġà¦ľà¦¨à§įà¦¯": 3971,
      "Ġà¦¦à§ĩà¦¶à§ĩà¦°": 3972,
      "à¦Ĩà¦®à¦¿Ġà§¨à§¦à§¨à§ŃĠà¦¸à¦¾à¦²à§ĩĠbusyĠprofessional": 3973,
      "à§ĩĠà¦Ĩà¦®à¦°à¦¾": 3974,
      "à§įà¦²à¦¾à¦¸à§įà¦Łà¦¿à¦ķ": 3975,
      "Ġà¦ıà¦¬à¦ĤĠà¦®à¦§à§įà¦¯à¦®Ġà¦¬à¦¾à¦ľà§ĩà¦Łà§ĩà¦°ĠonlineĠshopperĠcombination-à¦ıà¦°Ġà¦ķà§įà¦·à§ĩà¦¤à§įà¦°à§ĩĠà¦Ĩà¦Ĺà§ĩĠbuyer-à¦ıà¦°Ġà¦¨à¦¿à¦°à§įà¦¦à¦¿à¦·à§įà¦ŁĠproblem,ĠbuyingĠoccasionĠà¦ıà¦¬à¦ĤĠwillingnessĠtoĠpayĠà¦¯à¦¾à¦ļà¦¾à¦ĩĠà¦ķà¦°à§ģà¦¨à¥¤ĠčĊ": 3976,
      "Ġà¦ıà¦¬à¦ĤĠbusyĠprofessionalĠcombination-à¦ıà¦°Ġà¦ķà§įà¦·à§ĩà¦¤à§įà¦°à§ĩĠà¦Ĩà¦Ĺà§ĩĠbuyer-à¦ıà¦°Ġà¦¨à¦¿à¦°à§įà¦¦à¦¿à¦·à§įà¦ŁĠproblem,ĠbuyingĠoccasionĠà¦ıà¦¬à¦ĤĠwillingnessĠtoĠpayĠà¦¯à¦¾à¦ļà¦¾à¦ĩĠà¦ķà¦°à§ģà¦¨à¥¤ĠčĊ": 3977,
      "à§ĩĠà¦ľà¦¨": 3978,
      "Ġà¦ĵĠà¦ª": 3979,
      "Ġà¦Ńà¦¾à¦²à§ĭà¦¬": 3980,
      "à§Ĥà¦°": 3981,
      "à¦īà¦°": 3982,
      "Facebook,Ġà¦²à¦ķà§įà¦·à§įà¦¯ĠprofitableĠacquisitionà¥¤Ġà¦ķà§ĢĠà¦ķà¦°à¦¬?čĊ": 3983,
      "à§¨à§¦à§¨à§ŃĠà¦¸à¦¾à¦²à§ĩĠmobileĠaccessories": 3984,
      "à§¨à§¦à§¨à§ŃĠà¦¸à¦¾à¦²à§ĩĠhomeĠorganization": 3985,
      "âģ»": 3986,
      "Ġà¦¥à¦¾à¦ķà¦¾": 3987,
      "ŀà§įà¦ľ": 3988,
      "à¦Ĺà§įà¦°": 3989,
      "beautyĠtools-à¦ıà¦°Ġà¦ľà¦¨à§įà¦¯ĠcontributionĠmarginĠà¦ıà¦¬à¦ĤĠacceptableĠCACĠà¦¬à§ĩà¦°Ġà¦ķà¦°à§ģà¦¨à¥¤Ġà¦¯à¦¦à¦¿ĠclickĠà¦Ńà¦¾à¦²à§ĭĠà¦ķà¦¿à¦¨à§įà¦¤à§ģĠorderĠà¦ķà¦®Ġà¦¹à§Ł,Ġpost-clickĠexperienceĠà¦¦à§ĩà¦ĸà§ģà¦¨;ĠmessageĠà¦Ńà¦¾à¦²à§ĭĠà¦ķà¦¿à¦¨à§įà¦¤à§ģĠorderĠà¦ķà¦®Ġà¦¹à¦²à§ĩĠsalesĠconversationĠà¦ĵĠobjectionsĠà¦¦à§ĩà¦ĸà§ģà¦¨;ĠorderĠà¦Ńà¦¾à¦²à§ĭĠà¦ķà¦¿à¦¨à§įà¦¤à§ģĠdeliveryĠà¦ķà¦®Ġà¦¹à¦²à§ĩĠfulfillment/CODĠprocessĠà¦¦à§ĩà¦ĸà§ģà¦¨à¥¤ĠčĊ": 3990,
      "personal-careĠproducts-à¦ıà¦°Ġà¦ľà¦¨à§įà¦¯ĠcontributionĠmarginĠà¦ıà¦¬à¦ĤĠacceptableĠCACĠà¦¬à§ĩà¦°Ġà¦ķà¦°à§ģà¦¨à¥¤Ġà¦¯à¦¦à¦¿ĠclickĠà¦Ńà¦¾à¦²à§ĭĠà¦ķà¦¿à¦¨à§įà¦¤à§ģĠorderĠà¦ķà¦®Ġà¦¹à§Ł,Ġpost-clickĠexperienceĠà¦¦à§ĩà¦ĸà§ģà¦¨;ĠmessageĠà¦Ńà¦¾à¦²à§ĭĠà¦ķà¦¿à¦¨à§įà¦¤à§ģĠorderĠà¦ķà¦®Ġà¦¹à¦²à§ĩĠsalesĠconversationĠà¦ĵĠobjectionsĠà¦¦à§ĩà¦ĸà§ģà¦¨;ĠorderĠà¦Ńà¦¾à¦²à§ĭĠà¦ķà¦¿à¦¨à§įà¦¤à§ģĠdeliveryĠà¦ķà¦®Ġà¦¹à¦²à§ĩĠfulfillment/CODĠprocessĠà¦¦à§ĩà¦ĸà§ģà¦¨à¥¤ĠčĊ": 3991,
      "Ġà¦¸à¦°à¦ķà¦¾à¦°": 3992,
      "à¦¿à¦®à§įà¦¨": 3993,
      "à§įà¦¯à¦¾à¦Ł": 3994,
      "à¥¤Ġà¦Ĩà¦®à¦¾à¦¦à§ĩà¦°": 3995,
      "à¦¾à¦ł": 3996,
      "à¦¬à¦²": 3997,
      "Ġà¦¬à¦¾à¦§à§įà¦¯": 3998,
      "Ġà¦ķà¦°à¦¾Ġà¦¯": 3999,
      "Ġà¦¸à¦®à¦¸à§įà¦¯à¦¾Ġà¦¸à¦®à¦¾à¦§à¦¾à¦¨": 4000,
      "à§¨à§¦à§¨à§ŃĠà¦¸à¦¾à¦²à§ĩĠhandmade/localĠproducts": 4001,
      "modestĠfashion-à¦ıà¦°Ġà¦ľà¦¨à§įà¦¯ĠcontributionĠmarginĠà¦ıà¦¬à¦ĤĠacceptableĠCACĠà¦¬à§ĩà¦°Ġà¦ķà¦°à§ģà¦¨à¥¤Ġà¦¯à¦¦à¦¿ĠclickĠà¦Ńà¦¾à¦²à§ĭĠà¦ķà¦¿à¦¨à§įà¦¤à§ģĠorderĠà¦ķà¦®Ġà¦¹à§Ł,Ġpost-clickĠexperienceĠà¦¦à§ĩà¦ĸà§ģà¦¨;ĠmessageĠà¦Ńà¦¾à¦²à§ĭĠà¦ķà¦¿à¦¨à§įà¦¤à§ģĠorderĠà¦ķà¦®Ġà¦¹à¦²à§ĩĠsalesĠconversationĠà¦ĵĠobjectionsĠà¦¦à§ĩà¦ĸà§ģà¦¨;ĠorderĠà¦Ńà¦¾à¦²à§ĭĠà¦ķà¦¿à¦¨à§įà¦¤à§ģĠdeliveryĠà¦ķà¦®Ġà¦¹à¦²à§ĩĠfulfillment/CODĠprocessĠà¦¦à§ĩà¦ĸà§ģà¦¨à¥¤ĠčĊ": 4002,
      "Ġà¦ªà§įà¦°à§ĭà¦Łà¦¿": 4003,
      "à¦ªà§įà¦°à¦¥à¦®à§ĩĠassumptionĠà¦Ĩà¦°ĠevidenceĠà¦Ĩà¦²à¦¾à¦¦à¦¾Ġà¦ķà¦°à§ģà¦¨à¥¤Ġ": 4004,
      "Ġà¦ħà¦§à¦¿à¦ķà¦¾à¦°": 4005,
      "à§¬": 4006,
      "à¦¨à¦¤à§ģà¦¨Ġonline": 4007,
      "à¦¾à¦§à§įà¦¯à¦®": 4008,
      "Ġà¦ıà¦¬à¦ĤĠà¦¢à¦¾à¦ķà¦¾à¦°Ġà¦¤à¦°à§ģà¦£Ġà¦ļà¦¾à¦ķà¦°à¦¿à¦ľà§Ģà¦¬à§Ģ": 4009,
      "Ġà¦ıà¦¬à¦ĤĠà¦Ľà§ĭà¦ŁĠà¦¬à§įà¦¯à¦¬à¦¸à¦¾à¦°Ġown": 4010,
      "Ġà¦Ĩà¦ķà¦¾à¦°": 4011,
      "à¦°à§įà¦ĺ": 4012,
      "à¦ķà¦¸": 4013,
      "Ġà¦¤à§ĭà¦®à¦¾à¦°": 4014,
      "homeĠorganization-à¦ıà¦°Ġà¦ľà¦¨à§įà¦¯ĠcontributionĠmarginĠà¦ıà¦¬à¦ĤĠacceptableĠCACĠà¦¬à§ĩà¦°Ġà¦ķà¦°à§ģà¦¨à¥¤Ġà¦¯à¦¦à¦¿ĠclickĠà¦Ńà¦¾à¦²à§ĭĠà¦ķà¦¿à¦¨à§įà¦¤à§ģĠorderĠà¦ķà¦®Ġà¦¹à§Ł,Ġpost-clickĠexperienceĠà¦¦à§ĩà¦ĸà§ģà¦¨;ĠmessageĠà¦Ńà¦¾à¦²à§ĭĠà¦ķà¦¿à¦¨à§įà¦¤à§ģĠorderĠà¦ķà¦®Ġà¦¹à¦²à§ĩĠsalesĠconversationĠà¦ĵĠobjectionsĠà¦¦à§ĩà¦ĸà§ģà¦¨;ĠorderĠà¦Ńà¦¾à¦²à§ĭĠà¦ķà¦¿à¦¨à§įà¦¤à§ģĠdeliveryĠà¦ķà¦®Ġà¦¹à¦²à§ĩĠfulfillment/CODĠprocessĠà¦¦à§ĩà¦ĸà§ģà¦¨à¥¤ĠčĊ": 4015,
      "travelĠaccessories-à¦ıà¦°Ġà¦ľà¦¨à§įà¦¯ĠcontributionĠmarginĠà¦ıà¦¬à¦ĤĠacceptableĠCACĠà¦¬à§ĩà¦°Ġà¦ķà¦°à§ģà¦¨à¥¤Ġà¦¯à¦¦à¦¿ĠclickĠà¦Ńà¦¾à¦²à§ĭĠà¦ķà¦¿à¦¨à§įà¦¤à§ģĠorderĠà¦ķà¦®Ġà¦¹à§Ł,Ġpost-clickĠexperienceĠà¦¦à§ĩà¦ĸà§ģà¦¨;ĠmessageĠà¦Ńà¦¾à¦²à§ĭĠà¦ķà¦¿à¦¨à§įà¦¤à§ģĠorderĠà¦ķà¦®Ġà¦¹à¦²à§ĩĠsalesĠconversationĠà¦ĵĠobjectionsĠà¦¦à§ĩà¦ĸà§ģà¦¨;ĠorderĠà¦Ńà¦¾à¦²à§ĭĠà¦ķà¦¿à¦¨à§įà¦¤à§ģĠdeliveryĠà¦ķà¦®Ġà¦¹à¦²à§ĩĠfulfillment/CODĠprocessĠà¦¦à§ĩà¦ĸà§ģà¦¨à¥¤ĠčĊ": 4016,
      "Ľà§ĭà¦ŁĠà¦¬à§įà¦¯à¦¬à¦¸à¦¾à¦°Ġowner-à¦ıà¦°Ġà¦ľà¦¨à§įà¦¯": 4017,
      "pet-careĠproducts-à¦ıà¦°Ġà¦ľà¦¨à§įà¦¯ĠcontributionĠmarginĠà¦ıà¦¬à¦ĤĠacceptableĠCACĠà¦¬à§ĩà¦°Ġà¦ķà¦°à§ģà¦¨à¥¤Ġà¦¯à¦¦à¦¿ĠclickĠà¦Ńà¦¾à¦²à§ĭĠà¦ķà¦¿à¦¨à§įà¦¤à§ģĠorderĠà¦ķà¦®Ġà¦¹à§Ł,Ġpost-clickĠexperienceĠà¦¦à§ĩà¦ĸà§ģà¦¨;ĠmessageĠà¦Ńà¦¾à¦²à§ĭĠà¦ķà¦¿à¦¨à§įà¦¤à§ģĠorderĠà¦ķà¦®Ġà¦¹à¦²à§ĩĠsalesĠconversationĠà¦ĵĠobjectionsĠà¦¦à§ĩà¦ĸà§ģà¦¨;ĠorderĠà¦Ńà¦¾à¦²à§ĭĠà¦ķà¦¿à¦¨à§įà¦¤à§ģĠdeliveryĠà¦ķà¦®Ġà¦¹à¦²à§ĩĠfulfillment/CODĠprocessĠà¦¦à§ĩà¦ĸà§ģà¦¨à¥¤ĠčĊ": 4018,
      "Ġà¦¨à¦¿à§Łà§ĩĠbusyĠprofessional-à¦ķà§ĩĠtargetĠà¦ķà¦°à§ĩĠMessenger-à¦ı": 4019,
      "à¦Ĩà¦®à¦¿Ġà§¨à§¦à§¨à§ŃĠà¦¸à¦¾à¦²à§ĩĠà¦¢à¦¾à¦ķà¦¾à¦°Ġà¦¤à¦°à§ģà¦£Ġà¦ļà¦¾à¦ķà¦°à¦¿à¦ľà§Ģà¦¬à§Ģ": 4020,
      "à¦Ĩà¦®à¦¿Ġà§¨à§¦à§¨à§ŃĠà¦¸à¦¾à¦²à§ĩĠà¦Ľà§ĭà¦ŁĠà¦¬à§įà¦¯à¦¬à¦¸à¦¾à¦°Ġowner-à¦ıà¦°Ġà¦ľà¦¨à§įà¦¯": 4021,
      "Ġà¦°à¦¾à¦·à§įà¦Łà§įà¦°": 4022,
      "Ġà¦ıà¦¬à¦ĤĠà¦¢à¦¾à¦ķà¦¾à¦°Ġà¦¤à¦°à§ģà¦£Ġà¦ļà¦¾à¦ķà¦°à¦¿à¦ľà§Ģà¦¬à§ĢĠcombination-à¦ıà¦°Ġà¦ķà§įà¦·à§ĩà¦¤à§įà¦°à§ĩĠà¦Ĩà¦Ĺà§ĩĠbuyer-à¦ıà¦°Ġà¦¨à¦¿à¦°à§įà¦¦à¦¿à¦·à§įà¦ŁĠproblem,ĠbuyingĠoccasionĠà¦ıà¦¬à¦ĤĠwillingnessĠtoĠpayĠà¦¯à¦¾à¦ļà¦¾à¦ĩĠà¦ķà¦°à§ģà¦¨à¥¤ĠčĊ": 4023,
      "Ġà¦ıà¦¬à¦ĤĠà¦Ľà§ĭà¦ŁĠà¦¬à§įà¦¯à¦¬à¦¸à¦¾à¦°ĠownerĠcombination-à¦ıà¦°Ġà¦ķà§įà¦·à§ĩà¦¤à§įà¦°à§ĩĠà¦Ĩà¦Ĺà§ĩĠbuyer-à¦ıà¦°Ġà¦¨à¦¿à¦°à§įà¦¦à¦¿à¦·à§įà¦ŁĠproblem,ĠbuyingĠoccasionĠà¦ıà¦¬à¦ĤĠwillingnessĠtoĠpayĠà¦¯à¦¾à¦ļà¦¾à¦ĩĠà¦ķà¦°à§ģà¦¨à¥¤ĠčĊ": 4024,
      "ĸà¦¨": 4025,
      "à¦«à¦²": 4026,
      "à¦¤à¦¤à¦¾": 4027,
      "à§Ģà§Ł": 4028,
      "Ġà¦ıà¦¬à¦ĤĠspecificĠhobbyĠenthusiast": 4029,
      "Ġà¦¤à¦¾à¦ķ": 4030,
      "à¦Ĩà¦®à¦¿Ġà§¨à§¦à§¨à§ŃĠà¦¸à¦¾à¦²à§ĩĠspecificĠhobbyĠenthusiast": 4031,
      "Ġà¦¬à¦¿à¦Ń": 4032,
      "à§ĭà¦¬à¦¾à¦ĩà¦²": 4033,
      "Ġà¦¦à¦°à¦ķà¦¾à¦°": 4034,
      "Ġà¦ıà¦¬à¦ĤĠspecificĠhobbyĠenthusiastĠcombination-à¦ıà¦°Ġà¦ķà§įà¦·à§ĩà¦¤à§įà¦°à§ĩĠà¦Ĩà¦Ĺà§ĩĠbuyer-à¦ıà¦°Ġà¦¨à¦¿à¦°à§įà¦¦à¦¿à¦·à§įà¦ŁĠproblem,ĠbuyingĠoccasionĠà¦ıà¦¬à¦ĤĠwillingnessĠtoĠpayĠà¦¯à¦¾à¦ļà¦¾à¦ĩĠà¦ķà¦°à§ģà¦¨à¥¤ĠčĊ": 4035,
      "(x+": 4036,
      ",Ġà¦īà¦¤à§įà¦¤à¦°": 4037,
      "à¦¬à¦¿à¦ľà§įà¦ŀà¦¾à¦¨": 4038,
      "Ġà¦¹à§įà¦°à¦¾à¦¸": 4039,
      "à§ĭà¦¨à¦¾à¦°": 4040,
      "à§«à§¦,à§¦à§¦à§¦Ġà¦Łà¦¾à¦ķà¦¾à¦°Ġà¦ªà§ģà¦°à§ĭà¦Łà¦¾Ġinventory-à¦¤à§ĩĠà¦Ĩà¦Łà¦ķà§ĩĠà¦¨à¦¾Ġà¦°à§ĩà¦ĸà§ĩĠà¦Ľà§ĭà¦ŁĠtestĠà¦ķà¦°à§ģà¦¨à¥¤Ġ": 4041,
      "...": 4042,
      "Ġà¦°à¦¾à¦ĸà¦¤à§ĩĠà¦¸": 4043,
      "Ġà¦¦à§Īà¦¨à¦¨à§įà¦¦": 4044,
      "à¦¶à§įà¦ļà¦¿à¦®": 4045,
      "Ġà¦¦à§Īà¦¨à¦¨à§įà¦¦à¦¿à¦¨": 4046,
      "Ġà¦¶à¦¿à¦¶": 4047,
      "à¦¦à¦¿à¦¨": 4048,
      "Ġà¦īà¦Ń": 4049,
[...]
